unsigned char models_model_no_quant_tflite[] = {
  0x1c, 0x00, 0x00, 0x00, 0x54, 0x46, 0x4c, 0x33, 0x14, 0x00, 0x20, 0x00,
  0x04, 0x00, 0x08, 0x00, 0x0c, 0x00, 0x10, 0x00, 0x14, 0x00, 0x00, 0x00,
  0x18, 0x00, 0x1c, 0x00, 0x14, 0x00, 0x00, 0x00, 0x03, 0x00, 0x00, 0x00,
  0x18, 0x00, 0x00, 0x00, 0x1c, 0x00, 0x00, 0x00, 0x28, 0x01, 0x00, 0x00,
  0x1c, 0x00, 0x00, 0x00, 0xd0, 0x00, 0x00, 0x00, 0x3c, 0x00, 0x00, 0x00,
  0x01, 0x00, 0x00, 0x00, 0x84, 0x02, 0x00, 0x00, 0x01, 0x00, 0x00, 0x00,
  0x30, 0x01, 0x00, 0x00, 0x09, 0x00, 0x00, 0x00, 0x6c, 0x0e, 0x00, 0x00,
  0x68, 0x0e, 0x00, 0x00, 0x98, 0x0d, 0x00, 0x00, 0x0c, 0x0d, 0x00, 0x00,
  0xc4, 0x03, 0x00, 0x00, 0xbc, 0x02, 0x00, 0x00, 0x54, 0x0e, 0x00, 0x00,
  0x50, 0x0e, 0x00, 0x00, 0xc8, 0x00, 0x00, 0x00, 0x01, 0x00, 0x00, 0x00,
  0x10, 0x00, 0x00, 0x00, 0x0c, 0x00, 0x14, 0x00, 0x10, 0x00, 0x0c, 0x00,
  0x08, 0x00, 0x04, 0x00, 0x0c, 0x00, 0x00, 0x00, 0x10, 0x00, 0x00, 0x00,
  0x18, 0x00, 0x00, 0x00, 0x28, 0x00, 0x00, 0x00, 0x2c, 0x00, 0x00, 0x00,
  0x05, 0x00, 0x00, 0x00, 0x73, 0x65, 0x72, 0x76, 0x65, 0x00, 0x00, 0x00,
  0x0f, 0x00, 0x00, 0x00, 0x73, 0x65, 0x72, 0x76, 0x69, 0x6e, 0x67, 0x5f,
  0x64, 0x65, 0x66, 0x61, 0x75, 0x6c, 0x74, 0x00, 0x01, 0x00, 0x00, 0x00,
  0x14, 0x00, 0x00, 0x00, 0x01, 0x00, 0x00, 0x00, 0x24, 0x00, 0x00, 0x00,
  0x08, 0x00, 0x0c, 0x00, 0x08, 0x00, 0x04, 0x00, 0x08, 0x00, 0x00, 0x00,
  0x06, 0x00, 0x00, 0x00, 0x04, 0x00, 0x00, 0x00, 0x07, 0x00, 0x00, 0x00,
  0x64, 0x65, 0x6e, 0x73, 0x65, 0x5f, 0x31, 0x00, 0x02, 0xf3, 0xff, 0xff,
  0x04, 0x00, 0x00, 0x00, 0x0b, 0x00, 0x00, 0x00, 0x64, 0x65, 0x6e, 0x73,
  0x65, 0x5f, 0x69, 0x6e, 0x70, 0x75, 0x74, 0x00, 0x01, 0x00, 0x00, 0x00,
  0x0c, 0x00, 0x00, 0x00, 0x08, 0x00, 0x0c, 0x00, 0x04, 0x00, 0x08, 0x00,
  0x08, 0x00, 0x00, 0x00, 0x08, 0x00, 0x00, 0x00, 0x08, 0x00, 0x00, 0x00,
  0x13, 0x00, 0x00, 0x00, 0x6d, 0x69, 0x6e, 0x5f, 0x72, 0x75, 0x6e, 0x74,
  0x69, 0x6d, 0x65, 0x5f, 0x76, 0x65, 0x72, 0x73, 0x69, 0x6f, 0x6e, 0x00,
  0x4e, 0xf3, 0xff, 0xff, 0x04, 0x00, 0x00, 0x00, 0x10, 0x00, 0x00, 0x00,
  0x31, 0x2e, 0x35, 0x2e, 0x30, 0x00, 0x00, 0x00, 0x00, 0x00, 0x00, 0x00,
  0x00, 0x00, 0x00, 0x00, 0x0f, 0x00, 0x00, 0x00, 0x4d, 0x4c, 0x49, 0x52,
  0x20, 0x43, 0x6f, 0x6e, 0x76, 0x65, 0x72, 0x74, 0x65, 0x64, 0x2e, 0x00,
  0x00, 0x00, 0x0e, 0x00, 0x18, 0x00, 0x04, 0x00, 0x08, 0x00, 0x0c, 0x00,
  0x10, 0x00, 0x14, 0x00, 0x0e, 0x00, 0x00, 0x00, 0x14, 0x00, 0x00, 0x00,
  0x30, 0x00, 0x00, 0x00, 0x34, 0x00, 0x00, 0x00, 0x38, 0x00, 0x00, 0x00,
  0x40, 0x00, 0x00, 0x00, 0x07, 0x00, 0x00, 0x00, 0xcc, 0x0c, 0x00, 0x00,
  0x80, 0x0c, 0x00, 0x00, 0x18, 0x0c, 0x00, 0x00, 0x90, 0x0b, 0x00, 0x00,
  0x48, 0x02, 0x00, 0x00, 0x2c, 0x01, 0x00, 0x00, 0x6c, 0x00, 0x00, 0x00,
  0x01, 0x00, 0x00, 0x00, 0x00, 0x00, 0x00, 0x00, 0x01, 0x00, 0x00, 0x00,
  0x06, 0x00, 0x00, 0x00, 0x02, 0x00, 0x00, 0x00, 0xb8, 0x00, 0x00, 0x00,
  0x1c, 0x00, 0x00, 0x00, 0x04, 0x00, 0x00, 0x00, 0x6d, 0x61, 0x69, 0x6e,
  0x00, 0x00, 0x0e, 0x00, 0x14, 0x00, 0x00, 0x00, 0x08, 0x00, 0x0c, 0x00,
  0x07, 0x00, 0x10, 0x00, 0x0e, 0x00, 0x00, 0x00, 0x00, 0x00, 0x00, 0x08,
  0x1c, 0x00, 0x00, 0x00, 0x10, 0x00, 0x00, 0x00, 0x04, 0x00, 0x00, 0x00,
  0x66, 0xff, 0xff, 0xff, 0x00, 0x00, 0x00, 0x01, 0x01, 0x00, 0x00, 0x00,
  0x06, 0x00, 0x00, 0x00, 0x03, 0x00, 0x00, 0x00, 0x05, 0x00, 0x00, 0x00,
  0x04, 0x00, 0x00, 0x00, 0x01, 0x00, 0x00, 0x00, 0xcc, 0xf3, 0xff, 0xff,
  0x14, 0x00, 0x00, 0x00, 0x07, 0x00, 0x00, 0x00, 0x18, 0x00, 0x00, 0x00,
  0x40, 0x00, 0x00, 0x00, 0x30, 0x00, 0x00, 0x00, 0x02, 0x00, 0x00, 0x00,
  0x01, 0x00, 0x00, 0x00, 0x03, 0x00, 0x00, 0x00, 0x19, 0x00, 0x00, 0x00,
  0x53, 0x74, 0x61, 0x74, 0x65, 0x66, 0x75, 0x6c, 0x50, 0x61, 0x72, 0x74,
  0x69, 0x74, 0x69, 0x6f, 0x6e, 0x65, 0x64, 0x43, 0x61, 0x6c, 0x6c, 0x3a,
  0x30, 0x00, 0x00, 0x00, 0x02, 0x00, 0x00, 0x00, 0xff, 0xff, 0xff, 0xff,
  0x03, 0x00, 0x00, 0x00, 0x88, 0xf4, 0xff, 0xff, 0x00, 0x00, 0x0e, 0x00,
  0x16, 0x00, 0x00, 0x00, 0x08, 0x00, 0x0c, 0x00, 0x07, 0x00, 0x10, 0x00,
  0x0e, 0x00, 0x00, 0x00, 0x00, 0x00, 0x00, 0x08, 0x24, 0x00, 0x00, 0x00,
  0x18, 0x00, 0x00, 0x00, 0x0c, 0x00, 0x00, 0x00, 0x00, 0x00, 0x06, 0x00,
  0x08, 0x00, 0x07, 0x00, 0x06, 0x00, 0x00, 0x00, 0x00, 0x00, 0x00, 0x01,
  0x01, 0x00, 0x00, 0x00, 0x05, 0x00, 0x00, 0x00, 0x03, 0x00, 0x00, 0x00,
  0x00, 0x00, 0x00, 0x00, 0x03, 0x00, 0x00, 0x00, 0x02, 0x00, 0x00, 0x00,
  0x0c, 0x00, 0x10, 0x00, 0x0b, 0x00, 0x00, 0x00, 0x0c, 0x00, 0x04, 0x00,
  0x0c, 0x00, 0x00, 0x00, 0x09, 0x00, 0x00, 0x00, 0x00, 0x00, 0x00, 0x09,
  0x01, 0x00, 0x00, 0x00, 0x88, 0xf4, 0xff, 0xff, 0x14, 0x00, 0x00, 0x00,
  0x06, 0x00, 0x00, 0x00, 0x18, 0x00, 0x00, 0x00, 0x38, 0x00, 0x00, 0x00,
  0x28, 0x00, 0x00, 0x00, 0x02, 0x00, 0x00, 0x00, 0x01, 0x00, 0x00, 0x00,
  0x10, 0x00, 0x00, 0x00, 0x13, 0x00, 0x00, 0x00, 0x74, 0x66, 0x6c, 0x2e,
  0x66, 0x75, 0x6c, 0x6c, 0x79, 0x5f, 0x63, 0x6f, 0x6e, 0x6e, 0x65, 0x63,
  0x74, 0x65, 0x64, 0x00, 0x02, 0x00, 0x00, 0x00, 0xff, 0xff, 0xff, 0xff,
  0x10, 0x00, 0x00, 0x00, 0x64, 0xf4, 0xff, 0xff, 0x36, 0xf5, 0xff, 0xff,
  0x04, 0x00, 0x00, 0x00, 0xc0, 0x00, 0x00, 0x00, 0x51, 0xfe, 0xc5, 0xbd,
  0x38, 0xc5, 0xe0, 0x3e, 0x74, 0x28, 0x93, 0xbd, 0xce, 0x6e, 0x86, 0x3e,
  0x3c, 0xa6, 0x50, 0xbd, 0xef, 0x46, 0x0f, 0xbf, 0x96, 0xac, 0x36, 0x3c,
  0x3e, 0x96, 0xeb, 0x3e, 0x42, 0x66, 0x1f, 0x3e, 0xde, 0xff, 0x0e, 0xbf,
  0xde, 0x46, 0x95, 0x3e, 0x37, 0x41, 0xfb, 0x3e, 0xd3, 0x85, 0xe1, 0x3e,
  0xb6, 0xe8, 0x20, 0xbd, 0xc5, 0x35, 0xf5, 0xbd, 0x86, 0xff, 0x2e, 0x3d,
  0x51, 0x18, 0x82, 0xbd, 0x88, 0x6d, 0x4f, 0x3e, 0x54, 0xe4, 0x93, 0x3e,
  0xde, 0x22, 0xcf, 0xbe, 0xc4, 0x76, 0x55, 0x3d, 0x85, 0xe7, 0x07, 0x3e,
  0xbd, 0xe1, 0x97, 0x3c, 0xdc, 0xac, 0xf2, 0xbe, 0x99, 0x08, 0x8d, 0xbe,
  0xd3, 0x2d, 0x04, 0x3f, 0x9b, 0x7d, 0x33, 0x3e, 0xc3, 0xa4, 0xae, 0x3e,
  0xf3, 0x0b, 0x09, 0xbf, 0x08, 0x6a, 0x0e, 0xbe, 0xb6, 0x94, 0x19, 0xbe,
  0x7b, 0x26, 0xa6, 0xbe, 0x50, 0xb7, 0xd9, 0xbd, 0x9d, 0xee, 0x36, 0xbe,
  0x36, 0x21, 0x86, 0xbd, 0x2d, 0x48, 0x20, 0x3d, 0xc3, 0x9d, 0x86, 0xbe,
  0x66, 0xb1, 0xd6, 0x3e, 0xbf, 0xaf, 0x8f, 0xbe, 0x67, 0xac, 0x0c, 0x3f,
  0x88, 0xb1, 0xa9, 0x3e, 0x0f, 0xae, 0xd5, 0x3e, 0x36, 0x03, 0xc5, 0xbe,
  0x76, 0x8e, 0x06, 0x3f, 0x46, 0x01, 0xaf, 0xbd, 0x03, 0xd4, 0xad, 0xbe,
  0xd9, 0xb9, 0x9b, 0xbe, 0x6b, 0xb4, 0xac, 0x3e, 0xe2, 0xf5, 0xff, 0xff,
  0x10, 0x00, 0x00, 0x00, 0x05, 0x00, 0x00, 0x00, 0x14, 0x00, 0x00, 0x00,
  0x24, 0x00, 0x00, 0x00, 0x02, 0x00, 0x00, 0x00, 0x03, 0x00, 0x00, 0x00,
  0x10, 0x00, 0x00, 0x00, 0x0d, 0x00, 0x00, 0x00, 0x73, 0x74, 0x64, 0x2e,
  0x63, 0x6f, 0x6e, 0x73, 0x74, 0x61, 0x6e, 0x74, 0x31, 0x00, 0x00, 0x00,
  0x68, 0xf5, 0xff, 0xff, 0x3a, 0xf6, 0xff, 0xff, 0x04, 0x00, 0x00, 0x00,
  0x00, 0x09, 0x00, 0x00, 0xa0, 0xd9, 0x4e, 0xbe, 0xea, 0x2d, 0x0f, 0xbe,
  0xaf, 0x78, 0x65, 0xbd, 0xb7, 0x7f, 0xbb, 0x3d, 0x31, 0xb0, 0x09, 0x3e,
  0x04, 0x8e, 0x98, 0xbe, 0xc2, 0xf1, 0xa2, 0x3d, 0xb0, 0x5e, 0x33, 0x3d,
  0x77, 0xe3, 0x64, 0x3e, 0x95, 0xf7, 0x84, 0x3e, 0x52, 0x50, 0x8d, 0x3e,
  0x2d, 0xc2, 0xb3, 0xbe, 0xa8, 0x73, 0x35, 0xbe, 0x5b, 0xd2, 0x4c, 0xbd,
  0x84, 0x28, 0x8b, 0x3e, 0x69, 0x2c, 0x6f, 0x3c, 0x60, 0xdc, 0x71, 0xbe,
  0x50, 0xae, 0x37, 0x3c, 0x39, 0xed, 0x86, 0xbd, 0x77, 0x94, 0xba, 0xbe,
  0x7e, 0x29, 0xfe, 0xbd, 0x2a, 0x6f, 0x72, 0xbe, 0xfc, 0xf0, 0x5a, 0xbe,
  0x8d, 0x12, 0x18, 0xbe, 0xbf, 0xe0, 0x07, 0x3d, 0x05, 0x1e, 0x6b, 0xbe,
  0x8a, 0x2e, 0xff, 0xbd, 0x14, 0xc4, 0xa9, 0x3c, 0xe2, 0x03, 0x99, 0x3e,
  0x41, 0xa3, 0x9a, 0x3d, 0x09, 0x46, 0x28, 0xbe, 0xc4, 0x03, 0x65, 0x3e,
  0x17, 0xa1, 0x95, 0xbe, 0x62, 0xe0, 0x00, 0x3e, 0xdb, 0x7c, 0xab, 0x3d,
  0x24, 0xd0, 0xc1, 0x3d, 0xe4, 0xf2, 0xa1, 0x3e, 0xcf, 0xef, 0x7f, 0xbe,
  0xdf, 0x8d, 0xf7, 0x3c, 0xca, 0x75, 0x44, 0x3d, 0x78, 0xcf, 0x4e, 0xbb,
  0x32, 0x43, 0x3b, 0x3e, 0x33, 0xc9, 0x9f, 0x3d, 0x14, 0xaf, 0x7c, 0x3d,
  0x15, 0x4b, 0x46, 0xbe, 0xc4, 0xbd, 0x90, 0xbe, 0x42, 0xc7, 0x55, 0x3e,
  0x3c, 0x81, 0xe2, 0x3b, 0xaf, 0xfa, 0xa1, 0x3e, 0x39, 0xe4, 0xc7, 0xbe,
  0xa9, 0x01, 0x92, 0x3e, 0x07, 0x79, 0x5d, 0x3c, 0x3e, 0x1c, 0xa8, 0x3d,
  0xef, 0xe1, 0x59, 0xbe, 0x7b, 0xfe, 0x18, 0xbe, 0x16, 0x85, 0x1f, 0xbd,
  0x5a, 0x71, 0x57, 0x3e, 0xd3, 0x0c, 0xb3, 0xbe, 0xeb, 0xdd, 0xf9, 0xba,
  0xab, 0xa3, 0x33, 0xbe, 0x5e, 0x32, 0x34, 0x3e, 0x1a, 0x8b, 0xb1, 0x3e,
  0x58, 0xa4, 0xae, 0xbd, 0xee, 0xc1, 0x9d, 0xbd, 0xd6, 0x5f, 0x15, 0x3e,
  0xb9, 0xf3, 0xef, 0xb7, 0x98, 0xdd, 0xbd, 0xbc, 0x3e, 0xea, 0x61, 0xbc,
  0xeb, 0x58, 0x54, 0xbe, 0x43, 0x22, 0xbf, 0xbd, 0xc1, 0xbb, 0xe3, 0x3c,
  0xca, 0x6f, 0x70, 0xbd, 0xc8, 0xd3, 0xbc, 0x3d, 0x92, 0xaa, 0x72, 0x3e,
  0xdd, 0x4a, 0x0b, 0x3c, 0x07, 0x5c, 0x2d, 0x3c, 0x54, 0x92, 0x8c, 0xbe,
  0x7e, 0xec, 0x2f, 0xbe, 0x09, 0xf0, 0x5e, 0xbe, 0x39, 0x65, 0xe9, 0xbc,
  0xb6, 0xf7, 0x17, 0x3e, 0x59, 0x07, 0xf9, 0xbd, 0xdb, 0x81, 0x9c, 0xbe,
  0x31, 0xe9, 0x4d, 0xbe, 0xac, 0x59, 0x33, 0xbd, 0x9b, 0xdf, 0x3a, 0xbe,
  0x5f, 0x27, 0xb1, 0xbe, 0x0e, 0x56, 0x63, 0x3d, 0x4b, 0x5a, 0x45, 0x3e,
  0x88, 0xac, 0x60, 0x3e, 0x75, 0x61, 0xd1, 0x3d, 0xc5, 0x3a, 0xae, 0x3e,
  0xa8, 0x6e, 0x13, 0xbe, 0x27, 0xb9, 0xf8, 0xbd, 0xea, 0xc3, 0x5a, 0xbd,
  0x2f, 0x36, 0x08, 0x3e, 0x5c, 0x4a, 0x92, 0xbe, 0x3a, 0xbf, 0x98, 0xbe,
  0x8c, 0x1e, 0xa4, 0x3c, 0xcb, 0x20, 0x91, 0xbe, 0x5b, 0xd9, 0x8c, 0x3e,
  0x08, 0xd7, 0x45, 0x3e, 0x3d, 0x88, 0xd4, 0xbb, 0xdf, 0xec, 0x8f, 0x3e,
  0xad, 0x89, 0x7e, 0xbe, 0x25, 0x8d, 0xe3, 0x3d, 0x96, 0x8c, 0x79, 0xbe,
  0x33, 0xf1, 0x91, 0x3e, 0x76, 0xbe, 0xad, 0xbd, 0x9e, 0x34, 0x97, 0x3e,
  0x3f, 0xfe, 0x18, 0xbd, 0xab, 0x43, 0xa1, 0xbe, 0x63, 0x31, 0x96, 0xbd,
  0xf5, 0x0b, 0x7f, 0x3e, 0x9c, 0x5c, 0x4d, 0xbe, 0x55, 0xaf, 0x58, 0x3e,
  0xd0, 0xeb, 0x56, 0x3e, 0xca, 0x61, 0x57, 0x3e, 0x20, 0xae, 0xa1, 0xbd,
  0xf2, 0x94, 0x26, 0x3e, 0x5b, 0xe4, 0x45, 0x3c, 0x62, 0x67, 0x4a, 0x3e,
  0x5a, 0xc8, 0x47, 0x3e, 0xa7, 0xb5, 0x54, 0xbe, 0xf9, 0x9f, 0x86, 0xbe,
  0x3a, 0x96, 0x1e, 0xbe, 0xa7, 0x89, 0xd9, 0x3d, 0xb5, 0x10, 0x8c, 0xbe,
  0x24, 0x3b, 0x25, 0x3e, 0x62, 0x8d, 0xae, 0xbe, 0xb4, 0x43, 0x41, 0xbe,
  0x8a, 0x68, 0x82, 0x3e, 0xf1, 0xab, 0x42, 0xbe, 0x01, 0x5d, 0x02, 0x3e,
  0x36, 0x97, 0x1c, 0xbe, 0x9a, 0x0f, 0x38, 0xbe, 0x49, 0x9c, 0x47, 0x3e,
  0xba, 0xa3, 0xec, 0x3d, 0x3a, 0xe4, 0x46, 0x3e, 0x19, 0xdb, 0x22, 0xbe,
  0x70, 0x7c, 0x1f, 0xbe, 0xc7, 0x5f, 0x68, 0x3e, 0x8f, 0xb3, 0x61, 0x3d,
  0x4d, 0x6c, 0x89, 0x3e, 0xac, 0xc8, 0xde, 0xbd, 0x7c, 0xb6, 0xcd, 0x3d,
  0x96, 0x74, 0x41, 0xbe, 0x36, 0x94, 0xaf, 0x3d, 0x75, 0x28, 0xb1, 0x3d,
  0xca, 0xa0, 0x21, 0x3e, 0x6f, 0x91, 0x42, 0x3c, 0xde, 0x4c, 0x24, 0xbe,
  0x8a, 0x83, 0x57, 0xbd, 0xbe, 0x6d, 0x30, 0x3e, 0x7f, 0x24, 0x3a, 0xbd,
  0xe0, 0x17, 0x49, 0xbe, 0x3c, 0xbc, 0x82, 0xbe, 0x76, 0x3c, 0x37, 0xbe,
  0x4b, 0x1c, 0x4d, 0xbe, 0x74, 0x39, 0x53, 0x3e, 0x64, 0xc6, 0x80, 0x3d,
  0xde, 0xb3, 0x74, 0xbe, 0x3d, 0xeb, 0x45, 0x3e, 0x8b, 0xbb, 0x94, 0xbe,
  0x67, 0x4f, 0x70, 0xbe, 0x56, 0x53, 0x37, 0xbe, 0x0b, 0x8a, 0x34, 0x3e,
  0x59, 0xd1, 0xb3, 0xbd, 0x5f, 0x64, 0x96, 0x3e, 0x06, 0xe1, 0x1e, 0xbe,
  0xff, 0xae, 0x22, 0xbe, 0xe3, 0xe8, 0x73, 0xbe, 0x76, 0x10, 0x8e, 0x3e,
  0x81, 0xcf, 0xaf, 0xbd, 0x67, 0x98, 0x9a, 0x3e, 0x85, 0x02, 0xc3, 0xbe,
  0x2c, 0xbb, 0xfb, 0xbd, 0x07, 0x95, 0x09, 0x3d, 0x9d, 0x33, 0x0b, 0x3d,
  0xe1, 0x63, 0xdf, 0x3d, 0x98, 0xf8, 0x4e, 0x3d, 0x2a, 0xb5, 0x40, 0xbe,
  0xea, 0xd6, 0x58, 0x3e, 0xbc, 0xd4, 0x00, 0xbe, 0xf2, 0x73, 0xfc, 0xbd,
  0xa3, 0x7a, 0x63, 0xbe, 0x5a, 0xc3, 0x23, 0xbe, 0x73, 0x3b, 0xe4, 0xbd,
  0x41, 0xfd, 0xb3, 0xbd, 0xf5, 0x9a, 0x12, 0xbe, 0x25, 0xb3, 0x89, 0x3e,
  0x88, 0x32, 0x90, 0x3c, 0x88, 0xe9, 0xae, 0xbc, 0xaa, 0x16, 0x71, 0x3e,
  0xa7, 0x90, 0x74, 0xbc, 0x13, 0x78, 0x90, 0xbe, 0x0d, 0x8d, 0x5f, 0x3d,
  0x2e, 0xef, 0xa7, 0xbe, 0xb5, 0xec, 0x33, 0xbe, 0x0d, 0x00, 0x80, 0x3e,
  0xae, 0xbc, 0x7c, 0xbd, 0x16, 0xa1, 0xa3, 0xbe, 0x3e, 0xae, 0x0c, 0xbe,
  0xb2, 0x88, 0x67, 0x3e, 0x73, 0x30, 0x53, 0xbe, 0x8b, 0xd9, 0x9b, 0x3d,
  0xb0, 0x15, 0x01, 0xbe, 0xc8, 0x1e, 0x03, 0x3d, 0x2f, 0x0f, 0x4d, 0xbd,
  0x40, 0x40, 0x22, 0xbe, 0xbc, 0xc7, 0xf4, 0xbd, 0xc9, 0x0f, 0x4c, 0xbe,
  0xca, 0xd5, 0x47, 0x3e, 0x46, 0xae, 0x80, 0xbd, 0x41, 0xa9, 0x9b, 0x3d,
  0x29, 0xa6, 0x66, 0xbe, 0x2b, 0xf3, 0xcb, 0x3e, 0x1a, 0x8f, 0x92, 0xbe,
  0xcf, 0xf3, 0x91, 0x3e, 0xfd, 0xd9, 0xc5, 0x38, 0xe3, 0x31, 0xb2, 0xbe,
  0x60, 0x16, 0x2c, 0x3e, 0xee, 0x12, 0xca, 0x3d, 0x05, 0xb6, 0xdb, 0xbd,
  0xdc, 0xf8, 0x3f, 0x3e, 0xac, 0xd3, 0x7a, 0x3e, 0x27, 0x33, 0xed, 0x3d,
  0xfb, 0x6c, 0xce, 0x3d, 0x7a, 0x81, 0xe8, 0x3d, 0x9e, 0x9d, 0x1b, 0x3d,
  0x71, 0x5b, 0x98, 0x3e, 0xa4, 0xd5, 0x8e, 0x3d, 0x08, 0xc2, 0xcf, 0xbe,
  0xa1, 0xf5, 0x6a, 0x3e, 0xb8, 0x8b, 0x8f, 0x3e, 0x26, 0xf8, 0x0f, 0x3e,
  0x54, 0x35, 0x25, 0xbe, 0x1d, 0xc2, 0x26, 0x3e, 0x6c, 0x9f, 0xeb, 0x3d,
  0x97, 0x62, 0xaa, 0xbe, 0x51, 0x1d, 0x77, 0x3e, 0x87, 0xa2, 0x85, 0x3e,
  0x41, 0x2d, 0xdc, 0x3b, 0xbe, 0x90, 0x8f, 0xbe, 0x5f, 0xa9, 0xb8, 0xbd,
  0x43, 0xd6, 0x58, 0xbe, 0xc7, 0xeb, 0x8f, 0x3d, 0x0f, 0x57, 0x04, 0x3e,
  0x15, 0xd7, 0x8a, 0x3e, 0x10, 0xef, 0x58, 0xbe, 0xdd, 0x77, 0x25, 0xbd,
  0x64, 0x4d, 0xa1, 0x3e, 0xb4, 0xb5, 0xb6, 0xbd, 0xf2, 0x0a, 0xe1, 0xbd,
  0x37, 0xa2, 0xf1, 0x3d, 0x6e, 0x87, 0x0a, 0xbb, 0xcb, 0x0a, 0x87, 0x3b,
  0xfc, 0x88, 0x85, 0x3e, 0x55, 0x8b, 0x90, 0x3e, 0x77, 0x72, 0xf6, 0xbd,
  0x9c, 0x0a, 0x67, 0xbe, 0xd8, 0x1e, 0x9f, 0xbe, 0xca, 0xcb, 0x79, 0xbd,
  0x42, 0xf3, 0x0d, 0xbe, 0x2a, 0x50, 0x91, 0xbc, 0x22, 0x08, 0xa3, 0x3c,
  0x60, 0xdf, 0x94, 0x3d, 0xcd, 0x83, 0x24, 0x3b, 0x42, 0x9c, 0x5a, 0x3e,
  0xd7, 0x6c, 0xac, 0x3d, 0x0f, 0x6b, 0x7f, 0xbe, 0x18, 0xbe, 0x83, 0xbe,
  0x71, 0x4f, 0x6d, 0x3b, 0xcb, 0xfa, 0xcc, 0xbd, 0x82, 0x5a, 0x9e, 0xbe,
  0x60, 0xbd, 0x55, 0x3e, 0x89, 0x07, 0x62, 0x3e, 0x95, 0xaa, 0x09, 0xbe,
  0xec, 0x9f, 0xf8, 0xbc, 0x40, 0x07, 0xac, 0x3e, 0x06, 0x4d, 0x1e, 0x3e,
  0xff, 0x52, 0x1b, 0xbe, 0xe5, 0x5a, 0x4c, 0x3d, 0x40, 0x94, 0x7b, 0x3e,
  0x38, 0xb4, 0xba, 0xbd, 0x3b, 0x23, 0x27, 0xbe, 0x7e, 0x55, 0xc0, 0xbd,
  0xb1, 0x6c, 0x33, 0x3e, 0xa0, 0x49, 0xd8, 0x3d, 0xa8, 0xc6, 0xd3, 0xbd,
  0xf7, 0x3f, 0x19, 0xbe, 0x15, 0xdf, 0x92, 0xbe, 0x37, 0xf2, 0x72, 0x3e,
  0x87, 0x0f, 0x1b, 0xbe, 0x1a, 0x3d, 0x94, 0xbe, 0x73, 0xe2, 0x8b, 0xbe,
  0x43, 0x14, 0x76, 0x3b, 0x76, 0xdf, 0xa4, 0xbe, 0x19, 0x75, 0x3f, 0xbd,
  0x59, 0xd8, 0x3c, 0x3e, 0xc1, 0xed, 0x9b, 0x3e, 0xd3, 0x40, 0x90, 0xbe,
  0x10, 0x38, 0xcf, 0x3c, 0x9a, 0x52, 0x77, 0xbe, 0x6c, 0x7f, 0x25, 0x3e,
  0xd4, 0x46, 0x64, 0xbc, 0x2a, 0x39, 0x69, 0xbe, 0x13, 0x58, 0x0c, 0xbd,
  0xf1, 0x84, 0x1f, 0xbe, 0x53, 0x31, 0xa4, 0x3e, 0x95, 0x60, 0x72, 0xbc,
  0xcc, 0x43, 0xcf, 0xbc, 0x31, 0x2d, 0xa5, 0xbd, 0x84, 0x4b, 0xc8, 0x3d,
  0x09, 0xbd, 0x47, 0x3d, 0x68, 0x06, 0xc1, 0xbd, 0x3a, 0xf1, 0x3c, 0xbe,
  0xf8, 0x41, 0x70, 0x3d, 0x23, 0xe6, 0xb2, 0xbe, 0x26, 0xe8, 0x91, 0x3d,
  0x12, 0xb1, 0x6e, 0xbe, 0x2c, 0x02, 0x95, 0xbd, 0x48, 0x71, 0x82, 0xbe,
  0xe9, 0x09, 0x68, 0x3e, 0x5d, 0xc6, 0xb4, 0x3c, 0x4b, 0x67, 0xc9, 0x3e,
  0xa2, 0xce, 0x2d, 0xbe, 0x37, 0xc7, 0x87, 0x3e, 0x80, 0xef, 0x29, 0x3e,
  0x60, 0x5f, 0xf7, 0x3d, 0x82, 0x0f, 0xb9, 0xbe, 0xad, 0x13, 0x81, 0xbd,
  0x35, 0xe5, 0x2f, 0x3e, 0x16, 0xc7, 0x6e, 0x3d, 0x86, 0x45, 0x5b, 0xbd,
  0x90, 0xeb, 0x2d, 0xbd, 0x4e, 0xb6, 0xc3, 0x3d, 0xa2, 0x97, 0xef, 0x3d,
  0x6e, 0x1d, 0x22, 0x3e, 0x83, 0x71, 0x55, 0x3e, 0x4b, 0xa6, 0x13, 0x3d,
  0x59, 0x94, 0x0f, 0xbe, 0xfd, 0x83, 0xdd, 0xbe, 0x1e, 0x2a, 0xab, 0x3d,
  0x76, 0x91, 0x7a, 0x3e, 0x68, 0xaa, 0x1d, 0x3e, 0x5e, 0x27, 0x4e, 0x3d,
  0xe8, 0x33, 0x1f, 0xbe, 0x8b, 0x5a, 0x98, 0xbe, 0xb6, 0x0a, 0x78, 0x3e,
  0xe3, 0x6d, 0x75, 0x3e, 0x3a, 0xbf, 0xde, 0x3d, 0x57, 0x98, 0xed, 0xbd,
  0xa3, 0x41, 0x55, 0xbe, 0xe6, 0x9a, 0xf3, 0x3d, 0x08, 0xb8, 0x95, 0xbd,
  0x4d, 0x08, 0xbf, 0x3d, 0x53, 0x69, 0x08, 0xbe, 0xa9, 0xe4, 0x66, 0x3e,
  0xe9, 0xf4, 0x09, 0xbe, 0xfa, 0x1c, 0x15, 0x3e, 0x2c, 0x1e, 0xf1, 0xbd,
  0xa4, 0xe2, 0xdf, 0xbd, 0x40, 0x73, 0xdf, 0xbd, 0x35, 0x1b, 0xef, 0x3d,
  0x6b, 0x83, 0x00, 0xbe, 0x83, 0x16, 0xb2, 0xbd, 0xcb, 0x86, 0x84, 0xbe,
  0x3d, 0xa9, 0x59, 0xbe, 0xf5, 0xc5, 0xf8, 0x3c, 0x2a, 0x38, 0x28, 0x3e,
  0x73, 0x81, 0x92, 0xbe, 0x53, 0x88, 0xb5, 0xbd, 0x44, 0xcc, 0x11, 0xbe,
  0xc9, 0x9c, 0x30, 0xbe, 0x28, 0xe2, 0x9c, 0xbe, 0x38, 0x1f, 0xe5, 0xbd,
  0x74, 0x30, 0x87, 0xbe, 0xcd, 0x3b, 0x29, 0xbe, 0xf7, 0x38, 0x0c, 0xbe,
  0x7a, 0xb4, 0x61, 0x3e, 0xff, 0xff, 0x6e, 0xbe, 0x30, 0xc8, 0x01, 0x3e,
  0xcb, 0xaa, 0x97, 0xbe, 0x89, 0xd1, 0xbb, 0x3c, 0x22, 0xb1, 0x76, 0x3e,
  0xe2, 0x6a, 0x51, 0xbd, 0x9c, 0x43, 0x7b, 0xbe, 0x4c, 0xfd, 0x54, 0xbd,
  0xaf, 0xac, 0x8b, 0xbe, 0xb7, 0xd6, 0xee, 0xbd, 0x91, 0x96, 0xa3, 0xbe,
  0xee, 0x39, 0x5d, 0xbe, 0xaa, 0x36, 0x08, 0xbd, 0x63, 0x90, 0x6e, 0x3d,
  0x37, 0x9a, 0x58, 0x3e, 0x90, 0x16, 0x26, 0x3d, 0x83, 0x2c, 0x8e, 0xbd,
  0x38, 0x0e, 0x7f, 0xbe, 0x66, 0xd2, 0x83, 0x3e, 0x55, 0x31, 0x4f, 0x3e,
  0xa1, 0xd8, 0x6d, 0xbe, 0x48, 0xbc, 0xb7, 0xbe, 0x9d, 0x16, 0x55, 0xbd,
  0x58, 0xc8, 0x21, 0xbd, 0x8f, 0xbf, 0x85, 0x3e, 0xbc, 0x5a, 0x1c, 0xba,
  0x02, 0x7f, 0x64, 0xbe, 0x9e, 0x34, 0x84, 0x3c, 0x72, 0x7f, 0xd3, 0x3e,
  0xef, 0x14, 0xc1, 0x3e, 0x59, 0xc1, 0x9b, 0x3e, 0x61, 0xec, 0x01, 0x3e,
  0xd9, 0x19, 0x85, 0x3e, 0xec, 0x6a, 0x01, 0x3e, 0x1d, 0xf2, 0x5f, 0xbd,
  0xc7, 0x3d, 0xaf, 0xbd, 0xc8, 0xca, 0x9a, 0x3e, 0x0e, 0x55, 0x9a, 0xbd,
  0xcd, 0x14, 0x79, 0x3e, 0x55, 0xcc, 0xa0, 0xbd, 0xe4, 0xdc, 0xfe, 0x3d,
  0xb7, 0xf6, 0x68, 0x3e, 0x4b, 0x57, 0x5b, 0x3c, 0xa4, 0x20, 0x64, 0x3e,
  0x95, 0x77, 0x94, 0x3e, 0x45, 0xbf, 0x93, 0xbe, 0x90, 0xfe, 0x1a, 0x3e,
  0x37, 0xe3, 0x5a, 0xbe, 0x33, 0xac, 0xa5, 0xbd, 0xb2, 0x3a, 0x52, 0x3e,
  0xb1, 0x76, 0x04, 0xbd, 0x8d, 0x0f, 0x6e, 0x3e, 0x58, 0x4b, 0x72, 0xbc,
  0xae, 0x93, 0x46, 0xbd, 0x3d, 0xe5, 0xa9, 0x3d, 0x9d, 0x7a, 0x78, 0xbe,
  0x2a, 0xe9, 0x7a, 0xbe, 0x30, 0xc2, 0x8f, 0xbe, 0x17, 0xd8, 0x09, 0xbe,
  0x2d, 0x08, 0x24, 0x3e, 0x88, 0x4c, 0x3c, 0x3e, 0x56, 0x2d, 0x51, 0x3d,
  0x87, 0xc6, 0xe7, 0xbd, 0x1d, 0x41, 0x8d, 0xbd, 0xe0, 0xcb, 0xc2, 0xbd,
  0xd1, 0xdc, 0xc6, 0x3d, 0x9c, 0xce, 0x04, 0xbd, 0xb8, 0xd0, 0x4d, 0x3e,
  0x86, 0x3e, 0x52, 0x3e, 0x18, 0x75, 0x0e, 0x3e, 0x66, 0x53, 0xa3, 0xbe,
  0xdb, 0x5b, 0xb6, 0x3e, 0xaa, 0x75, 0x5b, 0xbe, 0x82, 0x2c, 0x28, 0x3c,
  0x6f, 0xeb, 0x9f, 0x3d, 0x9a, 0xdf, 0x78, 0xbd, 0x30, 0x4f, 0x48, 0x3d,
  0x37, 0x8b, 0x0e, 0xbe, 0x69, 0x96, 0xeb, 0x3d, 0xf5, 0x8c, 0xc5, 0xbe,
  0x1b, 0x9e, 0x8d, 0x3e, 0xcb, 0x2d, 0x5f, 0xbc, 0x5e, 0xe2, 0xa6, 0xbe,
  0xa0, 0xf5, 0x41, 0xbe, 0x77, 0xe7, 0x5d, 0x3d, 0x50, 0x2b, 0x2a, 0xbe,
  0x1f, 0xd1, 0x4d, 0xbe, 0x6f, 0xa3, 0xf9, 0x3d, 0xa5, 0x06, 0x2e, 0xbd,
  0x15, 0x35, 0x48, 0xbe, 0xf6, 0x0d, 0x8f, 0x3e, 0xb3, 0xb2, 0x9a, 0x3d,
  0xf9, 0x30, 0x75, 0xbe, 0xea, 0xf8, 0x9f, 0x3c, 0x37, 0x54, 0x6b, 0xbe,
  0xcf, 0x68, 0xab, 0xbe, 0x48, 0x35, 0x5c, 0x3e, 0xbd, 0xc6, 0x87, 0x3e,
  0x09, 0x09, 0x20, 0xbd, 0x93, 0xee, 0x1a, 0xbe, 0xfe, 0x77, 0x8c, 0xbe,
  0xb7, 0x5c, 0xe6, 0xbd, 0x11, 0xe1, 0xf4, 0xbc, 0xfe, 0xc4, 0x9d, 0xbd,
  0x92, 0xfe, 0x37, 0x3e, 0x89, 0x06, 0x80, 0xbe, 0xf5, 0x48, 0xcb, 0xbc,
  0x1f, 0xdd, 0x72, 0x3e, 0x4d, 0x90, 0xcf, 0x3a, 0x05, 0x9f, 0xd4, 0xbd,
  0x1a, 0x9c, 0x4d, 0xbe, 0xab, 0x05, 0x25, 0xbd, 0x2a, 0x30, 0x67, 0x3d,
  0xf8, 0xef, 0x8f, 0x3e, 0x5d, 0xe0, 0x19, 0xbe, 0x48, 0xd4, 0x8a, 0x3e,
  0x8c, 0x5e, 0x9a, 0x3e, 0x3d, 0xc2, 0x49, 0x3d, 0xa8, 0x9f, 0x1d, 0x3d,
  0x2b, 0xe4, 0xdd, 0x3d, 0xcf, 0x5e, 0x10, 0xbe, 0x23, 0xf7, 0x18, 0xbd,
  0xda, 0xaf, 0x33, 0xbe, 0x1a, 0xe3, 0x62, 0x3d, 0xcb, 0x3a, 0x35, 0x3e,
  0xb5, 0x18, 0xf7, 0x3d, 0x42, 0x93, 0x80, 0xbd, 0x5a, 0xec, 0x42, 0x3e,
  0xe0, 0x8f, 0x7b, 0xbe, 0xb0, 0xbd, 0xa5, 0xbd, 0x4e, 0x77, 0x48, 0xbe,
  0x80, 0xb7, 0x8f, 0x3c, 0x82, 0x9c, 0xd4, 0xbc, 0xc8, 0x4a, 0xb9, 0x3d,
  0x66, 0x9d, 0x8a, 0xbe, 0xb3, 0xba, 0xa5, 0xbd, 0x2c, 0x14, 0xda, 0xbe,
  0x55, 0x9e, 0x27, 0x3d, 0xf9, 0x69, 0xab, 0x3d, 0xce, 0x8b, 0x44, 0x3e,
  0xe9, 0x25, 0x86, 0x3e, 0x76, 0x2a, 0x41, 0xbe, 0xa1, 0xdb, 0xa2, 0xbe,
  0x99, 0x6e, 0xa5, 0xbe, 0xf2, 0xdb, 0xce, 0xbd, 0x95, 0xf1, 0xbd, 0x3d,
  0x9a, 0x22, 0xa6, 0x3e, 0xd5, 0x4f, 0x53, 0x3e, 0x5a, 0x62, 0x86, 0x3e,
  0x9b, 0x5a, 0xac, 0x3e, 0x9b, 0x2a, 0x9e, 0x3e, 0x89, 0x57, 0x8e, 0x3e,
  0x12, 0x74, 0x87, 0xbe, 0x5b, 0x3b, 0x93, 0x3e, 0xba, 0x2b, 0x59, 0xbe,
  0xfa, 0x27, 0x96, 0xbe, 0xe0, 0x0a, 0x0e, 0x3e, 0xae, 0x68, 0x3d, 0x3d,
  0x09, 0x6e, 0x5f, 0xbe, 0x72, 0x94, 0xba, 0xbe, 0x4a, 0xf7, 0x02, 0x3e,
  0x25, 0x1b, 0x5a, 0x3d, 0xd2, 0x1b, 0x94, 0xbe, 0x57, 0x15, 0xe5, 0xbd,
  0xea, 0x64, 0x77, 0x3e, 0x67, 0xf6, 0x9c, 0xbd, 0x60, 0x00, 0xe0, 0xbc,
  0xe5, 0x33, 0x8b, 0xbe, 0x19, 0x64, 0x90, 0x3e, 0x4b, 0xb4, 0x54, 0xbe,
  0xac, 0x27, 0xa4, 0xbd, 0x84, 0x04, 0x6a, 0xbe, 0x34, 0xa5, 0x8c, 0x3e,
  0xbf, 0x32, 0x57, 0xbe, 0xe2, 0xd2, 0x3f, 0xbe, 0x38, 0x16, 0x85, 0x3b,
  0x93, 0x10, 0xa1, 0xbe, 0xde, 0x69, 0x22, 0xbe, 0xd3, 0xf7, 0x9d, 0x3e,
  0x09, 0x6a, 0xbb, 0x3d, 0x24, 0x40, 0xd3, 0xbd, 0x0a, 0xc3, 0xb0, 0x3e,
  0x9b, 0xab, 0x9b, 0xbe, 0x9e, 0xf3, 0x2a, 0x3e, 0xe4, 0x41, 0x10, 0x3e,
  0xf3, 0xb8, 0x86, 0xbe, 0xff, 0x8e, 0x3e, 0x3d, 0x0b, 0x51, 0x3b, 0x3e,
  0x98, 0xbd, 0x2f, 0x3d, 0x95, 0xce, 0x42, 0x3e, 0xd7, 0x9c, 0x9d, 0xbe,
  0x25, 0x4f, 0x30, 0xbe, 0xd2, 0xe5, 0x81, 0x3e, 0x64, 0x2d, 0x88, 0xbe,
  0x42, 0xd2, 0xd1, 0x3d, 0x26, 0xff, 0xff, 0xff, 0x10, 0x00, 0x00, 0x00,
  0x04, 0x00, 0x00, 0x00, 0x14, 0x00, 0x00, 0x00, 0x24, 0x00, 0x00, 0x00,
  0x02, 0x00, 0x00, 0x00, 0x10, 0x00, 0x00, 0x00, 0x24, 0x00, 0x00, 0x00,
  0x0c, 0x00, 0x00, 0x00, 0x73, 0x74, 0x64, 0x2e, 0x63, 0x6f, 0x6e, 0x73,
  0x74, 0x61, 0x6e, 0x74, 0x00, 0x00, 0x00, 0x00, 0xac, 0xfe, 0xff, 0xff,
  0x7e, 0xff, 0xff, 0xff, 0x04, 0x00, 0x00, 0x00, 0x40, 0x00, 0x00, 0x00,
  0x95, 0x28, 0x9b, 0xbd, 0x68, 0x16, 0x56, 0xbd, 0x19, 0xd7, 0xaa, 0x3b,
  0x55, 0xf2, 0x0d, 0x3d, 0x24, 0x62, 0x2c, 0xbd, 0xb3, 0xe9, 0xc2, 0x3d,
  0x2e, 0xfb, 0x94, 0xbc, 0xd8, 0x73, 0x11, 0x3d, 0x3b, 0xb6, 0x8d, 0xbc,
  0x22, 0xd5, 0xe2, 0x3d, 0x96, 0x77, 0x9a, 0xbd, 0xd5, 0x45, 0xe7, 0x3c,
  0x8c, 0xbb, 0xe9, 0xbd, 0xc0, 0x12, 0x9e, 0xbd, 0x7a, 0x03, 0xa0, 0xbd,
  0x14, 0x47, 0x1e, 0x3d, 0xaa, 0xff, 0xff, 0xff, 0x10, 0x00, 0x00, 0x00,
  0x03, 0x00, 0x00, 0x00, 0x10, 0x00, 0x00, 0x00, 0x20, 0x00, 0x00, 0x00,
  0x01, 0x00, 0x00, 0x00, 0x10, 0x00, 0x00, 0x00, 0x0a, 0x00, 0x00, 0x00,
  0x64, 0x65, 0x6e, 0x73, 0x65, 0x2f, 0x62, 0x69, 0x61, 0x73, 0x00, 0x00,
  0x04, 0x00, 0x06, 0x00, 0x04, 0x00, 0x00, 0x00, 0x00, 0x00, 0x06, 0x00,
  0x08, 0x00, 0x04, 0x00, 0x06, 0x00, 0x00, 0x00, 0x04, 0x00, 0x00, 0x00,
  0x0c, 0x00, 0x00, 0x00, 0xc8, 0x44, 0xcb, 0xbd, 0xa1, 0x53, 0x86, 0x3d,
  0x4c, 0x54, 0x94, 0x3d, 0x00, 0x00, 0x0e, 0x00, 0x14, 0x00, 0x04, 0x00,
  0x00, 0x00, 0x08, 0x00, 0x0c, 0x00, 0x10, 0x00, 0x0e, 0x00, 0x00, 0x00,
  0x10, 0x00, 0x00, 0x00, 0x02, 0x00, 0x00, 0x00, 0x10, 0x00, 0x00, 0x00,
  0x20, 0x00, 0x00, 0x00, 0x01, 0x00, 0x00, 0x00, 0x03, 0x00, 0x00, 0x00,
  0x0c, 0x00, 0x00, 0x00, 0x64, 0x65, 0x6e, 0x73, 0x65, 0x5f, 0x31, 0x2f,
  0x62, 0x69, 0x61, 0x73, 0x00, 0x00, 0x00, 0x00, 0x90, 0xff, 0xff, 0xff,
  0x14, 0x00, 0x18, 0x00, 0x04, 0x00, 0x00, 0x00, 0x08, 0x00, 0x0c, 0x00,
  0x10, 0x00, 0x00, 0x00, 0x00, 0x00, 0x14, 0x00, 0x14, 0x00, 0x00, 0x00,
  0x14, 0x00, 0x00, 0x00, 0x01, 0x00, 0x00, 0x00, 0x18, 0x00, 0x00, 0x00,
  0x44, 0x00, 0x00, 0x00, 0x34, 0x00, 0x00, 0x00, 0x02, 0x00, 0x00, 0x00,
  0x01, 0x00, 0x00, 0x00, 0x24, 0x00, 0x00, 0x00, 0x1d, 0x00, 0x00, 0x00,
  0x73, 0x65, 0x72, 0x76, 0x69, 0x6e, 0x67, 0x5f, 0x64, 0x65, 0x66, 0x61,
  0x75, 0x6c, 0x74, 0x5f, 0x64, 0x65, 0x6e, 0x73, 0x65, 0x5f, 0x69, 0x6e,
  0x70, 0x75, 0x74, 0x3a, 0x30, 0x00, 0x00, 0x00, 0x02, 0x00, 0x00, 0x00,
  0xff, 0xff, 0xff, 0xff, 0x24, 0x00, 0x00, 0x00, 0xfc, 0xff, 0xff, 0xff,
  0x04, 0x00, 0x04, 0x00, 0x04, 0x00, 0x00, 0x00
};
unsigned int models_model_no_quant_tflite_len = 3776;
