unsigned char models_model_no_quant_tflite[] = {
  0x1c, 0x00, 0x00, 0x00, 0x54, 0x46, 0x4c, 0x33, 0x14, 0x00, 0x20, 0x00,
  0x04, 0x00, 0x08, 0x00, 0x0c, 0x00, 0x10, 0x00, 0x14, 0x00, 0x00, 0x00,
  0x18, 0x00, 0x1c, 0x00, 0x14, 0x00, 0x00, 0x00, 0x03, 0x00, 0x00, 0x00,
  0x18, 0x00, 0x00, 0x00, 0x1c, 0x00, 0x00, 0x00, 0x28, 0x01, 0x00, 0x00,
  0x1c, 0x00, 0x00, 0x00, 0xd0, 0x00, 0x00, 0x00, 0x3c, 0x00, 0x00, 0x00,
  0x01, 0x00, 0x00, 0x00, 0x84, 0x02, 0x00, 0x00, 0x01, 0x00, 0x00, 0x00,
  0x30, 0x01, 0x00, 0x00, 0x09, 0x00, 0x00, 0x00, 0x6c, 0x0e, 0x00, 0x00,
  0x68, 0x0e, 0x00, 0x00, 0x98, 0x0d, 0x00, 0x00, 0x0c, 0x0d, 0x00, 0x00,
  0xc4, 0x03, 0x00, 0x00, 0xbc, 0x02, 0x00, 0x00, 0x54, 0x0e, 0x00, 0x00,
  0x50, 0x0e, 0x00, 0x00, 0xc8, 0x00, 0x00, 0x00, 0x01, 0x00, 0x00, 0x00,
  0x10, 0x00, 0x00, 0x00, 0x0c, 0x00, 0x14, 0x00, 0x10, 0x00, 0x0c, 0x00,
  0x08, 0x00, 0x04, 0x00, 0x0c, 0x00, 0x00, 0x00, 0x10, 0x00, 0x00, 0x00,
  0x18, 0x00, 0x00, 0x00, 0x28, 0x00, 0x00, 0x00, 0x2c, 0x00, 0x00, 0x00,
  0x05, 0x00, 0x00, 0x00, 0x73, 0x65, 0x72, 0x76, 0x65, 0x00, 0x00, 0x00,
  0x0f, 0x00, 0x00, 0x00, 0x73, 0x65, 0x72, 0x76, 0x69, 0x6e, 0x67, 0x5f,
  0x64, 0x65, 0x66, 0x61, 0x75, 0x6c, 0x74, 0x00, 0x01, 0x00, 0x00, 0x00,
  0x14, 0x00, 0x00, 0x00, 0x01, 0x00, 0x00, 0x00, 0x24, 0x00, 0x00, 0x00,
  0x08, 0x00, 0x0c, 0x00, 0x08, 0x00, 0x04, 0x00, 0x08, 0x00, 0x00, 0x00,
  0x06, 0x00, 0x00, 0x00, 0x04, 0x00, 0x00, 0x00, 0x07, 0x00, 0x00, 0x00,
  0x64, 0x65, 0x6e, 0x73, 0x65, 0x5f, 0x31, 0x00, 0x02, 0xf3, 0xff, 0xff,
  0x04, 0x00, 0x00, 0x00, 0x0b, 0x00, 0x00, 0x00, 0x64, 0x65, 0x6e, 0x73,
  0x65, 0x5f, 0x69, 0x6e, 0x70, 0x75, 0x74, 0x00, 0x01, 0x00, 0x00, 0x00,
  0x0c, 0x00, 0x00, 0x00, 0x08, 0x00, 0x0c, 0x00, 0x04, 0x00, 0x08, 0x00,
  0x08, 0x00, 0x00, 0x00, 0x08, 0x00, 0x00, 0x00, 0x08, 0x00, 0x00, 0x00,
  0x13, 0x00, 0x00, 0x00, 0x6d, 0x69, 0x6e, 0x5f, 0x72, 0x75, 0x6e, 0x74,
  0x69, 0x6d, 0x65, 0x5f, 0x76, 0x65, 0x72, 0x73, 0x69, 0x6f, 0x6e, 0x00,
  0x4e, 0xf3, 0xff, 0xff, 0x04, 0x00, 0x00, 0x00, 0x10, 0x00, 0x00, 0x00,
  0x31, 0x2e, 0x35, 0x2e, 0x30, 0x00, 0x00, 0x00, 0x00, 0x00, 0x00, 0x00,
  0x00, 0x00, 0x00, 0x00, 0x0f, 0x00, 0x00, 0x00, 0x4d, 0x4c, 0x49, 0x52,
  0x20, 0x43, 0x6f, 0x6e, 0x76, 0x65, 0x72, 0x74, 0x65, 0x64, 0x2e, 0x00,
  0x00, 0x00, 0x0e, 0x00, 0x18, 0x00, 0x04, 0x00, 0x08, 0x00, 0x0c, 0x00,
  0x10, 0x00, 0x14, 0x00, 0x0e, 0x00, 0x00, 0x00, 0x14, 0x00, 0x00, 0x00,
  0x30, 0x00, 0x00, 0x00, 0x34, 0x00, 0x00, 0x00, 0x38, 0x00, 0x00, 0x00,
  0x40, 0x00, 0x00, 0x00, 0x07, 0x00, 0x00, 0x00, 0xcc, 0x0c, 0x00, 0x00,
  0x80, 0x0c, 0x00, 0x00, 0x18, 0x0c, 0x00, 0x00, 0x90, 0x0b, 0x00, 0x00,
  0x48, 0x02, 0x00, 0x00, 0x2c, 0x01, 0x00, 0x00, 0x6c, 0x00, 0x00, 0x00,
  0x01, 0x00, 0x00, 0x00, 0x00, 0x00, 0x00, 0x00, 0x01, 0x00, 0x00, 0x00,
  0x06, 0x00, 0x00, 0x00, 0x02, 0x00, 0x00, 0x00, 0xb8, 0x00, 0x00, 0x00,
  0x1c, 0x00, 0x00, 0x00, 0x04, 0x00, 0x00, 0x00, 0x6d, 0x61, 0x69, 0x6e,
  0x00, 0x00, 0x0e, 0x00, 0x14, 0x00, 0x00, 0x00, 0x08, 0x00, 0x0c, 0x00,
  0x07, 0x00, 0x10, 0x00, 0x0e, 0x00, 0x00, 0x00, 0x00, 0x00, 0x00, 0x08,
  0x1c, 0x00, 0x00, 0x00, 0x10, 0x00, 0x00, 0x00, 0x04, 0x00, 0x00, 0x00,
  0x66, 0xff, 0xff, 0xff, 0x00, 0x00, 0x00, 0x01, 0x01, 0x00, 0x00, 0x00,
  0x06, 0x00, 0x00, 0x00, 0x03, 0x00, 0x00, 0x00, 0x05, 0x00, 0x00, 0x00,
  0x04, 0x00, 0x00, 0x00, 0x01, 0x00, 0x00, 0x00, 0xcc, 0xf3, 0xff, 0xff,
  0x14, 0x00, 0x00, 0x00, 0x07, 0x00, 0x00, 0x00, 0x18, 0x00, 0x00, 0x00,
  0x40, 0x00, 0x00, 0x00, 0x30, 0x00, 0x00, 0x00, 0x02, 0x00, 0x00, 0x00,
  0x01, 0x00, 0x00, 0x00, 0x03, 0x00, 0x00, 0x00, 0x19, 0x00, 0x00, 0x00,
  0x53, 0x74, 0x61, 0x74, 0x65, 0x66, 0x75, 0x6c, 0x50, 0x61, 0x72, 0x74,
  0x69, 0x74, 0x69, 0x6f, 0x6e, 0x65, 0x64, 0x43, 0x61, 0x6c, 0x6c, 0x3a,
  0x30, 0x00, 0x00, 0x00, 0x02, 0x00, 0x00, 0x00, 0xff, 0xff, 0xff, 0xff,
  0x03, 0x00, 0x00, 0x00, 0x88, 0xf4, 0xff, 0xff, 0x00, 0x00, 0x0e, 0x00,
  0x16, 0x00, 0x00, 0x00, 0x08, 0x00, 0x0c, 0x00, 0x07, 0x00, 0x10, 0x00,
  0x0e, 0x00, 0x00, 0x00, 0x00, 0x00, 0x00, 0x08, 0x24, 0x00, 0x00, 0x00,
  0x18, 0x00, 0x00, 0x00, 0x0c, 0x00, 0x00, 0x00, 0x00, 0x00, 0x06, 0x00,
  0x08, 0x00, 0x07, 0x00, 0x06, 0x00, 0x00, 0x00, 0x00, 0x00, 0x00, 0x01,
  0x01, 0x00, 0x00, 0x00, 0x05, 0x00, 0x00, 0x00, 0x03, 0x00, 0x00, 0x00,
  0x00, 0x00, 0x00, 0x00, 0x03, 0x00, 0x00, 0x00, 0x02, 0x00, 0x00, 0x00,
  0x0c, 0x00, 0x10, 0x00, 0x0b, 0x00, 0x00, 0x00, 0x0c, 0x00, 0x04, 0x00,
  0x0c, 0x00, 0x00, 0x00, 0x09, 0x00, 0x00, 0x00, 0x00, 0x00, 0x00, 0x09,
  0x01, 0x00, 0x00, 0x00, 0x88, 0xf4, 0xff, 0xff, 0x14, 0x00, 0x00, 0x00,
  0x06, 0x00, 0x00, 0x00, 0x18, 0x00, 0x00, 0x00, 0x38, 0x00, 0x00, 0x00,
  0x28, 0x00, 0x00, 0x00, 0x02, 0x00, 0x00, 0x00, 0x01, 0x00, 0x00, 0x00,
  0x10, 0x00, 0x00, 0x00, 0x13, 0x00, 0x00, 0x00, 0x74, 0x66, 0x6c, 0x2e,
  0x66, 0x75, 0x6c, 0x6c, 0x79, 0x5f, 0x63, 0x6f, 0x6e, 0x6e, 0x65, 0x63,
  0x74, 0x65, 0x64, 0x00, 0x02, 0x00, 0x00, 0x00, 0xff, 0xff, 0xff, 0xff,
  0x10, 0x00, 0x00, 0x00, 0x64, 0xf4, 0xff, 0xff, 0x36, 0xf5, 0xff, 0xff,
  0x04, 0x00, 0x00, 0x00, 0xc0, 0x00, 0x00, 0x00, 0x32, 0xc6, 0x3b, 0xbe,
  0x25, 0xb7, 0xb7, 0x3e, 0xf3, 0xcb, 0xd3, 0xbd, 0x7c, 0x02, 0x5a, 0x3e,
  0x41, 0x9e, 0x27, 0xbe, 0xf2, 0x14, 0x28, 0xbf, 0x0a, 0xd2, 0x32, 0xbd,
  0x47, 0x39, 0xc9, 0x3e, 0xa9, 0x99, 0x16, 0xbe, 0xc2, 0x4e, 0x28, 0xbf,
  0x9d, 0x1d, 0x53, 0x3e, 0x77, 0x2a, 0x0a, 0x3e, 0xf6, 0xab, 0xa3, 0x3e,
  0xa5, 0x37, 0xe4, 0xbd, 0x14, 0x5e, 0x37, 0xbe, 0x68, 0xec, 0xaf, 0xbd,
  0x6f, 0xd6, 0x5f, 0xbd, 0xc8, 0x21, 0x60, 0x3e, 0xb5, 0x51, 0x0f, 0x3d,
  0x42, 0x23, 0xaa, 0xbe, 0x14, 0xc1, 0x86, 0xbb, 0x36, 0x8f, 0xea, 0x3d,
  0x2d, 0x15, 0x0b, 0x3e, 0x10, 0x82, 0x02, 0xbf, 0x24, 0x38, 0x8d, 0xbe,
  0xf3, 0xa0, 0x07, 0x3f, 0xcc, 0x8e, 0x23, 0x3e, 0xe0, 0x86, 0xc6, 0x3e,
  0xee, 0x5f, 0x06, 0xbf, 0x37, 0x7c, 0x15, 0xbe, 0x96, 0xa6, 0x12, 0xbe,
  0xf3, 0x39, 0xb3, 0xbe, 0x4c, 0x65, 0x84, 0xbd, 0xbc, 0x7c, 0x6d, 0xbe,
  0x7a, 0x6e, 0x04, 0xbe, 0x9c, 0x8e, 0x2b, 0x3e, 0xef, 0x88, 0x8d, 0xbe,
  0xab, 0xcd, 0xcb, 0x3e, 0x7e, 0xdf, 0x93, 0xbe, 0xaa, 0x99, 0xe5, 0x3e,
  0x38, 0xdf, 0x7f, 0x3e, 0xa6, 0x7a, 0xe3, 0x3e, 0xf6, 0x03, 0xd0, 0xbe,
  0x49, 0x9b, 0xf6, 0x3e, 0x37, 0x8f, 0x45, 0xbe, 0xbf, 0x9a, 0xeb, 0xbe,
  0x78, 0xb6, 0xb8, 0xbe, 0xef, 0xd6, 0x9b, 0x3e, 0xe2, 0xf5, 0xff, 0xff,
  0x10, 0x00, 0x00, 0x00, 0x05, 0x00, 0x00, 0x00, 0x14, 0x00, 0x00, 0x00,
  0x24, 0x00, 0x00, 0x00, 0x02, 0x00, 0x00, 0x00, 0x03, 0x00, 0x00, 0x00,
  0x10, 0x00, 0x00, 0x00, 0x0d, 0x00, 0x00, 0x00, 0x73, 0x74, 0x64, 0x2e,
  0x63, 0x6f, 0x6e, 0x73, 0x74, 0x61, 0x6e, 0x74, 0x31, 0x00, 0x00, 0x00,
  0x68, 0xf5, 0xff, 0xff, 0x3a, 0xf6, 0xff, 0xff, 0x04, 0x00, 0x00, 0x00,
  0x00, 0x09, 0x00, 0x00, 0xf3, 0x4b, 0x97, 0xbe, 0x6c, 0xd8, 0x71, 0xbe,
  0x66, 0xc9, 0x3c, 0xbe, 0x71, 0xd1, 0xc7, 0xbc, 0x22, 0x42, 0x9d, 0xbc,
  0xed, 0xcb, 0x9a, 0xbe, 0x07, 0xc3, 0x08, 0xbd, 0x3d, 0x89, 0x10, 0x3d,
  0x4e, 0xa5, 0xbf, 0x3d, 0xf5, 0x7c, 0x35, 0x3e, 0xc9, 0x1f, 0x56, 0x3e,
  0xec, 0x78, 0xaf, 0xbe, 0x4b, 0x1a, 0xa0, 0xbe, 0xd1, 0x31, 0x31, 0xbe,
  0xd7, 0xd2, 0x16, 0x3e, 0xb2, 0x98, 0xcf, 0xbd, 0x6e, 0x07, 0xc2, 0xbe,
  0x31, 0xa3, 0x72, 0x3c, 0x3d, 0x3e, 0xb8, 0xbd, 0x4a, 0x12, 0xd2, 0xbe,
  0x9f, 0x0b, 0x2e, 0xbe, 0x9d, 0x85, 0x93, 0xbe, 0x54, 0xc6, 0x8e, 0xbe,
  0xc0, 0xb6, 0x18, 0xbe, 0xff, 0x64, 0x0b, 0xbe, 0x56, 0x07, 0xa7, 0xbe,
  0x42, 0x97, 0x96, 0xbe, 0xf1, 0xe3, 0x0d, 0xbe, 0x28, 0xfa, 0x27, 0x3e,
  0xbc, 0xba, 0x91, 0x3d, 0xa6, 0x90, 0x48, 0xbe, 0x4b, 0xa8, 0x47, 0x3e,
  0x8e, 0x3c, 0xa4, 0xbe, 0xce, 0x1c, 0xc0, 0x3d, 0x90, 0x93, 0x42, 0x3d,
  0xb9, 0x8e, 0xb2, 0x3d, 0xe4, 0xab, 0xf9, 0x3e, 0x34, 0xf9, 0x54, 0xbe,
  0x6b, 0xe5, 0xce, 0x3d, 0x00, 0x49, 0xe0, 0x3d, 0xfa, 0xd9, 0x85, 0x3d,
  0x88, 0x43, 0x66, 0x3e, 0x8d, 0x13, 0x99, 0x3e, 0x85, 0x78, 0x43, 0x3e,
  0xfe, 0x98, 0x28, 0xbe, 0x5a, 0x32, 0x58, 0xbe, 0x71, 0x22, 0x84, 0x3e,
  0x74, 0x2a, 0x59, 0x3d, 0xac, 0x68, 0xfe, 0x3e, 0x91, 0xa7, 0x98, 0xbe,
  0x66, 0xc9, 0xa8, 0x3e, 0xba, 0xaf, 0xf7, 0x3d, 0x5f, 0xff, 0x20, 0x3e,
  0xbe, 0xb2, 0x2f, 0xbe, 0x42, 0x91, 0x08, 0x3c, 0xba, 0xad, 0x53, 0xbe,
  0x1b, 0x3c, 0x83, 0x3e, 0x3b, 0x69, 0x9d, 0xbe, 0x48, 0x94, 0xa9, 0x3c,
  0x73, 0xb9, 0x19, 0xbe, 0x0b, 0x1c, 0xcc, 0x3e, 0x58, 0x67, 0x04, 0x3f,
  0x98, 0x5c, 0x49, 0x3d, 0x23, 0xba, 0x12, 0x3e, 0x14, 0x8b, 0x99, 0x3e,
  0xf0, 0x33, 0x37, 0x3d, 0x9d, 0x4c, 0x21, 0xbd, 0x19, 0xa7, 0x0b, 0xbd,
  0xcb, 0x37, 0x68, 0xbe, 0xc7, 0x61, 0xe5, 0xbd, 0x29, 0xff, 0x9d, 0x3b,
  0xdb, 0x46, 0x40, 0xbd, 0xbf, 0x5a, 0xc7, 0x3d, 0x3a, 0x4f, 0x47, 0x3d,
  0xae, 0xf0, 0x15, 0xbe, 0x0c, 0x58, 0x04, 0xbe, 0x94, 0x91, 0xdd, 0xbe,
  0x02, 0x4a, 0x39, 0xbe, 0x35, 0x15, 0x45, 0xbe, 0xb1, 0xfa, 0x4a, 0xbe,
  0xa2, 0x89, 0xfd, 0xbc, 0x64, 0x54, 0x05, 0xbe, 0x90, 0xcd, 0xe1, 0xbe,
  0x6b, 0x0a, 0xf7, 0xbd, 0x70, 0xeb, 0xed, 0xbc, 0x0b, 0x49, 0xb7, 0xbe,
  0x3d, 0x4e, 0xfc, 0xbe, 0xd6, 0xf3, 0x35, 0xbd, 0xc1, 0x37, 0x1f, 0x3b,
  0x1e, 0xe6, 0x9c, 0x3e, 0xed, 0xb9, 0x64, 0x3e, 0x4d, 0x77, 0x49, 0x3e,
  0xd0, 0x71, 0x47, 0xbe, 0x56, 0x90, 0x86, 0xbd, 0x49, 0xcc, 0xbd, 0xbd,
  0x2b, 0xff, 0x84, 0x3e, 0xa7, 0x9a, 0x74, 0xbe, 0x96, 0xe5, 0xd2, 0xbe,
  0x29, 0x34, 0x16, 0xbe, 0x2b, 0xed, 0x97, 0xbe, 0xa1, 0x09, 0xde, 0x3d,
  0xfd, 0x06, 0x90, 0x3e, 0x18, 0x05, 0x84, 0xbd, 0x30, 0xf3, 0x58, 0x3e,
  0x3d, 0x1c, 0xa0, 0xbe, 0x7f, 0xf0, 0x48, 0x3d, 0x28, 0xd1, 0x9d, 0xbe,
  0x1a, 0x97, 0x83, 0x3e, 0x61, 0xdc, 0x55, 0xbd, 0x83, 0x76, 0x9d, 0x3e,
  0x76, 0x0e, 0x99, 0xbc, 0x03, 0xde, 0x89, 0xbe, 0x8b, 0xd3, 0xcd, 0xbc,
  0x9e, 0x73, 0xa5, 0x3e, 0x16, 0x23, 0x9f, 0xbe, 0x92, 0x88, 0x3a, 0x3e,
  0x9c, 0xee, 0xc6, 0x3e, 0x69, 0x56, 0xad, 0x3e, 0xb1, 0x98, 0x14, 0xbd,
  0x39, 0xf7, 0x70, 0x3e, 0xe9, 0xba, 0x11, 0x3d, 0x21, 0x9a, 0x27, 0x3e,
  0xff, 0x90, 0x7f, 0x3e, 0x4a, 0x25, 0x9f, 0xbd, 0x09, 0x88, 0x53, 0xbe,
  0x10, 0xea, 0xba, 0xbd, 0xab, 0xae, 0x92, 0x3d, 0xd4, 0x3b, 0xa0, 0xbe,
  0x63, 0x17, 0x35, 0x3e, 0xcf, 0x2c, 0xa7, 0xbe, 0x8e, 0x73, 0x32, 0xbe,
  0x86, 0x7d, 0x9f, 0x3e, 0x80, 0xc0, 0x5a, 0xbe, 0x5c, 0x62, 0xa3, 0x3d,
  0x8e, 0x68, 0x3a, 0xbe, 0x59, 0x49, 0xb3, 0xbd, 0xb2, 0x12, 0xa1, 0x3e,
  0x93, 0xca, 0x3a, 0x3e, 0x6f, 0xed, 0x10, 0x3e, 0x6c, 0x83, 0x55, 0xbe,
  0x53, 0x5d, 0x50, 0xbe, 0x8f, 0x8d, 0x38, 0x3e, 0x17, 0xdb, 0x12, 0x3c,
  0xb4, 0xd3, 0x64, 0x3e, 0xae, 0xdc, 0xb1, 0xbd, 0xa2, 0xf3, 0xbc, 0x3c,
  0xde, 0xe5, 0x97, 0xbe, 0x9c, 0xeb, 0x74, 0x3d, 0x5d, 0x23, 0xb4, 0xbc,
  0x67, 0xad, 0x3f, 0x3e, 0xb7, 0xdd, 0xa7, 0x3d, 0x15, 0xde, 0xae, 0xbd,
  0x0d, 0xde, 0x23, 0xbe, 0x6d, 0x07, 0x28, 0x3e, 0xdf, 0x0c, 0xd1, 0xbd,
  0xe9, 0xa6, 0x1a, 0xbe, 0x55, 0x6b, 0x65, 0xbe, 0xf6, 0x3e, 0x89, 0xbe,
  0xb0, 0x50, 0xa4, 0xbe, 0x08, 0x14, 0xd5, 0x3d, 0xd8, 0x4a, 0x8b, 0xbd,
  0x3d, 0xbd, 0x5c, 0xbe, 0x37, 0x8d, 0x6b, 0x3e, 0x35, 0x21, 0xce, 0xbe,
  0xa9, 0x67, 0xa3, 0xbe, 0xfa, 0xdc, 0x61, 0xbe, 0xff, 0x0c, 0x18, 0x3e,
  0xa5, 0xd4, 0x90, 0xbd, 0x30, 0x37, 0xba, 0x3e, 0x48, 0x6a, 0x99, 0xbd,
  0x86, 0x7a, 0x36, 0xbe, 0x16, 0xce, 0xf7, 0xbd, 0x97, 0x94, 0xb4, 0x3e,
  0x3f, 0x95, 0x44, 0xbd, 0xbb, 0x80, 0x77, 0x3e, 0x1c, 0x50, 0xe9, 0xbe,
  0x99, 0xee, 0x4c, 0xbe, 0x30, 0x4c, 0x0e, 0xbd, 0x78, 0xb1, 0x42, 0xbd,
  0x8e, 0x37, 0xae, 0x3d, 0x62, 0x34, 0x06, 0x3e, 0xce, 0x91, 0xfd, 0xbc,
  0x8b, 0x27, 0xe1, 0x3e, 0xb9, 0xe6, 0x25, 0x3d, 0x3a, 0xfa, 0xc8, 0x3d,
  0xa6, 0xda, 0x7b, 0xbe, 0xac, 0xdf, 0xfd, 0xbd, 0xbe, 0xff, 0x8e, 0xbd,
  0x4d, 0x1c, 0xe1, 0x3d, 0x55, 0x29, 0x33, 0xbd, 0xe8, 0xdc, 0xdd, 0x3e,
  0xc0, 0x7a, 0xf3, 0xbc, 0xce, 0x28, 0xb1, 0x3d, 0xe5, 0xb9, 0xae, 0x3e,
  0x7e, 0x58, 0xe5, 0x3d, 0x45, 0x7c, 0x0b, 0xbe, 0x0a, 0xc1, 0x6e, 0x3e,
  0x21, 0x26, 0xbd, 0xbe, 0x8b, 0x53, 0x77, 0xbe, 0x11, 0x04, 0x95, 0x3e,
  0x4b, 0xf7, 0xf6, 0xbb, 0x27, 0x53, 0x9f, 0xbe, 0xc0, 0x13, 0x1b, 0xbe,
  0xc4, 0x59, 0x33, 0x3e, 0x5e, 0x55, 0xc2, 0xbd, 0x31, 0x03, 0x44, 0x3e,
  0xd0, 0x0b, 0x74, 0x3c, 0x4d, 0x9f, 0xf6, 0x3d, 0xdd, 0xb1, 0x70, 0x3d,
  0xfd, 0x1b, 0x4c, 0xbe, 0x42, 0x7b, 0x04, 0xbe, 0x6f, 0xd5, 0x50, 0xbe,
  0xec, 0x0c, 0x41, 0x3e, 0x05, 0x56, 0x8d, 0xbd, 0x58, 0x69, 0x98, 0x3d,
  0x7a, 0xdf, 0x82, 0xbe, 0x9d, 0x1d, 0xf8, 0x3e, 0x67, 0x16, 0x69, 0xbe,
  0xb5, 0x42, 0x70, 0x3e, 0x2e, 0xad, 0x85, 0xbd, 0x12, 0x4e, 0xe8, 0xbe,
  0xb1, 0x13, 0x0b, 0x3e, 0xbe, 0x0a, 0x19, 0x3e, 0x90, 0xaf, 0x91, 0x3c,
  0x9a, 0x0e, 0x25, 0xbc, 0x60, 0x75, 0xda, 0x3d, 0x47, 0x04, 0x77, 0x3d,
  0x7a, 0x68, 0x97, 0x3d, 0x1d, 0x8a, 0x5b, 0x3e, 0xed, 0x69, 0x19, 0xbc,
  0x22, 0xa7, 0x0f, 0x3e, 0x23, 0xab, 0xaf, 0xbe, 0xfc, 0xde, 0x00, 0xbf,
  0x19, 0xa3, 0x51, 0x3e, 0x77, 0x21, 0xbc, 0x3e, 0x3f, 0xab, 0x6b, 0x3e,
  0xae, 0x5d, 0xc9, 0xbd, 0x49, 0x72, 0x55, 0x3e, 0xb6, 0x9f, 0xe1, 0x3d,
  0x68, 0x7a, 0xb9, 0xbe, 0x30, 0x80, 0xbf, 0x3e, 0x9d, 0xc2, 0xdb, 0x3e,
  0xf6, 0x02, 0xa1, 0x3d, 0xc9, 0xb1, 0x2f, 0xbe, 0x2c, 0x17, 0x33, 0xbd,
  0x57, 0xb9, 0x6e, 0xbe, 0x54, 0x30, 0xd7, 0x3d, 0xcd, 0xc6, 0x1f, 0x3e,
  0x93, 0x34, 0x94, 0x3e, 0x9d, 0xe3, 0x46, 0xbe, 0x6b, 0x41, 0xb8, 0xbc,
  0x41, 0x42, 0xb3, 0x3e, 0xb5, 0xc0, 0x92, 0xbe, 0x31, 0xa2, 0x64, 0xbd,
  0xe4, 0x47, 0xd7, 0x3d, 0x9b, 0x35, 0x1d, 0x3d, 0xf2, 0x7c, 0x23, 0xbd,
  0xb1, 0x45, 0x8b, 0x3e, 0xcf, 0x54, 0x56, 0xbd, 0x06, 0xf1, 0x22, 0xbe,
  0xef, 0xa1, 0x74, 0xbe, 0xd6, 0xfa, 0xfc, 0xbe, 0xfe, 0xe7, 0x99, 0xbd,
  0x9b, 0x99, 0x16, 0xbe, 0x17, 0xbf, 0xf5, 0xbd, 0xa9, 0x82, 0x41, 0x3d,
  0x63, 0x4d, 0x5f, 0x3e, 0xce, 0xf0, 0xe6, 0xbd, 0x89, 0x88, 0x63, 0x3e,
  0xc9, 0x09, 0xaa, 0x3d, 0xcd, 0xf6, 0xe0, 0xbe, 0x6b, 0x02, 0xb0, 0x3e,
  0x8b, 0x62, 0x03, 0x3e, 0x7c, 0xec, 0xbf, 0x38, 0xe8, 0x71, 0x67, 0xbe,
  0xd7, 0x8b, 0x6a, 0x3e, 0x0f, 0xfa, 0x05, 0xbe, 0xb4, 0x3a, 0x9e, 0xbe,
  0x84, 0x82, 0xcf, 0xbd, 0x6b, 0xd2, 0x86, 0xbb, 0xa1, 0xaa, 0xd1, 0xbd,
  0x60, 0xb6, 0x29, 0xbe, 0x10, 0xd0, 0x2f, 0xbd, 0xbe, 0x27, 0x21, 0x3e,
  0xe6, 0xfb, 0x20, 0xbe, 0xd0, 0x37, 0x7e, 0xbe, 0x0c, 0x0d, 0x27, 0xbe,
  0x07, 0xed, 0xfe, 0x3d, 0xad, 0xe5, 0x03, 0xbd, 0xa3, 0x91, 0xf7, 0xbd,
  0x0f, 0x9c, 0x48, 0xbe, 0xfe, 0x13, 0xab, 0xbe, 0x6f, 0x9a, 0x36, 0x3e,
  0x55, 0x41, 0x26, 0xbe, 0xed, 0x4d, 0xf3, 0xbe, 0x7d, 0xd1, 0xc0, 0xbe,
  0x70, 0x28, 0x35, 0xbd, 0x2d, 0x9f, 0xce, 0xbe, 0x80, 0xf9, 0xd5, 0xbd,
  0x18, 0x2d, 0x2a, 0x3e, 0x60, 0x9d, 0x2e, 0x3e, 0xf8, 0x14, 0xbd, 0xbe,
  0x1b, 0x08, 0x33, 0x3c, 0x1c, 0xc5, 0x9b, 0xbe, 0x1c, 0x65, 0xd5, 0x3d,
  0x9e, 0xba, 0xee, 0xbc, 0x03, 0xd0, 0xa6, 0xbe, 0x06, 0x9f, 0x95, 0x3e,
  0x23, 0x0a, 0x0b, 0xbe, 0x35, 0x3e, 0xd8, 0x3e, 0xe8, 0xfe, 0x44, 0x39,
  0x36, 0x59, 0x08, 0xbd, 0x38, 0x51, 0x8c, 0xbe, 0x71, 0xfa, 0x83, 0xbd,
  0x81, 0x05, 0x82, 0xbd, 0x88, 0x5d, 0x93, 0xbe, 0xe2, 0x7f, 0xbe, 0xbe,
  0x86, 0xaa, 0x2b, 0x3d, 0x66, 0x0f, 0xab, 0xbe, 0x41, 0xd0, 0xb9, 0x3d,
  0x1a, 0x0d, 0x59, 0xbe, 0x98, 0x62, 0x63, 0xbd, 0xaa, 0x76, 0x6d, 0xbe,
  0x20, 0x83, 0x6f, 0x3e, 0x63, 0x95, 0xe7, 0x3d, 0x37, 0xc6, 0x02, 0x3f,
  0xce, 0xb5, 0xa8, 0xbd, 0x5a, 0x63, 0xb3, 0x3e, 0x58, 0xca, 0x8d, 0x3e,
  0x6d, 0x34, 0xc8, 0x3d, 0x19, 0x65, 0x73, 0xbe, 0xd8, 0xc6, 0x02, 0x3c,
  0x0b, 0x92, 0xa6, 0x3e, 0x4b, 0x89, 0x1f, 0x3e, 0xd8, 0x26, 0x75, 0xbc,
  0xe9, 0x43, 0x87, 0xbd, 0x27, 0x4a, 0x26, 0x3e, 0x7d, 0xf7, 0x4e, 0x3e,
  0x76, 0x3a, 0x62, 0x3e, 0xf1, 0x67, 0xa4, 0x3e, 0xec, 0x26, 0x06, 0x3e,
  0xc0, 0x39, 0x2d, 0xbe, 0xae, 0x04, 0xee, 0xbe, 0xde, 0x34, 0x3d, 0x3d,
  0x87, 0xae, 0x57, 0x3e, 0x4a, 0x59, 0xfb, 0x3d, 0x23, 0x64, 0x9d, 0x3c,
  0x34, 0xad, 0x4d, 0xbe, 0x6d, 0x55, 0x20, 0xbe, 0x48, 0xa6, 0xa2, 0x3e,
  0x1e, 0x0a, 0xc3, 0x3e, 0xca, 0xd4, 0x6b, 0x3e, 0xb0, 0x75, 0x50, 0xbd,
  0x5f, 0xe6, 0x66, 0xbe, 0x5f, 0xfa, 0xe4, 0x3d, 0x6e, 0x6f, 0xa7, 0xbd,
  0x26, 0x5d, 0xad, 0x3d, 0xfd, 0x97, 0x0d, 0xbe, 0x8d, 0xd6, 0x62, 0x3e,
  0x71, 0x07, 0x0a, 0xbe, 0x10, 0xed, 0x67, 0x3e, 0x24, 0xf7, 0x24, 0xbe,
  0xcd, 0xd5, 0x10, 0xbe, 0x69, 0x2a, 0xdd, 0xbd, 0x78, 0x28, 0xaf, 0x3d,
  0x11, 0xfd, 0xbe, 0xbd, 0xa5, 0x07, 0xcb, 0x3c, 0xd5, 0x80, 0x2c, 0xbe,
  0x22, 0x34, 0x89, 0xbe, 0x66, 0xc4, 0x71, 0x3d, 0xdb, 0x6a, 0x2d, 0x3e,
  0x46, 0x6e, 0x73, 0xbe, 0x44, 0x2c, 0xd7, 0x3c, 0xf2, 0xbf, 0x14, 0xbe,
  0xa6, 0x60, 0x5a, 0xbe, 0xb8, 0x48, 0x9a, 0xbe, 0x31, 0x1e, 0x19, 0xbe,
  0xb6, 0x8f, 0x61, 0xbe, 0x45, 0x93, 0xbe, 0xbc, 0xb5, 0xe0, 0x70, 0xbe,
  0x51, 0x86, 0x74, 0x3e, 0x20, 0x9f, 0x51, 0xbe, 0x23, 0x0f, 0x15, 0x3e,
  0x30, 0x17, 0x81, 0xbe, 0xac, 0x51, 0x41, 0x3e, 0x4d, 0x9e, 0xcb, 0x3e,
  0x62, 0x85, 0xfc, 0x3c, 0x83, 0x4f, 0x6c, 0xbd, 0x28, 0xf4, 0xcb, 0x3d,
  0x44, 0x46, 0x65, 0xbe, 0x0f, 0xef, 0x21, 0xbe, 0x53, 0xc6, 0xbb, 0xbe,
  0xa8, 0xe8, 0x87, 0xbe, 0x7e, 0xb7, 0x9f, 0xbd, 0x2a, 0xe5, 0x97, 0x3b,
  0x1c, 0x4d, 0x4d, 0x3e, 0xa6, 0x3d, 0x16, 0x3e, 0x78, 0x83, 0xc8, 0x3c,
  0xb8, 0xd9, 0x2e, 0xbd, 0xf0, 0xe6, 0xe4, 0x3e, 0x50, 0xdd, 0xd3, 0x3e,
  0x08, 0x08, 0x6c, 0xbe, 0xe4, 0xa5, 0x8e, 0xbe, 0xf0, 0xa5, 0x0e, 0x3c,
  0xc9, 0xe0, 0x02, 0x3e, 0x0e, 0x1a, 0xcb, 0x3e, 0x21, 0x4d, 0x28, 0x3e,
  0x9b, 0x49, 0x71, 0xbe, 0xbe, 0x60, 0x3c, 0x3e, 0x00, 0xc7, 0xe3, 0x3e,
  0xb7, 0xc3, 0xf0, 0x3e, 0x3f, 0x82, 0xf4, 0x3e, 0x43, 0x85, 0x80, 0x3e,
  0xf8, 0x72, 0x82, 0x3e, 0xed, 0x91, 0x20, 0x3e, 0xce, 0x8f, 0x3b, 0xbd,
  0xd0, 0x53, 0xd6, 0x3d, 0xe1, 0x94, 0x00, 0x3f, 0xa8, 0x0e, 0xb3, 0x3c,
  0x2d, 0x2d, 0x77, 0x3e, 0x1a, 0x3e, 0xcc, 0x3d, 0xbe, 0x39, 0x4a, 0x3e,
  0x56, 0x88, 0xe1, 0x3e, 0x90, 0xe8, 0x2e, 0x3e, 0x6f, 0x49, 0xaa, 0x3e,
  0x87, 0x52, 0x95, 0x3e, 0xf1, 0x1d, 0x90, 0xbe, 0xcf, 0x95, 0x25, 0x3e,
  0x9f, 0x32, 0x52, 0xbe, 0x92, 0xb2, 0x91, 0xbd, 0x59, 0x23, 0x61, 0x3e,
  0xee, 0xd9, 0xd0, 0xbc, 0x58, 0xc0, 0x90, 0x3d, 0x18, 0x89, 0x12, 0xbe,
  0xdb, 0x2e, 0x5f, 0xbe, 0x5a, 0xab, 0x6b, 0xbd, 0xd7, 0xf7, 0xd0, 0xbe,
  0x25, 0xd3, 0x8d, 0xbe, 0xa4, 0x9d, 0xec, 0xbe, 0x90, 0x67, 0x85, 0xbe,
  0x21, 0x5b, 0xeb, 0xbc, 0xfa, 0x7f, 0x8d, 0x3d, 0x2f, 0xff, 0x63, 0xbd,
  0xaf, 0x86, 0x11, 0xbe, 0xa4, 0xa4, 0x40, 0xbe, 0x89, 0x75, 0x27, 0xbe,
  0xd7, 0xfb, 0x89, 0x3c, 0x09, 0x57, 0x45, 0xbe, 0x90, 0x46, 0x99, 0x3d,
  0xbd, 0xd9, 0x38, 0x3e, 0x84, 0xe0, 0x01, 0x3d, 0x1d, 0xa1, 0x8e, 0x3d,
  0x80, 0xcd, 0x9b, 0x3e, 0x2c, 0xcf, 0x98, 0xbe, 0x0b, 0x51, 0xf5, 0xbc,
  0x14, 0x2b, 0xb3, 0x3d, 0x5c, 0x63, 0x61, 0xbe, 0x7f, 0xf5, 0x50, 0xbd,
  0xff, 0x13, 0x92, 0xbe, 0x6f, 0x60, 0x92, 0xbc, 0xb8, 0x45, 0xec, 0xbe,
  0x2a, 0x02, 0x7c, 0x3e, 0x6b, 0x23, 0xc2, 0x3a, 0x47, 0x78, 0xa0, 0xbe,
  0x21, 0x2c, 0x37, 0xbe, 0x3d, 0xcc, 0x83, 0x3d, 0xdb, 0x58, 0x23, 0xbe,
  0xc9, 0xf8, 0x54, 0xbe, 0x57, 0x88, 0x76, 0x3c, 0xed, 0x1a, 0x65, 0xbe,
  0xae, 0xb1, 0xe2, 0xbe, 0x8c, 0x51, 0xe9, 0x3d, 0x29, 0x58, 0x29, 0xbe,
  0x47, 0x5e, 0x77, 0xbe, 0x5d, 0xac, 0x04, 0xbd, 0xa6, 0x6a, 0x96, 0xbe,
  0x09, 0x5d, 0x10, 0xbf, 0x84, 0xea, 0xf3, 0x3d, 0xea, 0x3d, 0x02, 0x3e,
  0xa4, 0x90, 0xe4, 0xbb, 0x9b, 0xab, 0x8d, 0xbe, 0xe1, 0x63, 0xeb, 0xbe,
  0xc4, 0xee, 0xab, 0xbe, 0xef, 0x21, 0x89, 0xbe, 0x7a, 0x17, 0xa4, 0xbe,
  0xf7, 0x6e, 0x49, 0x3e, 0xa5, 0xf3, 0x6f, 0xbe, 0x48, 0x67, 0xdc, 0xbd,
  0xf6, 0x12, 0x1c, 0x3e, 0x43, 0xff, 0x68, 0xbd, 0xf4, 0xff, 0x1e, 0xbe,
  0x6a, 0xeb, 0x38, 0xbe, 0x3d, 0x00, 0x34, 0xbe, 0x29, 0xba, 0x12, 0x3c,
  0xa5, 0x50, 0xa7, 0x3d, 0xe9, 0xf2, 0x81, 0xbe, 0x2c, 0xfa, 0x2c, 0x3e,
  0x71, 0xd7, 0xa5, 0x3e, 0x7e, 0xb8, 0xd6, 0xbb, 0xf9, 0x3e, 0xc2, 0xbc,
  0xf8, 0x6f, 0x46, 0x3d, 0x70, 0xd7, 0x4c, 0xbe, 0x9e, 0x6d, 0xd9, 0xbd,
  0xb9, 0xda, 0x48, 0xbe, 0xdc, 0x25, 0x62, 0xbd, 0x46, 0x08, 0x51, 0x3c,
  0xab, 0x81, 0xf7, 0xbd, 0x0c, 0x80, 0x6c, 0xbe, 0xf0, 0xe6, 0x62, 0xbd,
  0xad, 0x57, 0x7a, 0xbe, 0x77, 0x0d, 0x0d, 0xbe, 0x6e, 0x08, 0x74, 0xbe,
  0x73, 0xb9, 0x48, 0xbe, 0x92, 0x27, 0x06, 0xbe, 0x02, 0x5d, 0x4e, 0xbd,
  0x79, 0x9a, 0x77, 0xbe, 0x86, 0x31, 0x64, 0xbe, 0x9f, 0xd3, 0x1a, 0xbf,
  0x0e, 0x39, 0x26, 0xbe, 0xb4, 0xf1, 0x03, 0xbe, 0x0d, 0x52, 0x1c, 0xbd,
  0xc8, 0xf3, 0x8d, 0x3e, 0xed, 0x3a, 0x2d, 0xbe, 0x3e, 0x19, 0xc0, 0xbe,
  0xe1, 0x70, 0xc8, 0xbe, 0xeb, 0xe4, 0x14, 0xbe, 0x47, 0x09, 0x55, 0x3d,
  0x8b, 0xa4, 0xac, 0x3e, 0x1f, 0x0d, 0x3d, 0x3d, 0x48, 0xad, 0x33, 0x3e,
  0x56, 0xfc, 0x09, 0x3e, 0x1d, 0x10, 0x36, 0x3e, 0x13, 0x49, 0x16, 0x3e,
  0x53, 0x7d, 0x7b, 0xbe, 0x97, 0x42, 0x70, 0x3e, 0xd1, 0x26, 0x8a, 0xbe,
  0x93, 0x6a, 0xb2, 0xbe, 0x94, 0xeb, 0xaa, 0x3d, 0x2c, 0xef, 0x95, 0xbc,
  0x37, 0xd0, 0x75, 0xbe, 0x7d, 0x66, 0x06, 0xbf, 0x64, 0xb8, 0xd2, 0x3d,
  0xd7, 0x1d, 0xc8, 0x3c, 0xcf, 0x6b, 0x9e, 0xbe, 0x5c, 0xb7, 0xee, 0xbd,
  0x15, 0xf0, 0x6a, 0x3e, 0xd8, 0x99, 0x69, 0xbe, 0x63, 0x98, 0x35, 0xbe,
  0xe3, 0x98, 0x90, 0xbe, 0x69, 0xcc, 0x65, 0x3e, 0xe5, 0x5c, 0x81, 0xbe,
  0x98, 0xd1, 0xc5, 0xbd, 0xfe, 0x02, 0xd3, 0xbe, 0x06, 0x04, 0x52, 0x3e,
  0xd3, 0x32, 0x4b, 0xbe, 0xf9, 0x2c, 0x65, 0xbe, 0xc5, 0x57, 0x92, 0x3b,
  0x33, 0x29, 0xa7, 0xbe, 0x72, 0xe9, 0xab, 0xbe, 0xbc, 0xe7, 0x93, 0x3e,
  0x16, 0xb8, 0x62, 0xbd, 0xa2, 0x7f, 0x59, 0xbe, 0x2d, 0x33, 0x79, 0x3e,
  0xda, 0x77, 0xa2, 0xbe, 0xf0, 0x15, 0xe1, 0xbc, 0xf4, 0x01, 0xc1, 0xbd,
  0x5b, 0xea, 0xc8, 0xbe, 0x3c, 0x5c, 0x22, 0xbe, 0x4a, 0x05, 0x18, 0xbc,
  0x27, 0xb6, 0xc9, 0x3c, 0xf2, 0xe0, 0x49, 0x3e, 0xc6, 0x5c, 0x99, 0xbe,
  0x78, 0x78, 0x24, 0xbe, 0x87, 0x5b, 0x87, 0x3e, 0xec, 0x67, 0x80, 0xbe,
  0x62, 0x62, 0xc6, 0x3d, 0x26, 0xff, 0xff, 0xff, 0x10, 0x00, 0x00, 0x00,
  0x04, 0x00, 0x00, 0x00, 0x14, 0x00, 0x00, 0x00, 0x24, 0x00, 0x00, 0x00,
  0x02, 0x00, 0x00, 0x00, 0x10, 0x00, 0x00, 0x00, 0x24, 0x00, 0x00, 0x00,
  0x0c, 0x00, 0x00, 0x00, 0x73, 0x74, 0x64, 0x2e, 0x63, 0x6f, 0x6e, 0x73,
  0x74, 0x61, 0x6e, 0x74, 0x00, 0x00, 0x00, 0x00, 0xac, 0xfe, 0xff, 0xff,
  0x7e, 0xff, 0xff, 0xff, 0x04, 0x00, 0x00, 0x00, 0x40, 0x00, 0x00, 0x00,
  0xa3, 0xe0, 0xd6, 0xbd, 0xfd, 0xaf, 0x05, 0x3a, 0x93, 0x22, 0x4d, 0xbe,
  0xe3, 0x68, 0xd3, 0xbb, 0x12, 0x27, 0x59, 0xbd, 0xb5, 0xaa, 0x14, 0x3e,
  0x9f, 0x5a, 0x24, 0xbd, 0x05, 0x5b, 0xa8, 0x3b, 0x44, 0x9c, 0xba, 0xbd,
  0x42, 0x5b, 0x41, 0x3e, 0xb5, 0x5f, 0x46, 0xbd, 0x53, 0x41, 0x47, 0x3d,
  0x3c, 0x14, 0x04, 0xbe, 0x6f, 0xa8, 0x15, 0xbe, 0x47, 0x43, 0x0b, 0xbe,
  0x7e, 0x14, 0x40, 0xbd, 0xaa, 0xff, 0xff, 0xff, 0x10, 0x00, 0x00, 0x00,
  0x03, 0x00, 0x00, 0x00, 0x10, 0x00, 0x00, 0x00, 0x20, 0x00, 0x00, 0x00,
  0x01, 0x00, 0x00, 0x00, 0x10, 0x00, 0x00, 0x00, 0x0a, 0x00, 0x00, 0x00,
  0x64, 0x65, 0x6e, 0x73, 0x65, 0x2f, 0x62, 0x69, 0x61, 0x73, 0x00, 0x00,
  0x04, 0x00, 0x06, 0x00, 0x04, 0x00, 0x00, 0x00, 0x00, 0x00, 0x06, 0x00,
  0x08, 0x00, 0x04, 0x00, 0x06, 0x00, 0x00, 0x00, 0x04, 0x00, 0x00, 0x00,
  0x0c, 0x00, 0x00, 0x00, 0x2e, 0x03, 0x78, 0xbe, 0x14, 0xf6, 0x04, 0x3e,
  0xfb, 0x43, 0xcf, 0x3d, 0x00, 0x00, 0x0e, 0x00, 0x14, 0x00, 0x04, 0x00,
  0x00, 0x00, 0x08, 0x00, 0x0c, 0x00, 0x10, 0x00, 0x0e, 0x00, 0x00, 0x00,
  0x10, 0x00, 0x00, 0x00, 0x02, 0x00, 0x00, 0x00, 0x10, 0x00, 0x00, 0x00,
  0x20, 0x00, 0x00, 0x00, 0x01, 0x00, 0x00, 0x00, 0x03, 0x00, 0x00, 0x00,
  0x0c, 0x00, 0x00, 0x00, 0x64, 0x65, 0x6e, 0x73, 0x65, 0x5f, 0x31, 0x2f,
  0x62, 0x69, 0x61, 0x73, 0x00, 0x00, 0x00, 0x00, 0x90, 0xff, 0xff, 0xff,
  0x14, 0x00, 0x18, 0x00, 0x04, 0x00, 0x00, 0x00, 0x08, 0x00, 0x0c, 0x00,
  0x10, 0x00, 0x00, 0x00, 0x00, 0x00, 0x14, 0x00, 0x14, 0x00, 0x00, 0x00,
  0x14, 0x00, 0x00, 0x00, 0x01, 0x00, 0x00, 0x00, 0x18, 0x00, 0x00, 0x00,
  0x44, 0x00, 0x00, 0x00, 0x34, 0x00, 0x00, 0x00, 0x02, 0x00, 0x00, 0x00,
  0x01, 0x00, 0x00, 0x00, 0x24, 0x00, 0x00, 0x00, 0x1d, 0x00, 0x00, 0x00,
  0x73, 0x65, 0x72, 0x76, 0x69, 0x6e, 0x67, 0x5f, 0x64, 0x65, 0x66, 0x61,
  0x75, 0x6c, 0x74, 0x5f, 0x64, 0x65, 0x6e, 0x73, 0x65, 0x5f, 0x69, 0x6e,
  0x70, 0x75, 0x74, 0x3a, 0x30, 0x00, 0x00, 0x00, 0x02, 0x00, 0x00, 0x00,
  0xff, 0xff, 0xff, 0xff, 0x24, 0x00, 0x00, 0x00, 0xfc, 0xff, 0xff, 0xff,
  0x04, 0x00, 0x04, 0x00, 0x04, 0x00, 0x00, 0x00
};
unsigned int models_model_no_quant_tflite_len = 3776;
