unsigned char models_model_no_quant_tflite[] = {
  0x1c, 0x00, 0x00, 0x00, 0x54, 0x46, 0x4c, 0x33, 0x14, 0x00, 0x20, 0x00,
  0x04, 0x00, 0x08, 0x00, 0x0c, 0x00, 0x10, 0x00, 0x14, 0x00, 0x00, 0x00,
  0x18, 0x00, 0x1c, 0x00, 0x14, 0x00, 0x00, 0x00, 0x03, 0x00, 0x00, 0x00,
  0x18, 0x00, 0x00, 0x00, 0x20, 0x00, 0x00, 0x00, 0x34, 0x01, 0x00, 0x00,
  0x20, 0x00, 0x00, 0x00, 0xdc, 0x00, 0x00, 0x00, 0x44, 0x00, 0x00, 0x00,
  0x02, 0x00, 0x00, 0x00, 0x34, 0x03, 0x00, 0x00, 0xe4, 0x01, 0x00, 0x00,
  0x01, 0x00, 0x00, 0x00, 0x38, 0x01, 0x00, 0x00, 0x0a, 0x00, 0x00, 0x00,
  0x1c, 0x0f, 0x00, 0x00, 0x18, 0x0f, 0x00, 0x00, 0x48, 0x0e, 0x00, 0x00,
  0xb8, 0x0d, 0x00, 0x00, 0x70, 0x04, 0x00, 0x00, 0x68, 0x03, 0x00, 0x00,
  0x04, 0x0f, 0x00, 0x00, 0x00, 0x0f, 0x00, 0x00, 0xfc, 0x0e, 0x00, 0x00,
  0xcc, 0x00, 0x00, 0x00, 0x01, 0x00, 0x00, 0x00, 0x10, 0x00, 0x00, 0x00,
  0x0c, 0x00, 0x14, 0x00, 0x10, 0x00, 0x0c, 0x00, 0x08, 0x00, 0x04, 0x00,
  0x0c, 0x00, 0x00, 0x00, 0x10, 0x00, 0x00, 0x00, 0x18, 0x00, 0x00, 0x00,
  0x28, 0x00, 0x00, 0x00, 0x2c, 0x00, 0x00, 0x00, 0x05, 0x00, 0x00, 0x00,
  0x73, 0x65, 0x72, 0x76, 0x65, 0x00, 0x00, 0x00, 0x0f, 0x00, 0x00, 0x00,
  0x73, 0x65, 0x72, 0x76, 0x69, 0x6e, 0x67, 0x5f, 0x64, 0x65, 0x66, 0x61,
  0x75, 0x6c, 0x74, 0x00, 0x01, 0x00, 0x00, 0x00, 0x14, 0x00, 0x00, 0x00,
  0x01, 0x00, 0x00, 0x00, 0x24, 0x00, 0x00, 0x00, 0x08, 0x00, 0x0c, 0x00,
  0x08, 0x00, 0x04, 0x00, 0x08, 0x00, 0x00, 0x00, 0x07, 0x00, 0x00, 0x00,
  0x04, 0x00, 0x00, 0x00, 0x07, 0x00, 0x00, 0x00, 0x64, 0x65, 0x6e, 0x73,
  0x65, 0x5f, 0x33, 0x00, 0x56, 0xf2, 0xff, 0xff, 0x04, 0x00, 0x00, 0x00,
  0x0d, 0x00, 0x00, 0x00, 0x64, 0x65, 0x6e, 0x73, 0x65, 0x5f, 0x32, 0x5f,
  0x69, 0x6e, 0x70, 0x75, 0x74, 0x00, 0x00, 0x00, 0x01, 0x00, 0x00, 0x00,
  0x0c, 0x00, 0x00, 0x00, 0x08, 0x00, 0x0c, 0x00, 0x04, 0x00, 0x08, 0x00,
  0x08, 0x00, 0x00, 0x00, 0x08, 0x00, 0x00, 0x00, 0x09, 0x00, 0x00, 0x00,
  0x13, 0x00, 0x00, 0x00, 0x6d, 0x69, 0x6e, 0x5f, 0x72, 0x75, 0x6e, 0x74,
  0x69, 0x6d, 0x65, 0x5f, 0x76, 0x65, 0x72, 0x73, 0x69, 0x6f, 0x6e, 0x00,
  0xa6, 0xf2, 0xff, 0xff, 0x04, 0x00, 0x00, 0x00, 0x10, 0x00, 0x00, 0x00,
  0x31, 0x2e, 0x35, 0x2e, 0x30, 0x00, 0x00, 0x00, 0x00, 0x00, 0x00, 0x00,
  0x00, 0x00, 0x00, 0x00, 0x0f, 0x00, 0x00, 0x00, 0x4d, 0x4c, 0x49, 0x52,
  0x20, 0x43, 0x6f, 0x6e, 0x76, 0x65, 0x72, 0x74, 0x65, 0x64, 0x2e, 0x00,
  0x00, 0x00, 0x0e, 0x00, 0x18, 0x00, 0x04, 0x00, 0x08, 0x00, 0x0c, 0x00,
  0x10, 0x00, 0x14, 0x00, 0x0e, 0x00, 0x00, 0x00, 0x14, 0x00, 0x00, 0x00,
  0x34, 0x00, 0x00, 0x00, 0x38, 0x00, 0x00, 0x00, 0x3c, 0x00, 0x00, 0x00,
  0x48, 0x00, 0x00, 0x00, 0x08, 0x00, 0x00, 0x00, 0x74, 0x0d, 0x00, 0x00,
  0x28, 0x0d, 0x00, 0x00, 0xbc, 0x0c, 0x00, 0x00, 0x34, 0x0c, 0x00, 0x00,
  0xec, 0x02, 0x00, 0x00, 0xd0, 0x01, 0x00, 0x00, 0x14, 0x01, 0x00, 0x00,
  0x7c, 0x00, 0x00, 0x00, 0x01, 0x00, 0x00, 0x00, 0x00, 0x00, 0x00, 0x00,
  0x01, 0x00, 0x00, 0x00, 0x07, 0x00, 0x00, 0x00, 0x03, 0x00, 0x00, 0x00,
  0x58, 0x01, 0x00, 0x00, 0xc4, 0x00, 0x00, 0x00, 0x1c, 0x00, 0x00, 0x00,
  0x04, 0x00, 0x00, 0x00, 0x6d, 0x61, 0x69, 0x6e, 0x00, 0x00, 0x0e, 0x00,
  0x18, 0x00, 0x08, 0x00, 0x0c, 0x00, 0x10, 0x00, 0x07, 0x00, 0x14, 0x00,
  0x0e, 0x00, 0x00, 0x00, 0x00, 0x00, 0x00, 0x09, 0x01, 0x00, 0x00, 0x00,
  0x1c, 0x00, 0x00, 0x00, 0x10, 0x00, 0x00, 0x00, 0x04, 0x00, 0x00, 0x00,
  0x72, 0xf3, 0xff, 0xff, 0x00, 0x00, 0x80, 0x3f, 0x01, 0x00, 0x00, 0x00,
  0x07, 0x00, 0x00, 0x00, 0x01, 0x00, 0x00, 0x00, 0x06, 0x00, 0x00, 0x00,
  0xc0, 0xfe, 0xff, 0xff, 0x19, 0x00, 0x00, 0x00, 0x00, 0x00, 0x00, 0x19,
  0x01, 0x00, 0x00, 0x00, 0x38, 0xf3, 0xff, 0xff, 0x14, 0x00, 0x00, 0x00,
  0x08, 0x00, 0x00, 0x00, 0x18, 0x00, 0x00, 0x00, 0x40, 0x00, 0x00, 0x00,
  0x30, 0x00, 0x00, 0x00, 0x02, 0x00, 0x00, 0x00, 0x01, 0x00, 0x00, 0x00,
  0x03, 0x00, 0x00, 0x00, 0x19, 0x00, 0x00, 0x00, 0x53, 0x74, 0x61, 0x74,
  0x65, 0x66, 0x75, 0x6c, 0x50, 0x61, 0x72, 0x74, 0x69, 0x74, 0x69, 0x6f,
  0x6e, 0x65, 0x64, 0x43, 0x61, 0x6c, 0x6c, 0x3a, 0x30, 0x00, 0x00, 0x00,
  0x02, 0x00, 0x00, 0x00, 0xff, 0xff, 0xff, 0xff, 0x03, 0x00, 0x00, 0x00,
  0xf4, 0xf3, 0xff, 0xff, 0x00, 0x00, 0x0e, 0x00, 0x14, 0x00, 0x00, 0x00,
  0x08, 0x00, 0x0c, 0x00, 0x07, 0x00, 0x10, 0x00, 0x0e, 0x00, 0x00, 0x00,
  0x00, 0x00, 0x00, 0x08, 0x18, 0x00, 0x00, 0x00, 0x0c, 0x00, 0x00, 0x00,
  0x04, 0x00, 0x00, 0x00, 0x44, 0xf3, 0xff, 0xff, 0x01, 0x00, 0x00, 0x00,
  0x06, 0x00, 0x00, 0x00, 0x03, 0x00, 0x00, 0x00, 0x05, 0x00, 0x00, 0x00,
  0x04, 0x00, 0x00, 0x00, 0x01, 0x00, 0x00, 0x00, 0xcc, 0xf3, 0xff, 0xff,
  0x14, 0x00, 0x00, 0x00, 0x07, 0x00, 0x00, 0x00, 0x18, 0x00, 0x00, 0x00,
  0x3c, 0x00, 0x00, 0x00, 0x2c, 0x00, 0x00, 0x00, 0x02, 0x00, 0x00, 0x00,
  0x01, 0x00, 0x00, 0x00, 0x03, 0x00, 0x00, 0x00, 0x14, 0x00, 0x00, 0x00,
  0x74, 0x66, 0x6c, 0x2e, 0x66, 0x75, 0x6c, 0x6c, 0x79, 0x5f, 0x63, 0x6f,
  0x6e, 0x6e, 0x65, 0x63, 0x74, 0x65, 0x64, 0x31, 0x00, 0x00, 0x00, 0x00,
  0x02, 0x00, 0x00, 0x00, 0xff, 0xff, 0xff, 0xff, 0x03, 0x00, 0x00, 0x00,
  0x84, 0xf4, 0xff, 0xff, 0x00, 0x00, 0x0e, 0x00, 0x16, 0x00, 0x00, 0x00,
  0x08, 0x00, 0x0c, 0x00, 0x07, 0x00, 0x10, 0x00, 0x0e, 0x00, 0x00, 0x00,
  0x00, 0x00, 0x00, 0x08, 0x24, 0x00, 0x00, 0x00, 0x18, 0x00, 0x00, 0x00,
  0x0c, 0x00, 0x00, 0x00, 0x00, 0x00, 0x06, 0x00, 0x08, 0x00, 0x07, 0x00,
  0x06, 0x00, 0x00, 0x00, 0x00, 0x00, 0x00, 0x01, 0x01, 0x00, 0x00, 0x00,
  0x05, 0x00, 0x00, 0x00, 0x03, 0x00, 0x00, 0x00, 0x00, 0x00, 0x00, 0x00,
  0x03, 0x00, 0x00, 0x00, 0x02, 0x00, 0x00, 0x00, 0x0c, 0x00, 0x10, 0x00,
  0x0b, 0x00, 0x00, 0x00, 0x0c, 0x00, 0x04, 0x00, 0x0c, 0x00, 0x00, 0x00,
  0x09, 0x00, 0x00, 0x00, 0x00, 0x00, 0x00, 0x09, 0x01, 0x00, 0x00, 0x00,
  0x84, 0xf4, 0xff, 0xff, 0x14, 0x00, 0x00, 0x00, 0x06, 0x00, 0x00, 0x00,
  0x18, 0x00, 0x00, 0x00, 0x38, 0x00, 0x00, 0x00, 0x28, 0x00, 0x00, 0x00,
  0x02, 0x00, 0x00, 0x00, 0x01, 0x00, 0x00, 0x00, 0x10, 0x00, 0x00, 0x00,
  0x13, 0x00, 0x00, 0x00, 0x74, 0x66, 0x6c, 0x2e, 0x66, 0x75, 0x6c, 0x6c,
  0x79, 0x5f, 0x63, 0x6f, 0x6e, 0x6e, 0x65, 0x63, 0x74, 0x65, 0x64, 0x00,
  0x02, 0x00, 0x00, 0x00, 0xff, 0xff, 0xff, 0xff, 0x10, 0x00, 0x00, 0x00,
  0x60, 0xf4, 0xff, 0xff, 0x32, 0xf5, 0xff, 0xff, 0x04, 0x00, 0x00, 0x00,
  0xc0, 0x00, 0x00, 0x00, 0xe5, 0x4b, 0x28, 0xbd, 0x2f, 0x03, 0x06, 0x3f,
  0x67, 0x59, 0x31, 0xbe, 0xf8, 0xe0, 0x57, 0x3e, 0x29, 0xdf, 0x8a, 0x3c,
  0x53, 0xff, 0xec, 0xbe, 0xa8, 0x03, 0x4c, 0xbe, 0x72, 0xf0, 0xe1, 0x3e,
  0xc9, 0xe2, 0x18, 0x3e, 0x9e, 0x17, 0xf1, 0xbe, 0xf5, 0x65, 0xc7, 0x3e,
  0x7a, 0xde, 0xbd, 0x3e, 0x0f, 0xd4, 0xf9, 0x3e, 0x00, 0x71, 0x09, 0x3d,
  0x74, 0x65, 0x2f, 0xbd, 0x28, 0xf6, 0x61, 0x3e, 0x54, 0x61, 0x08, 0xbd,
  0x79, 0x6b, 0x73, 0x3e, 0x30, 0x5d, 0x08, 0xbe, 0x42, 0x53, 0xcd, 0xbe,
  0x65, 0xbb, 0xdf, 0x3d, 0xf3, 0x0d, 0x32, 0x3e, 0xa3, 0x72, 0xb7, 0x3e,
  0x4e, 0x4d, 0xd0, 0xbe, 0x4c, 0x04, 0x3c, 0xbe, 0xf6, 0xd2, 0xf0, 0x3e,
  0x8a, 0x51, 0x47, 0x3e, 0x25, 0x2c, 0x9d, 0x3d, 0xd2, 0x4b, 0xe5, 0xbe,
  0xdc, 0x1c, 0xb3, 0xbd, 0xa0, 0xba, 0xd3, 0xbd, 0x48, 0xc6, 0xc9, 0xbe,
  0x5a, 0xbd, 0x1e, 0x3e, 0x47, 0x23, 0xfe, 0xbd, 0xf0, 0x25, 0x7b, 0x3d,
  0xca, 0xff, 0x04, 0x3e, 0x18, 0xaa, 0xcb, 0xbe, 0x35, 0x5f, 0xda, 0x3e,
  0xd5, 0xb3, 0x85, 0xbe, 0x37, 0xc4, 0x1f, 0x3f, 0x73, 0x29, 0xb4, 0x3e,
  0x18, 0x91, 0x0b, 0x3f, 0x37, 0xfb, 0xb0, 0xbe, 0xe5, 0xc8, 0x72, 0x3f,
  0x97, 0xe1, 0xbb, 0xbd, 0x43, 0x4f, 0xe0, 0xbe, 0xc9, 0x77, 0xac, 0xbe,
  0x4d, 0x53, 0xc4, 0x3e, 0xde, 0xf5, 0xff, 0xff, 0x10, 0x00, 0x00, 0x00,
  0x05, 0x00, 0x00, 0x00, 0x14, 0x00, 0x00, 0x00, 0x24, 0x00, 0x00, 0x00,
  0x02, 0x00, 0x00, 0x00, 0x03, 0x00, 0x00, 0x00, 0x10, 0x00, 0x00, 0x00,
  0x0d, 0x00, 0x00, 0x00, 0x73, 0x74, 0x64, 0x2e, 0x63, 0x6f, 0x6e, 0x73,
  0x74, 0x61, 0x6e, 0x74, 0x31, 0x00, 0x00, 0x00, 0x64, 0xf5, 0xff, 0xff,
  0x36, 0xf6, 0xff, 0xff, 0x04, 0x00, 0x00, 0x00, 0x00, 0x09, 0x00, 0x00,
  0x33, 0xbc, 0xc3, 0x3d, 0x9c, 0x99, 0x2d, 0xbe, 0xb2, 0x2d, 0x20, 0x3f,
  0x1d, 0x66, 0xcf, 0x3e, 0x62, 0x7e, 0x76, 0x3f, 0x07, 0x92, 0x8c, 0xbe,
  0x5e, 0x39, 0x1d, 0x3f, 0x3d, 0x51, 0x12, 0xbf, 0x9d, 0x91, 0x91, 0x3f,
  0x13, 0xca, 0x4d, 0x3f, 0x36, 0x86, 0x6c, 0x3f, 0xf1, 0xc2, 0xaa, 0xbe,
  0xb3, 0x21, 0x99, 0xbd, 0xfe, 0x18, 0x26, 0x3d, 0xab, 0xad, 0x12, 0x3f,
  0x96, 0x5b, 0x65, 0x3e, 0x95, 0xd5, 0xc9, 0x3d, 0x45, 0x41, 0x1b, 0x3d,
  0x4b, 0xde, 0xdc, 0xbd, 0x5d, 0xec, 0x7d, 0xbe, 0xff, 0xa2, 0x82, 0xbd,
  0x7f, 0xca, 0x7a, 0xbe, 0xd4, 0xa0, 0x4d, 0xbe, 0x9f, 0x00, 0xf8, 0xbd,
  0x18, 0xf2, 0xed, 0x3d, 0x9f, 0x45, 0xab, 0xbe, 0x58, 0xcc, 0x63, 0xbd,
  0x97, 0xce, 0x3b, 0x3d, 0x91, 0x72, 0xb0, 0x3e, 0x3e, 0x7d, 0x9e, 0x3d,
  0x78, 0x34, 0xe4, 0xbd, 0x19, 0xe4, 0x99, 0x3e, 0x69, 0x2e, 0x19, 0xbe,
  0xfd, 0x1d, 0x70, 0x3e, 0xbf, 0xb2, 0x5b, 0x3e, 0xea, 0x35, 0xfb, 0x3d,
  0xfa, 0x3c, 0x81, 0x3e, 0xff, 0x98, 0x75, 0xbe, 0xf5, 0x78, 0x0c, 0xba,
  0xe7, 0xf0, 0xca, 0x3c, 0xad, 0xa8, 0xaf, 0xbd, 0xaa, 0xe8, 0x44, 0x3e,
  0x49, 0x17, 0xc3, 0x3c, 0xdc, 0x85, 0x25, 0x3c, 0xc9, 0xb7, 0x97, 0xbe,
  0x11, 0xd2, 0xab, 0xbe, 0xba, 0xaa, 0x57, 0x3d, 0x04, 0xbf, 0x00, 0x3c,
  0x9d, 0x97, 0x85, 0x3e, 0x81, 0x55, 0xd1, 0xbe, 0x2b, 0x5a, 0x56, 0x3e,
  0x9f, 0x0f, 0x81, 0x3c, 0x3b, 0x9a, 0xe0, 0xbc, 0x04, 0x39, 0x6c, 0xbe,
  0xff, 0x03, 0x46, 0xbe, 0x93, 0x7a, 0xb4, 0x3d, 0xd2, 0xd6, 0x93, 0x3e,
  0xe1, 0x74, 0x90, 0xbe, 0xe8, 0x91, 0xb8, 0x3c, 0x32, 0xb2, 0x3b, 0xbe,
  0xda, 0x6f, 0xf0, 0x3d, 0x16, 0x01, 0xbf, 0x3e, 0x03, 0x70, 0x03, 0xbe,
  0xb1, 0xf2, 0x0d, 0xbe, 0xcf, 0xe7, 0x1a, 0x3c, 0x78, 0x51, 0x08, 0xbd,
  0xee, 0x88, 0x55, 0xbc, 0xd1, 0x80, 0xcd, 0xbb, 0xb7, 0x9b, 0x44, 0xbe,
  0x52, 0x12, 0xa5, 0xbd, 0x13, 0x5a, 0x31, 0x3d, 0x97, 0x52, 0x95, 0xbd,
  0x72, 0xfa, 0x9e, 0x3d, 0xd7, 0xd0, 0xb7, 0x3e, 0xdc, 0x6b, 0xb1, 0x3d,
  0x1a, 0x1e, 0xe4, 0x3d, 0xa8, 0x4c, 0x0e, 0xbe, 0x1d, 0x8e, 0xdb, 0xbc,
  0x82, 0x71, 0x6e, 0xbe, 0x48, 0xd1, 0xab, 0x3c, 0x10, 0x29, 0x7b, 0x3e,
  0x29, 0xd7, 0x70, 0xbd, 0xfb, 0x9c, 0x79, 0xbe, 0x49, 0x7c, 0x66, 0xbd,
  0xc7, 0x79, 0x5d, 0xbd, 0xb4, 0x99, 0x5c, 0xbd, 0xbd, 0xe0, 0x85, 0xbe,
  0x9b, 0xe4, 0x06, 0x3e, 0x0e, 0x9d, 0xad, 0x3e, 0x78, 0x13, 0xbd, 0x3e,
  0x7b, 0xde, 0x32, 0xbe, 0xbe, 0x2f, 0xa4, 0x3d, 0xed, 0x95, 0xa1, 0xbe,
  0x84, 0x5b, 0xad, 0xbe, 0xc8, 0xc4, 0x33, 0xbe, 0x57, 0x9e, 0x83, 0x3e,
  0xff, 0x56, 0x9d, 0xbe, 0xf9, 0x1e, 0x91, 0xbe, 0x8b, 0x38, 0x87, 0x3d,
  0x95, 0xa5, 0x72, 0xbe, 0xf6, 0x6d, 0xcb, 0x3e, 0x93, 0x28, 0xb2, 0x3e,
  0x59, 0x96, 0x31, 0xbc, 0x4a, 0x77, 0x8f, 0x3e, 0xea, 0x92, 0x78, 0xbe,
  0x12, 0x4f, 0xee, 0x3d, 0x07, 0x47, 0x6c, 0xbe, 0xe4, 0x58, 0xd3, 0x3e,
  0xf9, 0x26, 0x3d, 0xbd, 0x87, 0x77, 0x3d, 0x3e, 0xc4, 0x1e, 0xab, 0xbd,
  0xa8, 0x08, 0xb1, 0xbe, 0xa2, 0xc1, 0x4f, 0xbe, 0x53, 0xe3, 0x4d, 0x3e,
  0xad, 0xac, 0x7e, 0xbe, 0xd3, 0x02, 0x52, 0x3e, 0x46, 0xb8, 0x14, 0x3e,
  0x50, 0x17, 0x27, 0x3e, 0x15, 0xcd, 0x83, 0xbd, 0x2c, 0xd8, 0xe8, 0x3d,
  0xa5, 0xd3, 0x76, 0x3d, 0xb9, 0x89, 0xcc, 0x3d, 0x65, 0xb1, 0x34, 0x3e,
  0xbf, 0xcd, 0x80, 0xbe, 0xeb, 0xd6, 0xc6, 0xbe, 0xc9, 0xfc, 0x50, 0xbe,
  0x5c, 0x43, 0x12, 0x3e, 0x4c, 0xf9, 0x70, 0xbe, 0x46, 0x28, 0x41, 0x3e,
  0xbd, 0xce, 0x97, 0xbe, 0xcf, 0x68, 0x36, 0xbe, 0xfc, 0xcb, 0x5b, 0x3e,
  0x1e, 0xc9, 0x26, 0xbe, 0x9b, 0x1f, 0x12, 0x3e, 0xe1, 0xb5, 0x2d, 0xbe,
  0xd7, 0x78, 0x53, 0xbe, 0x76, 0x46, 0xe9, 0x3d, 0x97, 0xd8, 0x7b, 0x3d,
  0xb9, 0x7f, 0x06, 0x3e, 0x0a, 0x94, 0x68, 0xbe, 0x96, 0xb1, 0x6b, 0xbe,
  0x09, 0x36, 0x1d, 0x3e, 0xe9, 0xc7, 0x88, 0xbc, 0xe6, 0xa6, 0x29, 0x3e,
  0x7c, 0x99, 0x3b, 0xbe, 0x5a, 0x8d, 0xe8, 0x3d, 0x18, 0x8e, 0xab, 0xbe,
  0x89, 0x91, 0x18, 0xbc, 0xdd, 0xe3, 0xc0, 0xbd, 0xbe, 0x46, 0x49, 0x3e,
  0x28, 0xe0, 0x23, 0xbe, 0x5a, 0x3e, 0x2f, 0x3d, 0x84, 0xca, 0xb9, 0xbe,
  0xd5, 0xc7, 0x25, 0xbc, 0x46, 0x81, 0x77, 0xbe, 0xa3, 0xac, 0x10, 0xbe,
  0x57, 0x77, 0xb4, 0xbe, 0xaf, 0x2b, 0xe0, 0xbd, 0x6a, 0x96, 0xf4, 0xbe,
  0xed, 0xbe, 0xa8, 0x3d, 0x32, 0x15, 0x35, 0xbd, 0x5d, 0xc9, 0x38, 0xbe,
  0x00, 0xd6, 0x6e, 0x3c, 0x8b, 0xeb, 0xa6, 0xbe, 0x25, 0xcb, 0xb2, 0xbe,
  0x80, 0xa3, 0x94, 0xbe, 0x05, 0x47, 0x43, 0x3d, 0x8d, 0x9a, 0x71, 0xbd,
  0x91, 0xf5, 0x69, 0x3e, 0x0c, 0x8e, 0x91, 0x3d, 0xa9, 0x18, 0x6e, 0xbe,
  0x42, 0xe8, 0x54, 0xbe, 0xd4, 0xb2, 0xc3, 0x3e, 0x7d, 0x25, 0xfd, 0xbc,
  0xd1, 0xf4, 0x8d, 0x3e, 0xdf, 0xfd, 0xd1, 0xbe, 0x9b, 0x72, 0x40, 0xbe,
  0x1a, 0xca, 0xa7, 0xbb, 0x21, 0x1e, 0xb9, 0xbc, 0x03, 0x26, 0xf3, 0x3d,
  0x94, 0x9d, 0xf1, 0x3d, 0x28, 0x7a, 0x63, 0xbe, 0x64, 0xb9, 0x55, 0x3e,
  0xd6, 0x76, 0xeb, 0xbd, 0xf3, 0x3a, 0x99, 0xbd, 0xfa, 0x02, 0x62, 0xbe,
  0x24, 0xd2, 0x03, 0xbe, 0xe2, 0x07, 0xe2, 0xbc, 0x27, 0xca, 0x1a, 0xbd,
  0x1f, 0x80, 0xee, 0xbd, 0x6c, 0x1c, 0xcc, 0x3e, 0x83, 0xd2, 0xbe, 0x3c,
  0x25, 0x99, 0xce, 0x3c, 0xdd, 0x61, 0x80, 0x3e, 0x12, 0xe0, 0x04, 0x3b,
  0xe8, 0x2b, 0x9f, 0xbe, 0x18, 0x5d, 0x12, 0x3e, 0x42, 0xfb, 0x9c, 0xbe,
  0x17, 0xc7, 0xfb, 0xbd, 0xf2, 0xbd, 0xe5, 0x3d, 0x20, 0x93, 0xef, 0xbd,
  0x71, 0x46, 0xae, 0xbe, 0x86, 0x81, 0xe5, 0xbd, 0x58, 0xe3, 0x6e, 0x3e,
  0x7d, 0x6a, 0x1e, 0xbe, 0x40, 0xe0, 0x87, 0x3d, 0x03, 0x2f, 0x8f, 0xbd,
  0x3c, 0x6b, 0xdb, 0x3d, 0x90, 0xba, 0x9f, 0x3d, 0x4b, 0xec, 0xe7, 0xbd,
  0x6c, 0x37, 0x25, 0xbe, 0x66, 0x9b, 0x7b, 0xbe, 0x68, 0xf4, 0x0f, 0x3e,
  0x1c, 0x76, 0xe5, 0xbd, 0xfd, 0x24, 0xb7, 0x3c, 0xb2, 0xa6, 0x6a, 0xbe,
  0xa4, 0x56, 0x0d, 0x3f, 0xed, 0x49, 0x88, 0xbe, 0x8d, 0x27, 0xf5, 0x3d,
  0xd0, 0x66, 0x8c, 0xbe, 0x6e, 0x72, 0xf0, 0xbe, 0xff, 0x7c, 0x54, 0x3e,
  0xd7, 0x4a, 0x65, 0x3e, 0x86, 0xf2, 0xe1, 0x3d, 0x21, 0x2e, 0x05, 0x3d,
  0xfa, 0x68, 0xa3, 0x3d, 0x81, 0x02, 0xc3, 0x3d, 0x35, 0xe2, 0x0f, 0x3e,
  0xe1, 0x17, 0x83, 0x3e, 0x8d, 0xef, 0x89, 0xbd, 0x68, 0xad, 0xb5, 0x3d,
  0x69, 0x6c, 0xa7, 0xbe, 0xba, 0x0e, 0xe1, 0xbe, 0xcf, 0xbe, 0x74, 0x3e,
  0x82, 0x1e, 0xee, 0x3e, 0x6f, 0x64, 0x92, 0x3e, 0xbb, 0x3e, 0xac, 0xbd,
  0xa5, 0xaf, 0x52, 0x3e, 0xf3, 0xd5, 0x2a, 0x3e, 0xd8, 0x43, 0x9b, 0xbe,
  0x45, 0xdb, 0xaa, 0x3e, 0x55, 0xef, 0xfc, 0x3e, 0xe2, 0x3b, 0x58, 0xbd,
  0xfd, 0x5e, 0x5d, 0xbe, 0x39, 0xe2, 0x9d, 0x3b, 0xe7, 0xca, 0x29, 0xbe,
  0x1c, 0x90, 0x62, 0x3e, 0xe1, 0x65, 0x8b, 0x3e, 0x34, 0xa8, 0xcd, 0x3e,
  0xc2, 0x3b, 0x9f, 0xbd, 0x89, 0x85, 0xbf, 0x3d, 0xd0, 0x16, 0xcb, 0x3e,
  0x8d, 0xe8, 0x37, 0xbd, 0x11, 0xbe, 0x53, 0xbd, 0xbf, 0x47, 0x1d, 0x3e,
  0x60, 0x97, 0x01, 0x3d, 0xc5, 0x09, 0xdd, 0x3c, 0x95, 0x0d, 0xa2, 0x3e,
  0x13, 0xb8, 0xa4, 0x3e, 0x62, 0x08, 0x40, 0xbe, 0xa8, 0xc4, 0x42, 0xbe,
  0xa0, 0x82, 0x8c, 0xbe, 0xe8, 0x51, 0x69, 0xbc, 0x44, 0x44, 0xaf, 0xbd,
  0x36, 0xaf, 0x84, 0x3d, 0x62, 0xac, 0xe3, 0x3c, 0x4f, 0x16, 0xe8, 0x3d,
  0x27, 0x20, 0x31, 0x3d, 0xac, 0x25, 0x63, 0x3e, 0xa1, 0x87, 0x0d, 0x3e,
  0x8e, 0x71, 0x2c, 0xbe, 0x73, 0x9f, 0x33, 0xbe, 0xc9, 0x41, 0xb3, 0x3d,
  0x48, 0xe9, 0x90, 0xbc, 0x14, 0x39, 0x77, 0xbe, 0x5c, 0xd3, 0x89, 0x3e,
  0xe8, 0x34, 0x8f, 0x3e, 0x3e, 0xec, 0x88, 0xbd, 0x97, 0x24, 0x3f, 0x3d,
  0x90, 0xc1, 0xc0, 0x3e, 0xc5, 0x86, 0x42, 0x3e, 0xca, 0x5b, 0xd5, 0xbd,
  0x53, 0xaa, 0x91, 0x3d, 0x19, 0x97, 0x89, 0x3e, 0x1d, 0xd7, 0x88, 0xbd,
  0x44, 0xc4, 0x0d, 0xbe, 0xe9, 0x64, 0x8f, 0xbd, 0x29, 0x55, 0x47, 0x3e,
  0x25, 0x2f, 0x44, 0x3d, 0x11, 0x8e, 0x6c, 0xbd, 0xd3, 0xd0, 0x31, 0xbe,
  0xee, 0x79, 0x94, 0xbe, 0x51, 0x59, 0x27, 0x3e, 0x6a, 0x47, 0x3b, 0xbe,
  0x93, 0xc6, 0x92, 0xbe, 0x17, 0xeb, 0xe4, 0xbe, 0x06, 0xc7, 0x12, 0xbd,
  0x28, 0x15, 0x98, 0xbe, 0x4d, 0xbb, 0x47, 0xbe, 0x39, 0xee, 0x0e, 0x3e,
  0x11, 0x09, 0x9b, 0x3e, 0xfe, 0x4a, 0xaa, 0xbe, 0xb9, 0x42, 0x03, 0x3c,
  0x14, 0x0d, 0x81, 0xbe, 0x6a, 0x73, 0x7f, 0x3c, 0x2c, 0xaa, 0x9e, 0xbd,
  0xaf, 0xf5, 0x03, 0xbe, 0xbe, 0xaa, 0x9b, 0xbd, 0x33, 0xc2, 0x44, 0xbe,
  0x49, 0x3b, 0x9e, 0x3e, 0x16, 0x6e, 0x3e, 0x3c, 0x5a, 0x4f, 0x27, 0xbd,
  0xc0, 0xed, 0xa2, 0xbd, 0xda, 0x44, 0xb6, 0x3d, 0x55, 0xab, 0x4e, 0x3c,
  0x6b, 0x2a, 0x03, 0xbe, 0x97, 0x63, 0x84, 0xbe, 0x92, 0xd3, 0x55, 0x3a,
  0x0d, 0xb6, 0x93, 0xbe, 0xb1, 0x53, 0x05, 0x3e, 0x39, 0x1c, 0x31, 0xbe,
  0x07, 0xa8, 0x47, 0xbc, 0x73, 0x54, 0x44, 0xbe, 0x2c, 0x8e, 0x71, 0x3e,
  0x0e, 0x38, 0xb5, 0x3d, 0x0b, 0xc0, 0xa9, 0x3e, 0x31, 0x30, 0x44, 0xbe,
  0x27, 0xe4, 0x94, 0x3e, 0xbb, 0x11, 0x4d, 0x3e, 0xcb, 0x04, 0x13, 0x3e,
  0xc9, 0x4b, 0xb0, 0xbe, 0x98, 0x46, 0x42, 0x3d, 0xfc, 0x4b, 0x47, 0x3e,
  0xe0, 0xea, 0x9a, 0x3d, 0x8d, 0x25, 0xa7, 0x3d, 0xe4, 0xe7, 0xb3, 0xb9,
  0x88, 0x43, 0x35, 0x3e, 0x78, 0x10, 0x57, 0x3e, 0x40, 0x2d, 0x4e, 0x3e,
  0x53, 0xbc, 0x5a, 0x3e, 0xc6, 0x4b, 0x44, 0x3e, 0x01, 0xa0, 0xa6, 0xbd,
  0xa9, 0xb3, 0x44, 0xbf, 0x10, 0x9a, 0x65, 0xbe, 0x1e, 0x81, 0x92, 0x3e,
  0x6c, 0x62, 0xfc, 0xbd, 0xe5, 0x6a, 0xcc, 0x3e, 0x2b, 0xdc, 0xbc, 0xbd,
  0x7a, 0x88, 0x47, 0xbe, 0x88, 0x77, 0xae, 0x3e, 0xc2, 0xc6, 0xc6, 0x3e,
  0x02, 0x01, 0x92, 0x3e, 0xfa, 0xbe, 0xff, 0x3d, 0x07, 0x12, 0x01, 0xbe,
  0xd0, 0x62, 0x97, 0x3d, 0x20, 0x21, 0xfd, 0xbd, 0xf9, 0x43, 0x12, 0x3d,
  0xe6, 0x1c, 0x3e, 0xbe, 0x6d, 0xd9, 0x2c, 0x3e, 0x26, 0x49, 0xf5, 0xbd,
  0xec, 0xb8, 0xa3, 0x3d, 0x3b, 0xf7, 0xf2, 0xbd, 0xc7, 0xdb, 0x1f, 0xbe,
  0x30, 0x66, 0x1a, 0xbe, 0x3b, 0x1b, 0x11, 0x3c, 0x98, 0xaf, 0xd4, 0xbd,
  0x8a, 0xfd, 0x17, 0xbe, 0x49, 0x80, 0x8a, 0xbe, 0x12, 0xd2, 0xba, 0xbe,
  0xbe, 0x9b, 0x3c, 0xbd, 0xb6, 0x86, 0x1b, 0xbc, 0x09, 0xc3, 0x80, 0xbe,
  0x0d, 0xc2, 0x22, 0xbe, 0xa4, 0xd9, 0x2a, 0xbe, 0x67, 0x0d, 0x95, 0xbe,
  0x7d, 0x76, 0xad, 0xbe, 0x2e, 0x88, 0x76, 0xbe, 0x8e, 0xfd, 0x78, 0xbe,
  0xbf, 0x51, 0x65, 0xbe, 0x29, 0xa1, 0xb2, 0xbc, 0x32, 0x63, 0x91, 0x3e,
  0xf1, 0x10, 0x42, 0xbe, 0x3f, 0xd9, 0xf2, 0x3d, 0x87, 0xa5, 0x8d, 0xbe,
  0xac, 0xc7, 0x07, 0xbd, 0x8c, 0xa4, 0x9e, 0x3e, 0xa7, 0xed, 0xe4, 0xbd,
  0xf1, 0x4f, 0x94, 0xbe, 0x8a, 0xb6, 0x18, 0xbe, 0x6c, 0x34, 0x88, 0xbe,
  0xc4, 0x58, 0xe6, 0xbd, 0x1b, 0x4b, 0xa4, 0xbe, 0x6a, 0x4e, 0x61, 0xbe,
  0x0d, 0x81, 0x02, 0xbd, 0xd9, 0x69, 0x6c, 0x3d, 0xbd, 0xee, 0x58, 0x3e,
  0x37, 0xe8, 0x05, 0xbf, 0x1a, 0x0c, 0x11, 0x3f, 0x46, 0x71, 0xee, 0xbd,
  0x11, 0x11, 0x8f, 0x3a, 0xbd, 0x7b, 0x84, 0x3e, 0xf1, 0x10, 0x30, 0xbe,
  0xed, 0x57, 0x81, 0xbf, 0x09, 0x92, 0x6f, 0x3e, 0xb3, 0x11, 0x95, 0x3c,
  0x00, 0x08, 0x23, 0xbe, 0xa0, 0x09, 0x41, 0xbe, 0x14, 0x36, 0x80, 0xbe,
  0x94, 0xbb, 0x3d, 0xbe, 0x99, 0xfe, 0x89, 0x3f, 0xe9, 0x88, 0x20, 0x3f,
  0x62, 0xa6, 0x84, 0x3e, 0xe8, 0x9c, 0x3f, 0x3f, 0xa9, 0x14, 0x7e, 0x3e,
  0x55, 0x8f, 0x3e, 0xbf, 0x32, 0x49, 0x43, 0x3f, 0x57, 0xfa, 0x0d, 0xbe,
  0x86, 0x4c, 0x10, 0x3e, 0xb1, 0x1f, 0xd0, 0xbe, 0x2a, 0x94, 0x55, 0x3e,
  0x3e, 0x51, 0x33, 0xbf, 0x82, 0xb8, 0x27, 0xbe, 0x96, 0x10, 0xb2, 0xbd,
  0x9d, 0x07, 0x15, 0xbf, 0xd2, 0xac, 0x50, 0xbe, 0xe7, 0xd3, 0x83, 0x3e,
  0xc9, 0x3c, 0x9b, 0xbe, 0x94, 0x5a, 0x3b, 0x3e, 0x38, 0xd9, 0x2b, 0xbe,
  0x96, 0x04, 0x88, 0xbd, 0x10, 0xe8, 0x64, 0x3e, 0x00, 0x0e, 0x98, 0xbb,
  0x03, 0x06, 0x7f, 0x3e, 0x42, 0x39, 0x51, 0x3d, 0x8e, 0x50, 0x8c, 0xbc,
  0x77, 0xae, 0xe6, 0x3d, 0x5b, 0xb0, 0x79, 0xbe, 0x43, 0x02, 0x77, 0xbe,
  0x98, 0x52, 0x44, 0xbe, 0x33, 0xbf, 0x83, 0xbe, 0xe8, 0xd6, 0x36, 0x3e,
  0x11, 0xc0, 0x62, 0x3e, 0xe1, 0x34, 0xdb, 0xbc, 0xc9, 0x63, 0xf3, 0xbd,
  0xe3, 0xfc, 0x30, 0xbd, 0x11, 0x66, 0xb5, 0xbd, 0xf0, 0xa8, 0x0f, 0x3e,
  0xce, 0x24, 0x1a, 0xbd, 0x5c, 0x0e, 0x35, 0x3e, 0x87, 0x98, 0x3d, 0x3e,
  0x1d, 0xcd, 0xea, 0x3d, 0x07, 0x4f, 0x83, 0xbe, 0x68, 0xe2, 0xa7, 0x3e,
  0x05, 0xaa, 0x94, 0xbe, 0x3f, 0x8e, 0x29, 0xbd, 0x76, 0x40, 0xb6, 0x3d,
  0xe2, 0xa5, 0x32, 0xbd, 0x00, 0x60, 0x8a, 0x3d, 0x84, 0xce, 0x43, 0xbe,
  0x44, 0xb1, 0xa9, 0x3d, 0x82, 0xff, 0xe9, 0xbe, 0xe2, 0x35, 0x76, 0x3e,
  0x7a, 0x8a, 0x4a, 0x3d, 0x86, 0x6e, 0x88, 0xbe, 0x1a, 0xa9, 0xff, 0xbd,
  0xb5, 0x6b, 0xed, 0x3d, 0xe0, 0x86, 0xcf, 0xbd, 0xf1, 0xd9, 0x40, 0xbe,
  0xc0, 0x2d, 0xfd, 0x3d, 0x79, 0x64, 0x60, 0xbe, 0xa5, 0xda, 0x71, 0xbe,
  0x6c, 0xd6, 0x9d, 0x3e, 0x59, 0x84, 0xa6, 0xbb, 0x21, 0x80, 0x4d, 0xbe,
  0xf0, 0xaa, 0x82, 0x3d, 0x57, 0xcb, 0x9a, 0xbe, 0x0b, 0x7b, 0xc8, 0xbe,
  0xc0, 0x6b, 0x6e, 0x3e, 0xd3, 0xab, 0x8b, 0x3e, 0x0f, 0xe0, 0xd5, 0x3c,
  0xd8, 0x1e, 0x0b, 0xbe, 0x19, 0x76, 0x53, 0xbe, 0x1d, 0xf4, 0x4c, 0xbd,
  0x7b, 0x19, 0x2f, 0x3d, 0x8f, 0xe0, 0x03, 0xbb, 0x71, 0xa9, 0x76, 0x3e,
  0x07, 0x6e, 0x95, 0xbe, 0x09, 0x74, 0xd4, 0x3d, 0xe9, 0x7c, 0x9e, 0x3e,
  0x8e, 0xa3, 0x1c, 0x3d, 0x5c, 0x5b, 0xd5, 0xbd, 0xf4, 0x01, 0x22, 0xbe,
  0xfd, 0xb7, 0xb4, 0xbc, 0xf1, 0x60, 0x07, 0x3e, 0x17, 0xe9, 0xa1, 0x3e,
  0xdb, 0x63, 0xf4, 0xbd, 0x69, 0xbf, 0xa7, 0x3e, 0xca, 0x18, 0xb1, 0x3e,
  0x60, 0xe8, 0x7f, 0x3d, 0x5e, 0xb0, 0x61, 0x3d, 0x24, 0xef, 0x00, 0x3e,
  0x26, 0xc1, 0xf4, 0xbd, 0x42, 0xfd, 0x64, 0xbc, 0x75, 0x26, 0x17, 0xbe,
  0x7d, 0xc8, 0x32, 0x3c, 0xd4, 0x46, 0xc3, 0x3d, 0x23, 0x0b, 0x84, 0x3d,
  0x49, 0x78, 0xf8, 0xbc, 0x0c, 0x3c, 0xe5, 0x3d, 0x4b, 0x03, 0x20, 0xbe,
  0x2e, 0x05, 0x9b, 0xbd, 0xa9, 0x68, 0x80, 0xbe, 0xfc, 0x4d, 0x9c, 0xbd,
  0xd5, 0x3f, 0x01, 0xbd, 0x9c, 0xca, 0x5f, 0x3d, 0x42, 0x9d, 0x26, 0xbe,
  0x35, 0xdb, 0xae, 0xbd, 0x89, 0xd1, 0xc1, 0xbe, 0x8e, 0x50, 0xae, 0x3d,
  0x48, 0x05, 0x04, 0x3e, 0xe3, 0xa6, 0x78, 0x3e, 0x9f, 0x65, 0xba, 0x3e,
  0x36, 0x82, 0x6c, 0xbe, 0x87, 0x6e, 0x47, 0xbe, 0xa1, 0x52, 0x80, 0xbe,
  0xc7, 0x55, 0x8d, 0xbd, 0xb6, 0xc2, 0xbf, 0x3d, 0x48, 0xc8, 0xc5, 0x3e,
  0xd1, 0x7f, 0x57, 0x3e, 0xd4, 0x30, 0xab, 0x3e, 0x4a, 0x68, 0xb7, 0x3e,
  0x9c, 0x03, 0xa9, 0x3e, 0x90, 0xaa, 0xaa, 0x3e, 0xbf, 0x0a, 0x3b, 0xbe,
  0xdf, 0x7b, 0xa0, 0x3e, 0x9b, 0x10, 0x39, 0xbe, 0xc2, 0x0a, 0x85, 0xbe,
  0x39, 0xf8, 0x31, 0x3e, 0x4c, 0xe3, 0xac, 0x3d, 0xa0, 0xb9, 0x26, 0xbe,
  0x1e, 0x11, 0xa5, 0xbe, 0x06, 0xe4, 0xd5, 0x3d, 0xbd, 0xce, 0x39, 0x3e,
  0xa7, 0x45, 0x38, 0xbe, 0xe3, 0xf1, 0x9e, 0x3b, 0xdc, 0x85, 0x51, 0x3e,
  0xe0, 0x7c, 0xe3, 0x3d, 0x18, 0x55, 0xf2, 0xbe, 0x9a, 0x21, 0xc6, 0x3c,
  0x20, 0xb1, 0x03, 0x3f, 0x4d, 0x9b, 0x09, 0xbe, 0x2c, 0xe3, 0x03, 0xbe,
  0xc9, 0x07, 0x41, 0xbe, 0x97, 0xf2, 0xd9, 0x3d, 0x51, 0xa9, 0x8a, 0xbd,
  0xe6, 0x2c, 0x8b, 0xbd, 0x1d, 0xbd, 0xec, 0xbd, 0x33, 0x14, 0xc2, 0xbe,
  0x7e, 0x98, 0x34, 0xbd, 0x18, 0xa3, 0x83, 0x3e, 0xd1, 0x3b, 0x50, 0x3d,
  0xc9, 0x68, 0xf9, 0xbd, 0x61, 0xfb, 0xb6, 0x3e, 0x71, 0x8d, 0xa5, 0xbe,
  0x4a, 0x77, 0x71, 0x3e, 0x14, 0x9e, 0x45, 0xbd, 0x0f, 0xe6, 0x83, 0xbe,
  0x1e, 0xba, 0x9d, 0xbb, 0x61, 0x35, 0x0a, 0xbc, 0xd3, 0x35, 0xd8, 0xbc,
  0x82, 0xb9, 0x88, 0x3e, 0xa8, 0xb8, 0x72, 0xbe, 0x5f, 0x73, 0xb0, 0xbd,
  0xd5, 0xd5, 0xab, 0x3e, 0x71, 0xc8, 0x34, 0xbe, 0x47, 0xaf, 0xd7, 0x3d,
  0x22, 0xff, 0xff, 0xff, 0x10, 0x00, 0x00, 0x00, 0x04, 0x00, 0x00, 0x00,
  0x14, 0x00, 0x00, 0x00, 0x24, 0x00, 0x00, 0x00, 0x02, 0x00, 0x00, 0x00,
  0x10, 0x00, 0x00, 0x00, 0x24, 0x00, 0x00, 0x00, 0x0c, 0x00, 0x00, 0x00,
  0x73, 0x74, 0x64, 0x2e, 0x63, 0x6f, 0x6e, 0x73, 0x74, 0x61, 0x6e, 0x74,
  0x00, 0x00, 0x00, 0x00, 0xa8, 0xfe, 0xff, 0xff, 0x7a, 0xff, 0xff, 0xff,
  0x04, 0x00, 0x00, 0x00, 0x40, 0x00, 0x00, 0x00, 0x53, 0x65, 0x53, 0xbe,
  0xb8, 0x20, 0xa4, 0xbe, 0x80, 0x2c, 0x3b, 0x3e, 0x65, 0xed, 0x00, 0xbd,
  0x4f, 0x46, 0xe8, 0x3e, 0x07, 0xb7, 0x05, 0x3f, 0x52, 0xcb, 0x40, 0xbc,
  0xc6, 0xa5, 0x89, 0x3b, 0x2e, 0xcc, 0x0e, 0xbf, 0x7d, 0x2b, 0x29, 0x3f,
  0xc9, 0xd6, 0x76, 0xbe, 0xff, 0xce, 0x05, 0x3f, 0x82, 0xd3, 0x20, 0xbf,
  0x78, 0xc3, 0x31, 0xbd, 0x17, 0x16, 0x21, 0xbd, 0x16, 0x9f, 0x26, 0xbf,
  0xa6, 0xff, 0xff, 0xff, 0x10, 0x00, 0x00, 0x00, 0x03, 0x00, 0x00, 0x00,
  0x10, 0x00, 0x00, 0x00, 0x24, 0x00, 0x00, 0x00, 0x01, 0x00, 0x00, 0x00,
  0x10, 0x00, 0x00, 0x00, 0x0c, 0x00, 0x00, 0x00, 0x64, 0x65, 0x6e, 0x73,
  0x65, 0x5f, 0x32, 0x2f, 0x62, 0x69, 0x61, 0x73, 0x00, 0x00, 0x00, 0x00,
  0x04, 0x00, 0x06, 0x00, 0x04, 0x00, 0x00, 0x00, 0x00, 0x00, 0x06, 0x00,
  0x08, 0x00, 0x04, 0x00, 0x06, 0x00, 0x00, 0x00, 0x04, 0x00, 0x00, 0x00,
  0x0c, 0x00, 0x00, 0x00, 0xb3, 0x6d, 0x11, 0xbf, 0xa7, 0x19, 0x31, 0x3f,
  0x1c, 0xc1, 0x05, 0x3d, 0x00, 0x00, 0x0e, 0x00, 0x14, 0x00, 0x04, 0x00,
  0x00, 0x00, 0x08, 0x00, 0x0c, 0x00, 0x10, 0x00, 0x0e, 0x00, 0x00, 0x00,
  0x10, 0x00, 0x00, 0x00, 0x02, 0x00, 0x00, 0x00, 0x10, 0x00, 0x00, 0x00,
  0x20, 0x00, 0x00, 0x00, 0x01, 0x00, 0x00, 0x00, 0x03, 0x00, 0x00, 0x00,
  0x0c, 0x00, 0x00, 0x00, 0x64, 0x65, 0x6e, 0x73, 0x65, 0x5f, 0x33, 0x2f,
  0x62, 0x69, 0x61, 0x73, 0x00, 0x00, 0x00, 0x00, 0x90, 0xff, 0xff, 0xff,
  0x14, 0x00, 0x18, 0x00, 0x04, 0x00, 0x00, 0x00, 0x08, 0x00, 0x0c, 0x00,
  0x10, 0x00, 0x00, 0x00, 0x00, 0x00, 0x14, 0x00, 0x14, 0x00, 0x00, 0x00,
  0x14, 0x00, 0x00, 0x00, 0x01, 0x00, 0x00, 0x00, 0x18, 0x00, 0x00, 0x00,
  0x44, 0x00, 0x00, 0x00, 0x34, 0x00, 0x00, 0x00, 0x02, 0x00, 0x00, 0x00,
  0x01, 0x00, 0x00, 0x00, 0x24, 0x00, 0x00, 0x00, 0x1f, 0x00, 0x00, 0x00,
  0x73, 0x65, 0x72, 0x76, 0x69, 0x6e, 0x67, 0x5f, 0x64, 0x65, 0x66, 0x61,
  0x75, 0x6c, 0x74, 0x5f, 0x64, 0x65, 0x6e, 0x73, 0x65, 0x5f, 0x32, 0x5f,
  0x69, 0x6e, 0x70, 0x75, 0x74, 0x3a, 0x30, 0x00, 0x02, 0x00, 0x00, 0x00,
  0xff, 0xff, 0xff, 0xff, 0x24, 0x00, 0x00, 0x00, 0xfc, 0xff, 0xff, 0xff,
  0x04, 0x00, 0x04, 0x00, 0x04, 0x00, 0x00, 0x00
};
unsigned int models_model_no_quant_tflite_len = 3956;
