unsigned char models_model_no_quant_tflite[] = {
  0x1c, 0x00, 0x00, 0x00, 0x54, 0x46, 0x4c, 0x33, 0x14, 0x00, 0x20, 0x00,
  0x04, 0x00, 0x08, 0x00, 0x0c, 0x00, 0x10, 0x00, 0x14, 0x00, 0x00, 0x00,
  0x18, 0x00, 0x1c, 0x00, 0x14, 0x00, 0x00, 0x00, 0x03, 0x00, 0x00, 0x00,
  0x18, 0x00, 0x00, 0x00, 0x1c, 0x00, 0x00, 0x00, 0x28, 0x01, 0x00, 0x00,
  0x1c, 0x00, 0x00, 0x00, 0xd0, 0x00, 0x00, 0x00, 0x3c, 0x00, 0x00, 0x00,
  0x01, 0x00, 0x00, 0x00, 0x84, 0x02, 0x00, 0x00, 0x01, 0x00, 0x00, 0x00,
  0x30, 0x01, 0x00, 0x00, 0x09, 0x00, 0x00, 0x00, 0x6c, 0x0e, 0x00, 0x00,
  0x68, 0x0e, 0x00, 0x00, 0x98, 0x0d, 0x00, 0x00, 0x0c, 0x0d, 0x00, 0x00,
  0xc4, 0x03, 0x00, 0x00, 0xbc, 0x02, 0x00, 0x00, 0x54, 0x0e, 0x00, 0x00,
  0x50, 0x0e, 0x00, 0x00, 0xc8, 0x00, 0x00, 0x00, 0x01, 0x00, 0x00, 0x00,
  0x10, 0x00, 0x00, 0x00, 0x0c, 0x00, 0x14, 0x00, 0x10, 0x00, 0x0c, 0x00,
  0x08, 0x00, 0x04, 0x00, 0x0c, 0x00, 0x00, 0x00, 0x10, 0x00, 0x00, 0x00,
  0x18, 0x00, 0x00, 0x00, 0x28, 0x00, 0x00, 0x00, 0x2c, 0x00, 0x00, 0x00,
  0x05, 0x00, 0x00, 0x00, 0x73, 0x65, 0x72, 0x76, 0x65, 0x00, 0x00, 0x00,
  0x0f, 0x00, 0x00, 0x00, 0x73, 0x65, 0x72, 0x76, 0x69, 0x6e, 0x67, 0x5f,
  0x64, 0x65, 0x66, 0x61, 0x75, 0x6c, 0x74, 0x00, 0x01, 0x00, 0x00, 0x00,
  0x14, 0x00, 0x00, 0x00, 0x01, 0x00, 0x00, 0x00, 0x24, 0x00, 0x00, 0x00,
  0x08, 0x00, 0x0c, 0x00, 0x08, 0x00, 0x04, 0x00, 0x08, 0x00, 0x00, 0x00,
  0x06, 0x00, 0x00, 0x00, 0x04, 0x00, 0x00, 0x00, 0x07, 0x00, 0x00, 0x00,
  0x64, 0x65, 0x6e, 0x73, 0x65, 0x5f, 0x31, 0x00, 0x02, 0xf3, 0xff, 0xff,
  0x04, 0x00, 0x00, 0x00, 0x0b, 0x00, 0x00, 0x00, 0x64, 0x65, 0x6e, 0x73,
  0x65, 0x5f, 0x69, 0x6e, 0x70, 0x75, 0x74, 0x00, 0x01, 0x00, 0x00, 0x00,
  0x0c, 0x00, 0x00, 0x00, 0x08, 0x00, 0x0c, 0x00, 0x04, 0x00, 0x08, 0x00,
  0x08, 0x00, 0x00, 0x00, 0x08, 0x00, 0x00, 0x00, 0x08, 0x00, 0x00, 0x00,
  0x13, 0x00, 0x00, 0x00, 0x6d, 0x69, 0x6e, 0x5f, 0x72, 0x75, 0x6e, 0x74,
  0x69, 0x6d, 0x65, 0x5f, 0x76, 0x65, 0x72, 0x73, 0x69, 0x6f, 0x6e, 0x00,
  0x4e, 0xf3, 0xff, 0xff, 0x04, 0x00, 0x00, 0x00, 0x10, 0x00, 0x00, 0x00,
  0x31, 0x2e, 0x35, 0x2e, 0x30, 0x00, 0x00, 0x00, 0x00, 0x00, 0x00, 0x00,
  0x00, 0x00, 0x00, 0x00, 0x0f, 0x00, 0x00, 0x00, 0x4d, 0x4c, 0x49, 0x52,
  0x20, 0x43, 0x6f, 0x6e, 0x76, 0x65, 0x72, 0x74, 0x65, 0x64, 0x2e, 0x00,
  0x00, 0x00, 0x0e, 0x00, 0x18, 0x00, 0x04, 0x00, 0x08, 0x00, 0x0c, 0x00,
  0x10, 0x00, 0x14, 0x00, 0x0e, 0x00, 0x00, 0x00, 0x14, 0x00, 0x00, 0x00,
  0x30, 0x00, 0x00, 0x00, 0x34, 0x00, 0x00, 0x00, 0x38, 0x00, 0x00, 0x00,
  0x40, 0x00, 0x00, 0x00, 0x07, 0x00, 0x00, 0x00, 0xcc, 0x0c, 0x00, 0x00,
  0x80, 0x0c, 0x00, 0x00, 0x18, 0x0c, 0x00, 0x00, 0x90, 0x0b, 0x00, 0x00,
  0x48, 0x02, 0x00, 0x00, 0x2c, 0x01, 0x00, 0x00, 0x6c, 0x00, 0x00, 0x00,
  0x01, 0x00, 0x00, 0x00, 0x00, 0x00, 0x00, 0x00, 0x01, 0x00, 0x00, 0x00,
  0x06, 0x00, 0x00, 0x00, 0x02, 0x00, 0x00, 0x00, 0xb8, 0x00, 0x00, 0x00,
  0x1c, 0x00, 0x00, 0x00, 0x04, 0x00, 0x00, 0x00, 0x6d, 0x61, 0x69, 0x6e,
  0x00, 0x00, 0x0e, 0x00, 0x14, 0x00, 0x00, 0x00, 0x08, 0x00, 0x0c, 0x00,
  0x07, 0x00, 0x10, 0x00, 0x0e, 0x00, 0x00, 0x00, 0x00, 0x00, 0x00, 0x08,
  0x1c, 0x00, 0x00, 0x00, 0x10, 0x00, 0x00, 0x00, 0x04, 0x00, 0x00, 0x00,
  0x66, 0xff, 0xff, 0xff, 0x00, 0x00, 0x00, 0x01, 0x01, 0x00, 0x00, 0x00,
  0x06, 0x00, 0x00, 0x00, 0x03, 0x00, 0x00, 0x00, 0x05, 0x00, 0x00, 0x00,
  0x04, 0x00, 0x00, 0x00, 0x01, 0x00, 0x00, 0x00, 0xcc, 0xf3, 0xff, 0xff,
  0x14, 0x00, 0x00, 0x00, 0x07, 0x00, 0x00, 0x00, 0x18, 0x00, 0x00, 0x00,
  0x40, 0x00, 0x00, 0x00, 0x30, 0x00, 0x00, 0x00, 0x02, 0x00, 0x00, 0x00,
  0x01, 0x00, 0x00, 0x00, 0x03, 0x00, 0x00, 0x00, 0x19, 0x00, 0x00, 0x00,
  0x53, 0x74, 0x61, 0x74, 0x65, 0x66, 0x75, 0x6c, 0x50, 0x61, 0x72, 0x74,
  0x69, 0x74, 0x69, 0x6f, 0x6e, 0x65, 0x64, 0x43, 0x61, 0x6c, 0x6c, 0x3a,
  0x30, 0x00, 0x00, 0x00, 0x02, 0x00, 0x00, 0x00, 0xff, 0xff, 0xff, 0xff,
  0x03, 0x00, 0x00, 0x00, 0x88, 0xf4, 0xff, 0xff, 0x00, 0x00, 0x0e, 0x00,
  0x16, 0x00, 0x00, 0x00, 0x08, 0x00, 0x0c, 0x00, 0x07, 0x00, 0x10, 0x00,
  0x0e, 0x00, 0x00, 0x00, 0x00, 0x00, 0x00, 0x08, 0x24, 0x00, 0x00, 0x00,
  0x18, 0x00, 0x00, 0x00, 0x0c, 0x00, 0x00, 0x00, 0x00, 0x00, 0x06, 0x00,
  0x08, 0x00, 0x07, 0x00, 0x06, 0x00, 0x00, 0x00, 0x00, 0x00, 0x00, 0x01,
  0x01, 0x00, 0x00, 0x00, 0x05, 0x00, 0x00, 0x00, 0x03, 0x00, 0x00, 0x00,
  0x00, 0x00, 0x00, 0x00, 0x03, 0x00, 0x00, 0x00, 0x02, 0x00, 0x00, 0x00,
  0x0c, 0x00, 0x10, 0x00, 0x0b, 0x00, 0x00, 0x00, 0x0c, 0x00, 0x04, 0x00,
  0x0c, 0x00, 0x00, 0x00, 0x09, 0x00, 0x00, 0x00, 0x00, 0x00, 0x00, 0x09,
  0x01, 0x00, 0x00, 0x00, 0x88, 0xf4, 0xff, 0xff, 0x14, 0x00, 0x00, 0x00,
  0x06, 0x00, 0x00, 0x00, 0x18, 0x00, 0x00, 0x00, 0x38, 0x00, 0x00, 0x00,
  0x28, 0x00, 0x00, 0x00, 0x02, 0x00, 0x00, 0x00, 0x01, 0x00, 0x00, 0x00,
  0x10, 0x00, 0x00, 0x00, 0x13, 0x00, 0x00, 0x00, 0x74, 0x66, 0x6c, 0x2e,
  0x66, 0x75, 0x6c, 0x6c, 0x79, 0x5f, 0x63, 0x6f, 0x6e, 0x6e, 0x65, 0x63,
  0x74, 0x65, 0x64, 0x00, 0x02, 0x00, 0x00, 0x00, 0xff, 0xff, 0xff, 0xff,
  0x10, 0x00, 0x00, 0x00, 0x64, 0xf4, 0xff, 0xff, 0x36, 0xf5, 0xff, 0xff,
  0x04, 0x00, 0x00, 0x00, 0xc0, 0x00, 0x00, 0x00, 0xcd, 0xbb, 0x2b, 0xbd,
  0x85, 0x70, 0x01, 0x3f, 0x74, 0x28, 0x93, 0xbd, 0xd7, 0x11, 0x8b, 0x3e,
  0x7e, 0x3a, 0xba, 0x3b, 0xbe, 0x74, 0xfb, 0xbe, 0x13, 0x2f, 0x1f, 0x3c,
  0x3f, 0x39, 0xf0, 0x3e, 0x4c, 0xfc, 0x55, 0x3e, 0x44, 0xef, 0x01, 0xbf,
  0x78, 0xea, 0xb4, 0x3e, 0xd5, 0x8f, 0xf6, 0x3e, 0xb5, 0x10, 0x0b, 0x3f,
  0xc3, 0x54, 0xd6, 0x3c, 0xf4, 0xa7, 0x62, 0xbd, 0x46, 0x9b, 0xdf, 0x3d,
  0xc2, 0xb6, 0x3c, 0xbd, 0xb5, 0x37, 0x71, 0x3e, 0x10, 0x9e, 0xe8, 0x3d,
  0x0d, 0x68, 0xc0, 0xbe, 0x4e, 0x37, 0x83, 0x3d, 0x93, 0x93, 0x23, 0x3e,
  0x04, 0xb6, 0x45, 0x3d, 0x97, 0xb7, 0xfa, 0xbe, 0x5a, 0x14, 0x6e, 0xbe,
  0x65, 0xd9, 0x0c, 0x3f, 0x77, 0x97, 0x4b, 0x3e, 0x8c, 0x94, 0xcf, 0x3e,
  0x58, 0x3a, 0xfd, 0xbe, 0x37, 0xae, 0xcb, 0xbd, 0xd4, 0xe5, 0xf1, 0xbd,
  0xfe, 0x88, 0x9d, 0xbe, 0x96, 0x97, 0xb3, 0xbd, 0x47, 0x1c, 0x45, 0xbe,
  0x20, 0x0e, 0x62, 0xbd, 0xce, 0xa3, 0x44, 0x3d, 0x6b, 0x99, 0x78, 0xbe,
  0x54, 0xd8, 0xdd, 0x3e, 0xa6, 0x1e, 0x8a, 0xbe, 0x38, 0x7e, 0x0b, 0x3f,
  0xd0, 0x17, 0xaa, 0x3e, 0xa1, 0x2d, 0xcd, 0x3e, 0x8d, 0x14, 0xc0, 0xbe,
  0xb3, 0xe6, 0x00, 0x3f, 0xcb, 0x3a, 0xb1, 0xbd, 0x0b, 0x14, 0xa4, 0xbe,
  0x60, 0x97, 0x9a, 0xbe, 0x59, 0x22, 0xb6, 0x3e, 0xe2, 0xf5, 0xff, 0xff,
  0x10, 0x00, 0x00, 0x00, 0x05, 0x00, 0x00, 0x00, 0x14, 0x00, 0x00, 0x00,
  0x24, 0x00, 0x00, 0x00, 0x02, 0x00, 0x00, 0x00, 0x03, 0x00, 0x00, 0x00,
  0x10, 0x00, 0x00, 0x00, 0x0d, 0x00, 0x00, 0x00, 0x73, 0x74, 0x64, 0x2e,
  0x63, 0x6f, 0x6e, 0x73, 0x74, 0x61, 0x6e, 0x74, 0x31, 0x00, 0x00, 0x00,
  0x68, 0xf5, 0xff, 0xff, 0x3a, 0xf6, 0xff, 0xff, 0x04, 0x00, 0x00, 0x00,
  0x00, 0x09, 0x00, 0x00, 0x6a, 0x78, 0x56, 0xbe, 0xf5, 0x23, 0xb5, 0xbd,
  0x7e, 0x3b, 0x82, 0xbd, 0x1d, 0x56, 0x97, 0x3d, 0x0c, 0x8c, 0xee, 0x3d,
  0xf8, 0x78, 0x83, 0xbe, 0xbc, 0x84, 0x53, 0x3d, 0xc6, 0x73, 0x1d, 0x3d,
  0x19, 0x3d, 0x56, 0x3e, 0x2a, 0x89, 0x77, 0x3e, 0x5f, 0xea, 0x77, 0x3e,
  0x52, 0x90, 0x9f, 0xbe, 0xae, 0xa3, 0x46, 0xbe, 0xb5, 0xb3, 0x47, 0xbc,
  0x77, 0x16, 0x8c, 0x3e, 0xb0, 0x92, 0xfd, 0x3c, 0x9f, 0xbb, 0x42, 0xbe,
  0xc9, 0x4d, 0x52, 0x3d, 0x47, 0xe8, 0xe6, 0xbd, 0xa6, 0x54, 0xa6, 0xbe,
  0x6c, 0xc9, 0x12, 0xbe, 0xb2, 0x68, 0x86, 0xbe, 0x3d, 0x6d, 0x82, 0xbe,
  0x20, 0x19, 0xf1, 0xbd, 0x35, 0x76, 0x30, 0x3b, 0xab, 0xe0, 0x67, 0xbe,
  0x9e, 0xbd, 0x38, 0xbe, 0x43, 0x0d, 0x9c, 0xba, 0x91, 0x46, 0x7a, 0x3e,
  0x97, 0x79, 0xd5, 0x3d, 0x5a, 0x5a, 0x1a, 0xbe, 0x14, 0x95, 0x79, 0x3e,
  0xc9, 0x48, 0x8a, 0xbe, 0x73, 0x27, 0x14, 0x3e, 0x4a, 0x24, 0xd0, 0x3d,
  0x15, 0x7a, 0x03, 0x3e, 0x7f, 0x0f, 0x9e, 0x3e, 0xc6, 0x44, 0x5c, 0xbe,
  0x3f, 0xf1, 0x51, 0x3d, 0xfc, 0xa1, 0xc9, 0x3d, 0xb4, 0x85, 0x87, 0x3c,
  0x3a, 0xa7, 0x19, 0x3e, 0xd4, 0x93, 0x99, 0x3d, 0x6d, 0x8b, 0xea, 0x3d,
  0xcd, 0x1c, 0x30, 0xbe, 0x83, 0xa5, 0x8d, 0xbe, 0x3b, 0x40, 0x57, 0x3e,
  0xb0, 0x61, 0x06, 0xbd, 0xab, 0xff, 0xa6, 0x3e, 0x42, 0x9f, 0xb0, 0xbe,
  0x28, 0x0d, 0xa0, 0x3e, 0x9e, 0xda, 0x0b, 0x3d, 0x88, 0x75, 0xff, 0x3d,
  0x17, 0x79, 0x7f, 0xbe, 0x87, 0x2e, 0x31, 0xbe, 0x6e, 0x36, 0x21, 0xbc,
  0x72, 0xb2, 0x78, 0x3e, 0xb4, 0x07, 0x9c, 0xbe, 0xe3, 0x1a, 0x86, 0x3c,
  0x5c, 0x0b, 0x60, 0xbe, 0x41, 0x50, 0x39, 0x3e, 0x2a, 0xb1, 0xbd, 0x3e,
  0x7c, 0x5b, 0x74, 0xbd, 0x19, 0x0c, 0x44, 0xbd, 0x9a, 0x7e, 0x28, 0x3e,
  0x29, 0xb4, 0x40, 0xbd, 0x62, 0x15, 0x91, 0xbd, 0xd9, 0x27, 0x66, 0xbd,
  0xe6, 0x33, 0x7a, 0xbe, 0x7f, 0x65, 0x0b, 0xbe, 0x19, 0x2f, 0x4b, 0xbc,
  0x0b, 0x73, 0xc4, 0xbd, 0x4f, 0x16, 0xca, 0x3d, 0xe0, 0xa1, 0x68, 0x3e,
  0xc3, 0x28, 0x5a, 0x3c, 0x0e, 0x12, 0x92, 0x3c, 0x06, 0xca, 0x7f, 0xbe,
  0x77, 0xf8, 0x15, 0xbe, 0x1a, 0xa3, 0x5d, 0xbe, 0xe3, 0x50, 0x56, 0xbd,
  0x1e, 0x02, 0x1d, 0x3e, 0x07, 0x85, 0x00, 0xbe, 0x43, 0x1b, 0x92, 0xbe,
  0x84, 0xeb, 0x34, 0xbe, 0x5c, 0x83, 0xe8, 0xbc, 0xdc, 0xe7, 0x4c, 0xbe,
  0x61, 0x8d, 0xa9, 0xbe, 0xff, 0x51, 0xb0, 0x3d, 0xfb, 0x89, 0x53, 0x3e,
  0x30, 0x5e, 0x86, 0x3e, 0x02, 0x6d, 0xd3, 0x3d, 0x2a, 0x3c, 0x9f, 0x3e,
  0xe1, 0xea, 0x19, 0xbe, 0x49, 0xe9, 0xc3, 0xbd, 0xd1, 0xbf, 0x13, 0xbc,
  0xb4, 0x9e, 0x38, 0x3e, 0x52, 0x83, 0x8c, 0xbe, 0x59, 0x21, 0x9e, 0xbe,
  0xc7, 0xff, 0xe9, 0xb9, 0x39, 0xf8, 0x8a, 0xbe, 0xd0, 0x5e, 0x8f, 0x3e,
  0x65, 0x79, 0x6f, 0x3e, 0x79, 0xed, 0xf9, 0xbc, 0xa3, 0x63, 0x82, 0x3e,
  0xb4, 0x3b, 0x8c, 0xbe, 0xea, 0xb1, 0xb0, 0x3d, 0x27, 0x6b, 0x85, 0xbe,
  0x53, 0x8a, 0x8c, 0x3e, 0x48, 0xb9, 0x79, 0xbd, 0x02, 0xf1, 0x85, 0x3e,
  0xf3, 0x88, 0x1e, 0xbd, 0xe1, 0x67, 0xa4, 0xbe, 0x47, 0xbf, 0xc8, 0xbd,
  0xe9, 0x11, 0x8a, 0x3e, 0x08, 0x05, 0x7a, 0xbe, 0xe6, 0xfb, 0x78, 0x3e,
  0x55, 0x50, 0x6c, 0x3e, 0x67, 0x1b, 0x61, 0x3e, 0x5b, 0x6d, 0x6e, 0xbd,
  0xdc, 0x46, 0x3a, 0x3e, 0xd7, 0x90, 0x13, 0x3d, 0xbd, 0x44, 0x33, 0x3e,
  0x65, 0x2a, 0x53, 0x3e, 0x8a, 0x3d, 0x3e, 0xbe, 0x02, 0xd8, 0x91, 0xbe,
  0xc5, 0x13, 0x0e, 0xbe, 0x0f, 0xeb, 0x01, 0x3e, 0x92, 0x74, 0x81, 0xbe,
  0xb4, 0x06, 0x3e, 0x3e, 0x58, 0x0c, 0xa2, 0xbe, 0x64, 0x33, 0x34, 0xbe,
  0x9f, 0x96, 0x8b, 0x3e, 0xe7, 0x8d, 0x3c, 0xbe, 0xf0, 0x67, 0x18, 0x3e,
  0x03, 0x28, 0xda, 0xbd, 0xee, 0xc7, 0x41, 0xbe, 0xba, 0x0b, 0x30, 0x3e,
  0xe4, 0x01, 0x02, 0x3e, 0x78, 0xf0, 0x31, 0x3e, 0xde, 0x3f, 0x38, 0xbe,
  0xeb, 0x21, 0x35, 0xbe, 0x4d, 0x76, 0x52, 0x3e, 0x36, 0x25, 0x0a, 0x3d,
  0xe3, 0x10, 0x7e, 0x3e, 0x31, 0x56, 0xf7, 0xbd, 0xa0, 0x94, 0x1a, 0x3e,
  0xbf, 0x6c, 0x40, 0xbe, 0xd4, 0x89, 0x12, 0x3e, 0x37, 0x73, 0xc9, 0x3d,
  0xc4, 0xc6, 0x2d, 0x3e, 0x12, 0xeb, 0x05, 0xbc, 0x9e, 0x61, 0x16, 0xbe,
  0x56, 0x5c, 0x1c, 0xbd, 0x50, 0x70, 0x2c, 0x3e, 0x4b, 0x29, 0x84, 0xbd,
  0xc0, 0xf2, 0x40, 0xbe, 0xf3, 0x0b, 0x85, 0xbe, 0xd6, 0x40, 0x04, 0xbe,
  0x24, 0x83, 0x2e, 0xbe, 0xff, 0x2d, 0x6e, 0x3e, 0x50, 0x3e, 0xe9, 0x3d,
  0xdb, 0x48, 0x6d, 0xbe, 0x53, 0x1f, 0x06, 0x3e, 0x03, 0xba, 0x85, 0xbe,
  0x4a, 0xd0, 0x81, 0xbe, 0xca, 0x80, 0x36, 0xbe, 0x81, 0x67, 0x4a, 0x3e,
  0x12, 0xb2, 0xb7, 0xbd, 0xc8, 0x60, 0x91, 0x3e, 0x1a, 0x01, 0x25, 0xbe,
  0xc5, 0x26, 0x0c, 0xbe, 0xe0, 0xcc, 0x63, 0xbe, 0xab, 0x76, 0xa0, 0x3e,
  0x62, 0x6a, 0xb9, 0xbd, 0x10, 0xdd, 0x92, 0x3e, 0xf2, 0x14, 0xc6, 0xbe,
  0xf6, 0xe1, 0xf9, 0xbd, 0x21, 0x03, 0xed, 0x3c, 0x7e, 0x99, 0xfc, 0x3c,
  0xb8, 0x00, 0xe0, 0x3d, 0xbb, 0x01, 0x85, 0x3d, 0x93, 0x60, 0x75, 0xbe,
  0x31, 0xe2, 0x6c, 0x3e, 0x3e, 0x17, 0x0f, 0xbe, 0x53, 0x5d, 0xcb, 0xbd,
  0xb1, 0x98, 0x67, 0xbe, 0x3c, 0x31, 0x0c, 0xbe, 0x3b, 0x36, 0xe3, 0xbd,
  0x24, 0x13, 0x93, 0xbd, 0x46, 0xe0, 0x07, 0xbe, 0x08, 0x1d, 0x97, 0x3e,
  0xda, 0x8d, 0xa8, 0x3c, 0xf0, 0x41, 0x6a, 0xbc, 0x25, 0x89, 0x39, 0x3e,
  0x4a, 0xa3, 0x66, 0xbc, 0x15, 0x56, 0x99, 0xbe, 0x97, 0x1f, 0x00, 0x3c,
  0x8d, 0xa0, 0xa7, 0xbe, 0xb9, 0xa8, 0x12, 0xbe, 0xa2, 0x4b, 0x5f, 0x3e,
  0x19, 0x16, 0xe0, 0xbc, 0x11, 0x5d, 0xa8, 0xbe, 0x39, 0xb1, 0xa0, 0xbd,
  0xf4, 0xbb, 0x73, 0x3e, 0xd1, 0x5a, 0x44, 0xbe, 0x47, 0x5e, 0x5a, 0x3d,
  0xaa, 0xec, 0xb4, 0xbd, 0xd4, 0xd7, 0xb5, 0x3c, 0x52, 0x0a, 0xe1, 0xbc,
  0x51, 0x39, 0x16, 0xbe, 0x83, 0x31, 0x02, 0xbe, 0xa8, 0xc0, 0x5a, 0xbe,
  0xf0, 0x41, 0x37, 0x3e, 0x48, 0x86, 0x98, 0xbd, 0xff, 0x33, 0x83, 0x3d,
  0xc4, 0xeb, 0x77, 0xbe, 0xdc, 0xba, 0xbc, 0x3e, 0x4e, 0x39, 0x87, 0xbe,
  0x37, 0x03, 0x98, 0x3e, 0xae, 0x74, 0xfd, 0x3b, 0xfa, 0x83, 0xa2, 0xbe,
  0x78, 0x36, 0x1f, 0x3e, 0x03, 0xe2, 0xf7, 0x3d, 0xd3, 0x65, 0x06, 0xbe,
  0xde, 0x3a, 0x2a, 0x3e, 0x31, 0x87, 0x71, 0x3e, 0x87, 0x78, 0xc1, 0x3d,
  0xa0, 0xf6, 0xbb, 0x3d, 0xe7, 0x92, 0xb0, 0x3d, 0xdd, 0xef, 0x55, 0x3d,
  0xd4, 0xc6, 0x89, 0x3e, 0xde, 0xd3, 0x07, 0x3d, 0x5a, 0x44, 0xc0, 0xbe,
  0x10, 0xcf, 0x5e, 0x3e, 0xc6, 0x12, 0x88, 0x3e, 0x07, 0xac, 0xeb, 0x3d,
  0x9b, 0x22, 0x45, 0xbe, 0x5a, 0xf6, 0xf8, 0x3d, 0xfe, 0xc0, 0xfb, 0x3d,
  0xea, 0xac, 0xb4, 0xbe, 0x19, 0x5f, 0x6c, 0x3e, 0xc5, 0xe7, 0x81, 0x3e,
  0x50, 0x93, 0x51, 0xbd, 0x31, 0xb9, 0x8a, 0xbe, 0x96, 0x9d, 0x49, 0xbd,
  0x29, 0xb8, 0x5e, 0xbe, 0x7c, 0x28, 0x94, 0x3d, 0x40, 0x8a, 0x09, 0x3e,
  0xa9, 0x77, 0x8e, 0x3e, 0xae, 0xfa, 0x4e, 0xbe, 0xea, 0xbc, 0x01, 0xbd,
  0xb1, 0x76, 0xa3, 0x3e, 0x7e, 0xc2, 0x8c, 0xbd, 0x69, 0xed, 0x03, 0xbe,
  0x88, 0x77, 0xea, 0x3d, 0x40, 0xc7, 0x16, 0xbc, 0x15, 0xa9, 0x24, 0x3c,
  0xf7, 0x79, 0x8a, 0x3e, 0xfb, 0x88, 0x83, 0x3e, 0xaa, 0xac, 0xb0, 0xbd,
  0x98, 0x24, 0x67, 0xbe, 0xf9, 0x2b, 0x9f, 0xbe, 0x3a, 0x0e, 0x42, 0xbd,
  0xad, 0x95, 0x06, 0xbe, 0xa6, 0x32, 0x57, 0x3b, 0x8a, 0xf2, 0x13, 0x3c,
  0xb4, 0xfd, 0x94, 0x3d, 0x00, 0x4f, 0x28, 0x3b, 0xed, 0xae, 0x60, 0x3e,
  0x19, 0x7f, 0xb2, 0x3d, 0x40, 0xe0, 0x72, 0xbe, 0xb9, 0x3a, 0x7a, 0xbe,
  0x26, 0x0c, 0xaf, 0x3c, 0x76, 0xbc, 0xab, 0xbd, 0x7b, 0x35, 0x9e, 0xbe,
  0x68, 0x76, 0x5d, 0x3e, 0xb4, 0x4a, 0x76, 0x3e, 0x22, 0xfb, 0x11, 0xbe,
  0xc0, 0x2d, 0xdd, 0x3b, 0x40, 0x07, 0xac, 0x3e, 0x02, 0x33, 0x1e, 0x3e,
  0x97, 0x07, 0x1e, 0xbe, 0xc8, 0x9a, 0x4e, 0x3d, 0x0e, 0xe6, 0x79, 0x3e,
  0xd9, 0x2f, 0xc1, 0xbd, 0x5d, 0xab, 0x2b, 0xbe, 0xbf, 0x65, 0xc9, 0xbd,
  0x5d, 0xaa, 0x2a, 0x3e, 0x7d, 0x63, 0xe7, 0x3d, 0xed, 0xfa, 0xd4, 0xbd,
  0xfb, 0xb1, 0x2f, 0xbe, 0x27, 0x56, 0xac, 0xbe, 0x5a, 0xec, 0x5b, 0x3e,
  0x77, 0xfc, 0x1b, 0xbe, 0xb3, 0x29, 0x99, 0xbe, 0x1b, 0x00, 0xa0, 0xbe,
  0xe9, 0x7a, 0xa8, 0xbc, 0x2e, 0x26, 0xaa, 0xbe, 0xfb, 0x64, 0x4f, 0xbd,
  0xb1, 0xd1, 0x3f, 0x3e, 0x3f, 0x70, 0x9a, 0x3e, 0xdc, 0xc1, 0x9f, 0xbe,
  0xfa, 0x41, 0x17, 0xbc, 0x41, 0x55, 0x97, 0xbe, 0x14, 0x88, 0x08, 0x3e,
  0x2a, 0x3a, 0x44, 0xbc, 0x0c, 0xde, 0x5e, 0xbe, 0xa1, 0xda, 0x1c, 0xbd,
  0x5d, 0xc3, 0x5c, 0xbe, 0xcb, 0x69, 0x80, 0x3e, 0x39, 0xa0, 0x5b, 0xbd,
  0x27, 0x7f, 0x93, 0xbc, 0xac, 0x2e, 0xa4, 0xbd, 0xbb, 0x0c, 0x69, 0x3d,
  0x30, 0xce, 0xb2, 0x3c, 0xb2, 0x1c, 0xf9, 0xbd, 0xe9, 0xf1, 0x48, 0xbe,
  0x15, 0x46, 0x8d, 0x3d, 0x59, 0xc7, 0xa2, 0xbe, 0x01, 0x68, 0xce, 0x3d,
  0xcf, 0xf2, 0x51, 0xbe, 0x55, 0x6c, 0x2f, 0xbd, 0x77, 0x8c, 0x66, 0xbe,
  0xe7, 0x73, 0x7c, 0x3e, 0x40, 0xdf, 0x2f, 0x3d, 0x9a, 0x01, 0xac, 0x3e,
  0xbd, 0x99, 0x1e, 0xbe, 0xc3, 0x09, 0xa5, 0x3e, 0x52, 0x55, 0x4d, 0x3e,
  0x3b, 0x7d, 0xee, 0x3d, 0xd5, 0x7d, 0xa6, 0xbe, 0xe9, 0x3c, 0xc0, 0xbd,
  0x0b, 0xa8, 0x44, 0x3e, 0x6f, 0xe4, 0xc5, 0x3d, 0xa7, 0xfb, 0xd8, 0xbb,
  0x91, 0xe3, 0x20, 0xbd, 0xe3, 0xb0, 0xdb, 0x3d, 0x93, 0x23, 0x7a, 0x3d,
  0xb2, 0x05, 0x2f, 0x3e, 0x1e, 0xa4, 0x56, 0x3e, 0xbe, 0xac, 0x6b, 0xbc,
  0x21, 0x82, 0x15, 0xbe, 0xf2, 0x14, 0xc8, 0xbe, 0xe5, 0xa5, 0x6b, 0x3d,
  0x97, 0x8d, 0x96, 0x3e, 0x8c, 0xca, 0x4a, 0x3e, 0x4e, 0x5d, 0xf5, 0x3d,
  0x11, 0x96, 0x1c, 0xbe, 0x8a, 0xb9, 0x85, 0xbe, 0xc7, 0x28, 0x60, 0x3e,
  0x2f, 0x27, 0xa8, 0x3e, 0xbc, 0xa8, 0x0e, 0x3e, 0x58, 0xec, 0xa7, 0xbd,
  0xbe, 0xaf, 0x50, 0xbe, 0x77, 0x8e, 0xea, 0x3d, 0xae, 0x95, 0xa5, 0xbd,
  0x2e, 0x42, 0xb1, 0x3d, 0xda, 0x01, 0x0e, 0xbe, 0x1e, 0x9a, 0x63, 0x3e,
  0xb2, 0x6d, 0x15, 0xbe, 0x0b, 0x73, 0xff, 0x3d, 0x05, 0xc7, 0x90, 0xbd,
  0x5b, 0x48, 0xc3, 0xbd, 0xe9, 0x07, 0x53, 0xbd, 0x44, 0x24, 0x07, 0x3e,
  0xd9, 0x95, 0x14, 0xbe, 0xc0, 0x6a, 0xde, 0xbd, 0xda, 0x5e, 0x62, 0xbe,
  0xc9, 0x2b, 0x45, 0xbe, 0x2d, 0x0d, 0x17, 0x3d, 0x00, 0x25, 0x22, 0x3e,
  0x84, 0xb2, 0xa0, 0xbe, 0x8b, 0xdb, 0xaf, 0xbd, 0x38, 0x11, 0xb8, 0xbd,
  0x13, 0xcd, 0x13, 0xbe, 0x37, 0xc9, 0x8d, 0xbe, 0x37, 0xc6, 0x79, 0xbd,
  0xed, 0x3d, 0x93, 0xbe, 0x6f, 0x0a, 0x4f, 0xbe, 0xf5, 0xea, 0xe0, 0xbd,
  0x6b, 0x4b, 0x75, 0x3e, 0x6a, 0x3d, 0x51, 0xbe, 0x32, 0xf9, 0x09, 0x3e,
  0x50, 0xa7, 0xa8, 0xbe, 0x2b, 0x20, 0xc0, 0x3c, 0xed, 0x39, 0x86, 0x3e,
  0xb7, 0x13, 0x03, 0xbd, 0xd7, 0x39, 0x57, 0xbe, 0xa6, 0xf5, 0xc8, 0xbc,
  0xe3, 0x3c, 0x9e, 0xbe, 0x46, 0x3a, 0x18, 0xbe, 0xb6, 0xc9, 0xaf, 0xbe,
  0xb5, 0xc2, 0x70, 0xbe, 0xe6, 0x9c, 0x6f, 0xbd, 0x34, 0x63, 0x0e, 0x3d,
  0xa9, 0xce, 0x45, 0x3e, 0xe0, 0x5b, 0xec, 0x3c, 0x0d, 0x77, 0xbd, 0xbd,
  0x7e, 0xd8, 0x77, 0xbe, 0x83, 0x7f, 0xa2, 0x3e, 0xf8, 0x23, 0x72, 0x3e,
  0x54, 0x91, 0x95, 0xbe, 0xd7, 0xc4, 0xb0, 0xbe, 0xd8, 0x43, 0x41, 0xbd,
  0xf9, 0x74, 0x85, 0x3c, 0x3e, 0x8b, 0x99, 0x3e, 0x77, 0x46, 0x70, 0x3d,
  0xfb, 0xd8, 0x8c, 0xbe, 0x4e, 0x74, 0x00, 0x3d, 0x35, 0xfb, 0xc9, 0x3e,
  0x58, 0xbd, 0xc8, 0x3e, 0x5b, 0x6c, 0xa1, 0x3e, 0xa9, 0xe6, 0xef, 0x3d,
  0x97, 0x0e, 0x4f, 0x3e, 0xee, 0x87, 0xf5, 0x3d, 0x85, 0xc4, 0x82, 0xbd,
  0xef, 0xc4, 0x9f, 0xbd, 0xb0, 0x8f, 0x86, 0x3e, 0x1f, 0x51, 0xec, 0xbc,
  0x11, 0x2c, 0x4b, 0x3e, 0xfc, 0x0f, 0xc1, 0xbc, 0x2c, 0x93, 0x01, 0x3e,
  0x14, 0x2d, 0xc0, 0x3e, 0x97, 0x2d, 0xf6, 0x3c, 0xfc, 0xbc, 0xba, 0x3e,
  0x12, 0x1a, 0x80, 0x3e, 0x56, 0x4e, 0x9f, 0xbe, 0x17, 0x05, 0x0b, 0x3e,
  0x78, 0x88, 0x6d, 0xbe, 0x2f, 0x91, 0xc2, 0xbd, 0x63, 0xf8, 0x43, 0x3e,
  0x85, 0x21, 0x8f, 0xbd, 0xb2, 0x1d, 0x79, 0x3e, 0xfc, 0x66, 0x27, 0x3d,
  0xf8, 0xcd, 0x8a, 0xbd, 0x88, 0x75, 0x8d, 0x3c, 0xb1, 0x67, 0x8e, 0xbe,
  0x81, 0xc2, 0x78, 0xbe, 0x38, 0x49, 0x99, 0xbe, 0x89, 0xb7, 0x87, 0xbd,
  0x57, 0x7a, 0xf0, 0x3d, 0x8d, 0xe7, 0xfe, 0x3d, 0x8d, 0x1c, 0x4d, 0xbc,
  0x0a, 0x59, 0xec, 0xbd, 0x99, 0x24, 0x90, 0xbd, 0xaa, 0xb8, 0x7b, 0xbd,
  0x00, 0x93, 0x92, 0x3d, 0x59, 0xc9, 0xe8, 0xbd, 0x57, 0x22, 0x5d, 0x3e,
  0xb0, 0x4f, 0x54, 0x3e, 0xff, 0x71, 0xf4, 0x3d, 0xc6, 0x06, 0xaa, 0xbe,
  0xc0, 0xea, 0x8b, 0x3e, 0x66, 0x46, 0xa3, 0xbe, 0x6e, 0x54, 0xbe, 0xbd,
  0x95, 0x8b, 0x9a, 0x3d, 0x0a, 0x1a, 0xc0, 0xbd, 0xae, 0x40, 0x83, 0x3d,
  0x73, 0x61, 0x65, 0xbe, 0x9e, 0x7a, 0x79, 0x3d, 0x13, 0x22, 0xc6, 0xbe,
  0x9f, 0x82, 0x8b, 0x3e, 0xae, 0x1b, 0xbe, 0x3c, 0xac, 0x73, 0x95, 0xbe,
  0x44, 0x0e, 0x21, 0xbe, 0xc7, 0x21, 0xb0, 0x3d, 0xcc, 0x6c, 0x0d, 0xbe,
  0x00, 0x3b, 0x3d, 0xbe, 0xfa, 0xef, 0xde, 0x3d, 0x56, 0xb9, 0xec, 0x3b,
  0xc0, 0x6e, 0x4c, 0xbe, 0x85, 0xa3, 0x93, 0x3e, 0xe6, 0xb3, 0x75, 0x3d,
  0x04, 0x90, 0x58, 0xbe, 0x42, 0x4f, 0xa7, 0xbb, 0xde, 0x39, 0x67, 0xbe,
  0x72, 0x4a, 0xaa, 0xbe, 0x11, 0x4c, 0x4f, 0x3e, 0x37, 0x2c, 0x79, 0x3e,
  0x8d, 0x8b, 0x7a, 0xbc, 0xb3, 0x4a, 0x22, 0xbe, 0x13, 0xd9, 0x6a, 0xbe,
  0x02, 0xe9, 0xc9, 0xbd, 0xaf, 0x07, 0x05, 0xbc, 0xba, 0xc7, 0xfb, 0xbc,
  0x4d, 0x0b, 0x52, 0x3e, 0x2c, 0x6b, 0x91, 0xbe, 0x8c, 0x16, 0x2f, 0x3c,
  0xb2, 0xdc, 0x70, 0x3e, 0xda, 0xdf, 0xd7, 0x3c, 0x5c, 0x68, 0x11, 0xbe,
  0xb4, 0xe1, 0x3d, 0xbe, 0xd6, 0x3a, 0x61, 0xbd, 0x3b, 0x6d, 0x9d, 0x3d,
  0xbd, 0xfd, 0x7f, 0x3e, 0x1b, 0xfd, 0x11, 0xbe, 0x11, 0x30, 0x78, 0x3e,
  0x5f, 0x32, 0xa2, 0x3e, 0x4d, 0x3d, 0x6e, 0x3d, 0x74, 0xac, 0x5b, 0x3d,
  0x73, 0x0d, 0x00, 0x3e, 0x55, 0xa4, 0x03, 0xbe, 0x53, 0x05, 0xcf, 0xbc,
  0xdc, 0x72, 0x16, 0xbe, 0xe6, 0x62, 0x3c, 0x3d, 0xd7, 0x4c, 0x65, 0x3e,
  0x5c, 0x68, 0xde, 0x3d, 0xb5, 0x44, 0x57, 0xbd, 0x99, 0xd0, 0x31, 0x3e,
  0xdb, 0x60, 0x58, 0xbe, 0x9b, 0x69, 0xd4, 0xbd, 0xcf, 0xb2, 0x45, 0xbe,
  0x02, 0x12, 0x1f, 0x3c, 0x95, 0x7e, 0x0b, 0xbd, 0xbf, 0x6a, 0x89, 0x3d,
  0x85, 0xc1, 0x75, 0xbe, 0xe9, 0x4c, 0xb4, 0xbd, 0xdc, 0x96, 0xc5, 0xbe,
  0x37, 0xa2, 0x59, 0x3d, 0xeb, 0x60, 0xd4, 0x3d, 0x56, 0xdf, 0x70, 0x3e,
  0x3e, 0xe2, 0x96, 0x3e, 0x1a, 0xdb, 0x63, 0xbe, 0x29, 0xa2, 0x91, 0xbe,
  0x3c, 0x37, 0xa7, 0xbe, 0x2a, 0xa1, 0xa2, 0xbd, 0x16, 0x40, 0x5d, 0x3d,
  0x28, 0x95, 0xb1, 0x3e, 0x53, 0xed, 0x43, 0x3e, 0x4c, 0xc1, 0x90, 0x3e,
  0x4c, 0xb9, 0x97, 0x3e, 0x5c, 0xad, 0xa0, 0x3e, 0xaa, 0x41, 0x77, 0x3e,
  0xef, 0xba, 0x77, 0xbe, 0x4b, 0xa5, 0x97, 0x3e, 0xcf, 0xf5, 0x49, 0xbe,
  0x1f, 0xc1, 0x8d, 0xbe, 0x55, 0x67, 0x1a, 0x3e, 0xb5, 0xb2, 0x6e, 0x3d,
  0x6e, 0xc2, 0x3d, 0xbe, 0xc3, 0x36, 0xb2, 0xbe, 0xbd, 0xf3, 0xb8, 0x3d,
  0xc2, 0x64, 0x06, 0x3d, 0x00, 0x2b, 0xb0, 0xbe, 0x88, 0xd1, 0x0b, 0xbe,
  0xd3, 0x1d, 0x72, 0x3e, 0xfd, 0x8f, 0x72, 0xbd, 0xd4, 0x16, 0x77, 0xbd,
  0x3c, 0xe0, 0x98, 0xbe, 0x0c, 0xeb, 0x88, 0x3e, 0x62, 0x7e, 0x5b, 0xbe,
  0xc0, 0xc3, 0xa7, 0xbd, 0x92, 0x11, 0x70, 0xbe, 0x77, 0xd8, 0x7b, 0x3e,
  0x53, 0x34, 0x7d, 0xbe, 0x07, 0xde, 0x64, 0xbe, 0x25, 0x3d, 0x2b, 0xbd,
  0xae, 0xa0, 0xa2, 0xbe, 0x03, 0xca, 0xf5, 0xbd, 0x0a, 0x4d, 0x8c, 0x3e,
  0x41, 0xca, 0xe0, 0x3c, 0x13, 0xc5, 0x2e, 0xbe, 0x1a, 0xd1, 0x98, 0x3e,
  0x12, 0xff, 0x99, 0xbe, 0x9f, 0xcf, 0x28, 0x3e, 0x62, 0x67, 0xff, 0x3d,
  0x84, 0x7a, 0x94, 0xbe, 0xc9, 0x19, 0x57, 0x3c, 0x72, 0xe6, 0x2f, 0x3e,
  0x0e, 0x9d, 0x48, 0x3d, 0xd9, 0xff, 0x6a, 0x3e, 0x4b, 0xab, 0x8c, 0xbe,
  0xf6, 0x13, 0x14, 0xbe, 0x39, 0xf8, 0x92, 0x3e, 0xc9, 0x15, 0x70, 0xbe,
  0xda, 0x97, 0xe8, 0x3d, 0x26, 0xff, 0xff, 0xff, 0x10, 0x00, 0x00, 0x00,
  0x04, 0x00, 0x00, 0x00, 0x14, 0x00, 0x00, 0x00, 0x24, 0x00, 0x00, 0x00,
  0x02, 0x00, 0x00, 0x00, 0x10, 0x00, 0x00, 0x00, 0x24, 0x00, 0x00, 0x00,
  0x0c, 0x00, 0x00, 0x00, 0x73, 0x74, 0x64, 0x2e, 0x63, 0x6f, 0x6e, 0x73,
  0x74, 0x61, 0x6e, 0x74, 0x00, 0x00, 0x00, 0x00, 0xac, 0xfe, 0xff, 0xff,
  0x7e, 0xff, 0xff, 0xff, 0x04, 0x00, 0x00, 0x00, 0x40, 0x00, 0x00, 0x00,
  0x13, 0x37, 0x13, 0xbd, 0xeb, 0xb8, 0xc8, 0xbc, 0x99, 0x4f, 0xdc, 0xbc,
  0x8c, 0xa3, 0x45, 0x3c, 0xbb, 0x44, 0x9b, 0xbc, 0x17, 0x65, 0x72, 0x3d,
  0x56, 0x46, 0x8e, 0x3b, 0x53, 0xd8, 0xc9, 0x3c, 0x81, 0xa4, 0xd6, 0xbc,
  0x79, 0x61, 0x6b, 0x3d, 0x77, 0x3f, 0x15, 0xbd, 0xd2, 0xd7, 0x83, 0x3d,
  0x96, 0x84, 0x82, 0xbd, 0x5a, 0xca, 0x3d, 0xbd, 0x1c, 0xcd, 0x40, 0xbd,
  0x47, 0x4e, 0x42, 0x3c, 0xaa, 0xff, 0xff, 0xff, 0x10, 0x00, 0x00, 0x00,
  0x03, 0x00, 0x00, 0x00, 0x10, 0x00, 0x00, 0x00, 0x20, 0x00, 0x00, 0x00,
  0x01, 0x00, 0x00, 0x00, 0x10, 0x00, 0x00, 0x00, 0x0a, 0x00, 0x00, 0x00,
  0x64, 0x65, 0x6e, 0x73, 0x65, 0x2f, 0x62, 0x69, 0x61, 0x73, 0x00, 0x00,
  0x04, 0x00, 0x06, 0x00, 0x04, 0x00, 0x00, 0x00, 0x00, 0x00, 0x06, 0x00,
  0x08, 0x00, 0x04, 0x00, 0x06, 0x00, 0x00, 0x00, 0x04, 0x00, 0x00, 0x00,
  0x0c, 0x00, 0x00, 0x00, 0x15, 0xbf, 0x5c, 0xbd, 0x92, 0xef, 0x76, 0x3d,
  0xb2, 0x43, 0x3d, 0x3d, 0x00, 0x00, 0x0e, 0x00, 0x14, 0x00, 0x04, 0x00,
  0x00, 0x00, 0x08, 0x00, 0x0c, 0x00, 0x10, 0x00, 0x0e, 0x00, 0x00, 0x00,
  0x10, 0x00, 0x00, 0x00, 0x02, 0x00, 0x00, 0x00, 0x10, 0x00, 0x00, 0x00,
  0x20, 0x00, 0x00, 0x00, 0x01, 0x00, 0x00, 0x00, 0x03, 0x00, 0x00, 0x00,
  0x0c, 0x00, 0x00, 0x00, 0x64, 0x65, 0x6e, 0x73, 0x65, 0x5f, 0x31, 0x2f,
  0x62, 0x69, 0x61, 0x73, 0x00, 0x00, 0x00, 0x00, 0x90, 0xff, 0xff, 0xff,
  0x14, 0x00, 0x18, 0x00, 0x04, 0x00, 0x00, 0x00, 0x08, 0x00, 0x0c, 0x00,
  0x10, 0x00, 0x00, 0x00, 0x00, 0x00, 0x14, 0x00, 0x14, 0x00, 0x00, 0x00,
  0x14, 0x00, 0x00, 0x00, 0x01, 0x00, 0x00, 0x00, 0x18, 0x00, 0x00, 0x00,
  0x44, 0x00, 0x00, 0x00, 0x34, 0x00, 0x00, 0x00, 0x02, 0x00, 0x00, 0x00,
  0x01, 0x00, 0x00, 0x00, 0x24, 0x00, 0x00, 0x00, 0x1d, 0x00, 0x00, 0x00,
  0x73, 0x65, 0x72, 0x76, 0x69, 0x6e, 0x67, 0x5f, 0x64, 0x65, 0x66, 0x61,
  0x75, 0x6c, 0x74, 0x5f, 0x64, 0x65, 0x6e, 0x73, 0x65, 0x5f, 0x69, 0x6e,
  0x70, 0x75, 0x74, 0x3a, 0x30, 0x00, 0x00, 0x00, 0x02, 0x00, 0x00, 0x00,
  0xff, 0xff, 0xff, 0xff, 0x24, 0x00, 0x00, 0x00, 0xfc, 0xff, 0xff, 0xff,
  0x04, 0x00, 0x04, 0x00, 0x04, 0x00, 0x00, 0x00
};
unsigned int models_model_no_quant_tflite_len = 3776;
