unsigned char models_model_no_quant_tflite[] = {
  0x1c, 0x00, 0x00, 0x00, 0x54, 0x46, 0x4c, 0x33, 0x14, 0x00, 0x20, 0x00,
  0x04, 0x00, 0x08, 0x00, 0x0c, 0x00, 0x10, 0x00, 0x14, 0x00, 0x00, 0x00,
  0x18, 0x00, 0x1c, 0x00, 0x14, 0x00, 0x00, 0x00, 0x03, 0x00, 0x00, 0x00,
  0x18, 0x00, 0x00, 0x00, 0x1c, 0x00, 0x00, 0x00, 0x28, 0x01, 0x00, 0x00,
  0x1c, 0x00, 0x00, 0x00, 0xd0, 0x00, 0x00, 0x00, 0x3c, 0x00, 0x00, 0x00,
  0x01, 0x00, 0x00, 0x00, 0x84, 0x02, 0x00, 0x00, 0x01, 0x00, 0x00, 0x00,
  0x30, 0x01, 0x00, 0x00, 0x09, 0x00, 0x00, 0x00, 0x6c, 0x0e, 0x00, 0x00,
  0x68, 0x0e, 0x00, 0x00, 0x98, 0x0d, 0x00, 0x00, 0x0c, 0x0d, 0x00, 0x00,
  0xc4, 0x03, 0x00, 0x00, 0xbc, 0x02, 0x00, 0x00, 0x54, 0x0e, 0x00, 0x00,
  0x50, 0x0e, 0x00, 0x00, 0xc8, 0x00, 0x00, 0x00, 0x01, 0x00, 0x00, 0x00,
  0x10, 0x00, 0x00, 0x00, 0x0c, 0x00, 0x14, 0x00, 0x10, 0x00, 0x0c, 0x00,
  0x08, 0x00, 0x04, 0x00, 0x0c, 0x00, 0x00, 0x00, 0x10, 0x00, 0x00, 0x00,
  0x18, 0x00, 0x00, 0x00, 0x28, 0x00, 0x00, 0x00, 0x2c, 0x00, 0x00, 0x00,
  0x05, 0x00, 0x00, 0x00, 0x73, 0x65, 0x72, 0x76, 0x65, 0x00, 0x00, 0x00,
  0x0f, 0x00, 0x00, 0x00, 0x73, 0x65, 0x72, 0x76, 0x69, 0x6e, 0x67, 0x5f,
  0x64, 0x65, 0x66, 0x61, 0x75, 0x6c, 0x74, 0x00, 0x01, 0x00, 0x00, 0x00,
  0x14, 0x00, 0x00, 0x00, 0x01, 0x00, 0x00, 0x00, 0x24, 0x00, 0x00, 0x00,
  0x08, 0x00, 0x0c, 0x00, 0x08, 0x00, 0x04, 0x00, 0x08, 0x00, 0x00, 0x00,
  0x06, 0x00, 0x00, 0x00, 0x04, 0x00, 0x00, 0x00, 0x07, 0x00, 0x00, 0x00,
  0x64, 0x65, 0x6e, 0x73, 0x65, 0x5f, 0x31, 0x00, 0x02, 0xf3, 0xff, 0xff,
  0x04, 0x00, 0x00, 0x00, 0x0b, 0x00, 0x00, 0x00, 0x64, 0x65, 0x6e, 0x73,
  0x65, 0x5f, 0x69, 0x6e, 0x70, 0x75, 0x74, 0x00, 0x01, 0x00, 0x00, 0x00,
  0x0c, 0x00, 0x00, 0x00, 0x08, 0x00, 0x0c, 0x00, 0x04, 0x00, 0x08, 0x00,
  0x08, 0x00, 0x00, 0x00, 0x08, 0x00, 0x00, 0x00, 0x08, 0x00, 0x00, 0x00,
  0x13, 0x00, 0x00, 0x00, 0x6d, 0x69, 0x6e, 0x5f, 0x72, 0x75, 0x6e, 0x74,
  0x69, 0x6d, 0x65, 0x5f, 0x76, 0x65, 0x72, 0x73, 0x69, 0x6f, 0x6e, 0x00,
  0x4e, 0xf3, 0xff, 0xff, 0x04, 0x00, 0x00, 0x00, 0x10, 0x00, 0x00, 0x00,
  0x31, 0x2e, 0x35, 0x2e, 0x30, 0x00, 0x00, 0x00, 0x00, 0x00, 0x00, 0x00,
  0x00, 0x00, 0x00, 0x00, 0x0f, 0x00, 0x00, 0x00, 0x4d, 0x4c, 0x49, 0x52,
  0x20, 0x43, 0x6f, 0x6e, 0x76, 0x65, 0x72, 0x74, 0x65, 0x64, 0x2e, 0x00,
  0x00, 0x00, 0x0e, 0x00, 0x18, 0x00, 0x04, 0x00, 0x08, 0x00, 0x0c, 0x00,
  0x10, 0x00, 0x14, 0x00, 0x0e, 0x00, 0x00, 0x00, 0x14, 0x00, 0x00, 0x00,
  0x30, 0x00, 0x00, 0x00, 0x34, 0x00, 0x00, 0x00, 0x38, 0x00, 0x00, 0x00,
  0x40, 0x00, 0x00, 0x00, 0x07, 0x00, 0x00, 0x00, 0xcc, 0x0c, 0x00, 0x00,
  0x80, 0x0c, 0x00, 0x00, 0x18, 0x0c, 0x00, 0x00, 0x90, 0x0b, 0x00, 0x00,
  0x48, 0x02, 0x00, 0x00, 0x2c, 0x01, 0x00, 0x00, 0x6c, 0x00, 0x00, 0x00,
  0x01, 0x00, 0x00, 0x00, 0x00, 0x00, 0x00, 0x00, 0x01, 0x00, 0x00, 0x00,
  0x06, 0x00, 0x00, 0x00, 0x02, 0x00, 0x00, 0x00, 0xb8, 0x00, 0x00, 0x00,
  0x1c, 0x00, 0x00, 0x00, 0x04, 0x00, 0x00, 0x00, 0x6d, 0x61, 0x69, 0x6e,
  0x00, 0x00, 0x0e, 0x00, 0x14, 0x00, 0x00, 0x00, 0x08, 0x00, 0x0c, 0x00,
  0x07, 0x00, 0x10, 0x00, 0x0e, 0x00, 0x00, 0x00, 0x00, 0x00, 0x00, 0x08,
  0x1c, 0x00, 0x00, 0x00, 0x10, 0x00, 0x00, 0x00, 0x04, 0x00, 0x00, 0x00,
  0x66, 0xff, 0xff, 0xff, 0x00, 0x00, 0x00, 0x01, 0x01, 0x00, 0x00, 0x00,
  0x06, 0x00, 0x00, 0x00, 0x03, 0x00, 0x00, 0x00, 0x05, 0x00, 0x00, 0x00,
  0x04, 0x00, 0x00, 0x00, 0x01, 0x00, 0x00, 0x00, 0xcc, 0xf3, 0xff, 0xff,
  0x14, 0x00, 0x00, 0x00, 0x07, 0x00, 0x00, 0x00, 0x18, 0x00, 0x00, 0x00,
  0x40, 0x00, 0x00, 0x00, 0x30, 0x00, 0x00, 0x00, 0x02, 0x00, 0x00, 0x00,
  0x01, 0x00, 0x00, 0x00, 0x03, 0x00, 0x00, 0x00, 0x19, 0x00, 0x00, 0x00,
  0x53, 0x74, 0x61, 0x74, 0x65, 0x66, 0x75, 0x6c, 0x50, 0x61, 0x72, 0x74,
  0x69, 0x74, 0x69, 0x6f, 0x6e, 0x65, 0x64, 0x43, 0x61, 0x6c, 0x6c, 0x3a,
  0x30, 0x00, 0x00, 0x00, 0x02, 0x00, 0x00, 0x00, 0xff, 0xff, 0xff, 0xff,
  0x03, 0x00, 0x00, 0x00, 0x88, 0xf4, 0xff, 0xff, 0x00, 0x00, 0x0e, 0x00,
  0x16, 0x00, 0x00, 0x00, 0x08, 0x00, 0x0c, 0x00, 0x07, 0x00, 0x10, 0x00,
  0x0e, 0x00, 0x00, 0x00, 0x00, 0x00, 0x00, 0x08, 0x24, 0x00, 0x00, 0x00,
  0x18, 0x00, 0x00, 0x00, 0x0c, 0x00, 0x00, 0x00, 0x00, 0x00, 0x06, 0x00,
  0x08, 0x00, 0x07, 0x00, 0x06, 0x00, 0x00, 0x00, 0x00, 0x00, 0x00, 0x01,
  0x01, 0x00, 0x00, 0x00, 0x05, 0x00, 0x00, 0x00, 0x03, 0x00, 0x00, 0x00,
  0x00, 0x00, 0x00, 0x00, 0x03, 0x00, 0x00, 0x00, 0x02, 0x00, 0x00, 0x00,
  0x0c, 0x00, 0x10, 0x00, 0x0b, 0x00, 0x00, 0x00, 0x0c, 0x00, 0x04, 0x00,
  0x0c, 0x00, 0x00, 0x00, 0x09, 0x00, 0x00, 0x00, 0x00, 0x00, 0x00, 0x09,
  0x01, 0x00, 0x00, 0x00, 0x88, 0xf4, 0xff, 0xff, 0x14, 0x00, 0x00, 0x00,
  0x06, 0x00, 0x00, 0x00, 0x18, 0x00, 0x00, 0x00, 0x38, 0x00, 0x00, 0x00,
  0x28, 0x00, 0x00, 0x00, 0x02, 0x00, 0x00, 0x00, 0x01, 0x00, 0x00, 0x00,
  0x10, 0x00, 0x00, 0x00, 0x13, 0x00, 0x00, 0x00, 0x74, 0x66, 0x6c, 0x2e,
  0x66, 0x75, 0x6c, 0x6c, 0x79, 0x5f, 0x63, 0x6f, 0x6e, 0x6e, 0x65, 0x63,
  0x74, 0x65, 0x64, 0x00, 0x02, 0x00, 0x00, 0x00, 0xff, 0xff, 0xff, 0xff,
  0x10, 0x00, 0x00, 0x00, 0x64, 0xf4, 0xff, 0xff, 0x36, 0xf5, 0xff, 0xff,
  0x04, 0x00, 0x00, 0x00, 0xc0, 0x00, 0x00, 0x00, 0xcd, 0xbb, 0x2b, 0xbd,
  0x85, 0x70, 0x01, 0x3f, 0x74, 0x28, 0x93, 0xbd, 0xd7, 0x11, 0x8b, 0x3e,
  0x7e, 0x3a, 0xba, 0x3b, 0xbe, 0x74, 0xfb, 0xbe, 0x13, 0x2f, 0x1f, 0x3c,
  0x3f, 0x39, 0xf0, 0x3e, 0x4c, 0xfc, 0x55, 0x3e, 0x44, 0xef, 0x01, 0xbf,
  0x78, 0xea, 0xb4, 0x3e, 0xd5, 0x8f, 0xf6, 0x3e, 0xb5, 0x10, 0x0b, 0x3f,
  0xc3, 0x54, 0xd6, 0x3c, 0xf4, 0xa7, 0x62, 0xbd, 0x46, 0x9b, 0xdf, 0x3d,
  0xc2, 0xb6, 0x3c, 0xbd, 0xb5, 0x37, 0x71, 0x3e, 0x10, 0x9e, 0xe8, 0x3d,
  0x48, 0x3c, 0xc0, 0xbe, 0x4e, 0x37, 0x83, 0x3d, 0x93, 0x93, 0x23, 0x3e,
  0xa6, 0x3c, 0x4a, 0x3d, 0x97, 0xb7, 0xfa, 0xbe, 0x5a, 0x14, 0x6e, 0xbe,
  0x65, 0xd9, 0x0c, 0x3f, 0x77, 0x97, 0x4b, 0x3e, 0x8c, 0x94, 0xcf, 0x3e,
  0x58, 0x3a, 0xfd, 0xbe, 0x37, 0xae, 0xcb, 0xbd, 0xd4, 0xe5, 0xf1, 0xbd,
  0xfe, 0x88, 0x9d, 0xbe, 0x17, 0x2e, 0xb6, 0xbd, 0x7a, 0xb1, 0x49, 0xbe,
  0xd6, 0xe7, 0xf0, 0xbd, 0xbf, 0xdd, 0x44, 0x3d, 0x8e, 0x17, 0x7b, 0xbe,
  0xa6, 0x05, 0xde, 0x3e, 0xf5, 0x17, 0x8a, 0xbe, 0xa9, 0x87, 0x0b, 0x3f,
  0x73, 0x7f, 0xab, 0x3e, 0xc2, 0xbd, 0xce, 0x3e, 0x20, 0x97, 0xc0, 0xbe,
  0xa5, 0x7e, 0xf8, 0x3e, 0x9b, 0x99, 0xb2, 0xbd, 0x55, 0xe5, 0xa5, 0xbe,
  0x08, 0x83, 0x99, 0xbe, 0x87, 0xd5, 0xb5, 0x3e, 0xe2, 0xf5, 0xff, 0xff,
  0x10, 0x00, 0x00, 0x00, 0x05, 0x00, 0x00, 0x00, 0x14, 0x00, 0x00, 0x00,
  0x24, 0x00, 0x00, 0x00, 0x02, 0x00, 0x00, 0x00, 0x03, 0x00, 0x00, 0x00,
  0x10, 0x00, 0x00, 0x00, 0x0d, 0x00, 0x00, 0x00, 0x73, 0x74, 0x64, 0x2e,
  0x63, 0x6f, 0x6e, 0x73, 0x74, 0x61, 0x6e, 0x74, 0x31, 0x00, 0x00, 0x00,
  0x68, 0xf5, 0xff, 0xff, 0x3a, 0xf6, 0xff, 0xff, 0x04, 0x00, 0x00, 0x00,
  0x00, 0x09, 0x00, 0x00, 0x73, 0x9c, 0x55, 0xbe, 0xea, 0x2e, 0xbb, 0xbd,
  0x88, 0x72, 0x94, 0xbd, 0x18, 0x18, 0xa7, 0x3d, 0x5a, 0x49, 0xe7, 0x3d,
  0x25, 0x3f, 0x84, 0xbe, 0xf2, 0xc4, 0x53, 0x3d, 0xa6, 0xaf, 0x17, 0x3d,
  0x73, 0xc0, 0x5b, 0x3e, 0xc4, 0x22, 0x7e, 0x3e, 0xe0, 0xaa, 0x7d, 0x3e,
  0x7b, 0x35, 0xa0, 0xbe, 0x95, 0xaf, 0x44, 0xbe, 0xde, 0x28, 0x5d, 0xbc,
  0xe4, 0xd5, 0x8a, 0x3e, 0xef, 0x3e, 0xfb, 0x3c, 0xc1, 0x31, 0x45, 0xbe,
  0xbd, 0xd8, 0x4d, 0x3d, 0x2c, 0xb8, 0xe1, 0xbd, 0x80, 0x25, 0xa7, 0xbe,
  0xbe, 0x29, 0x19, 0xbe, 0xab, 0x2a, 0x86, 0xbe, 0x12, 0x5d, 0x82, 0xbe,
  0x97, 0xe4, 0xf1, 0xbd, 0xf1, 0x2e, 0xb0, 0x3b, 0xfa, 0x23, 0x66, 0xbe,
  0x71, 0x2c, 0x34, 0xbe, 0x81, 0x26, 0xca, 0x3b, 0xdb, 0xb7, 0x80, 0x3e,
  0x65, 0x10, 0xd6, 0x3d, 0xfb, 0x4a, 0x1d, 0xbe, 0xd4, 0xac, 0x76, 0x3e,
  0x7d, 0xdb, 0x8b, 0xbe, 0x5d, 0x33, 0x11, 0x3e, 0xfa, 0x5c, 0xca, 0x3d,
  0xdc, 0xc7, 0x01, 0x3e, 0x63, 0x8d, 0x9f, 0x3e, 0x0b, 0x43, 0x63, 0xbe,
  0x04, 0xcb, 0x2f, 0x3d, 0xd0, 0x1c, 0xcc, 0x3d, 0xac, 0x95, 0x58, 0x3c,
  0x97, 0x27, 0x19, 0x3e, 0xbf, 0x82, 0x9d, 0x3d, 0xce, 0x71, 0xe2, 0x3d,
  0x33, 0x31, 0x2e, 0xbe, 0xcc, 0x65, 0x88, 0xbe, 0x2f, 0x0e, 0x5b, 0x3e,
  0x3d, 0x5f, 0x07, 0xbd, 0xdc, 0xa3, 0xa8, 0x3e, 0x10, 0x8f, 0xb1, 0xbe,
  0x93, 0x85, 0xa0, 0x3e, 0x21, 0x0b, 0x08, 0x3d, 0x94, 0x64, 0xf4, 0x3d,
  0x60, 0x19, 0x80, 0xbe, 0x31, 0x26, 0x2c, 0xbe, 0x2c, 0xed, 0x6f, 0xbc,
  0xf7, 0x53, 0x74, 0x3e, 0x8e, 0xe6, 0x9b, 0xbe, 0xf8, 0xa0, 0x86, 0x3c,
  0xcb, 0x1c, 0x60, 0xbe, 0x45, 0x0e, 0x42, 0x3e, 0x96, 0xb3, 0xbd, 0x3e,
  0x51, 0x63, 0x6c, 0xbd, 0xc8, 0xa4, 0x1a, 0xbd, 0x8c, 0xe5, 0x2d, 0x3e,
  0xd6, 0x61, 0x3e, 0xbd, 0x66, 0x15, 0x91, 0xbd, 0x62, 0xc3, 0x66, 0xbd,
  0x22, 0x5b, 0x7a, 0xbe, 0xb1, 0x6e, 0x0b, 0xbe, 0x2b, 0x12, 0x4d, 0xbc,
  0xfc, 0x43, 0xc4, 0xbd, 0xd7, 0x65, 0xcb, 0x3d, 0x5b, 0xf5, 0xe2, 0x3d,
  0x46, 0x27, 0x2f, 0xbd, 0xf5, 0x56, 0x59, 0xbd, 0xbe, 0x24, 0x9a, 0xbe,
  0x98, 0x8e, 0x50, 0xbe, 0xf6, 0x94, 0x35, 0xbe, 0xf7, 0x7d, 0x23, 0xbe,
  0x5d, 0xe5, 0xcb, 0x3d, 0x0a, 0xe0, 0xed, 0xbd, 0x78, 0x58, 0xa7, 0xbe,
  0xe2, 0x79, 0x6c, 0xbe, 0x50, 0xa4, 0xa0, 0xbc, 0x07, 0xa8, 0x75, 0xbe,
  0xf1, 0x48, 0xba, 0xbe, 0x07, 0x36, 0x4f, 0x3c, 0xd5, 0xe7, 0x9a, 0x3d,
  0x38, 0x81, 0x49, 0x3e, 0x1e, 0x47, 0x38, 0x3e, 0x96, 0x97, 0x23, 0x3e,
  0xc5, 0xf6, 0x55, 0xbe, 0xfb, 0xea, 0x15, 0xbe, 0x48, 0x5b, 0x1e, 0xbd,
  0x3b, 0x25, 0x24, 0x3e, 0x71, 0x86, 0x7e, 0xbe, 0xc3, 0x1d, 0xcc, 0xbe,
  0x47, 0x3b, 0x7b, 0xbd, 0xab, 0xc4, 0x81, 0xbe, 0xaf, 0xee, 0x84, 0x3e,
  0x46, 0x7b, 0xb7, 0x3e, 0xf1, 0x38, 0x2e, 0xbd, 0xae, 0x51, 0x73, 0x3e,
  0x0a, 0xe2, 0x93, 0xbe, 0x3b, 0xe4, 0x92, 0x3d, 0x6f, 0x23, 0x8f, 0xbe,
  0xdb, 0xe8, 0x8e, 0x3e, 0x95, 0xc1, 0x79, 0xbd, 0x3f, 0xed, 0x85, 0x3e,
  0x91, 0x2f, 0x1d, 0xbd, 0x5f, 0x05, 0x9f, 0xbe, 0x0f, 0x40, 0xc8, 0xbd,
  0x4b, 0x23, 0x8a, 0x3e, 0xab, 0x11, 0x7a, 0xbe, 0xbe, 0xc2, 0x77, 0x3e,
  0x55, 0x50, 0x6c, 0x3e, 0x16, 0xa2, 0x60, 0x3e, 0x5a, 0x46, 0x6e, 0xbd,
  0xeb, 0x69, 0x3a, 0x3e, 0xef, 0x77, 0x13, 0x3d, 0x54, 0x3c, 0x33, 0x3e,
  0x65, 0x2a, 0x53, 0x3e, 0x2a, 0xd2, 0x3d, 0xbe, 0x85, 0xc0, 0x91, 0xbe,
  0xd2, 0xee, 0x0d, 0xbe, 0xf3, 0xe6, 0x01, 0x3e, 0x50, 0x77, 0x81, 0xbe,
  0x5d, 0x05, 0x3e, 0x3e, 0xb0, 0x0c, 0xa2, 0xbe, 0x2c, 0x2f, 0x34, 0xbe,
  0x15, 0xa2, 0x8b, 0x3e, 0xe7, 0x8d, 0x3c, 0xbe, 0xd6, 0x36, 0x18, 0x3e,
  0x53, 0x7f, 0xdc, 0xbd, 0xee, 0xc7, 0x41, 0xbe, 0xed, 0xa5, 0x2f, 0x3e,
  0xf0, 0x39, 0x02, 0x3e, 0xaa, 0xc2, 0x31, 0x3e, 0xfe, 0x65, 0x38, 0xbe,
  0x68, 0x43, 0x35, 0xbe, 0x21, 0x57, 0x52, 0x3e, 0x03, 0xa2, 0x09, 0x3d,
  0xd3, 0xe9, 0x7d, 0x3e, 0xf9, 0x84, 0xf0, 0xbd, 0xfc, 0x77, 0x13, 0x3e,
  0x2e, 0xea, 0x58, 0xbe, 0x28, 0x19, 0x17, 0x3e, 0x5e, 0xaa, 0xac, 0x3d,
  0x21, 0xf8, 0x2c, 0x3e, 0x77, 0x2d, 0xbc, 0xbb, 0x98, 0x03, 0x2b, 0xbe,
  0xf1, 0xf1, 0xfd, 0xbc, 0x30, 0xb6, 0x39, 0x3e, 0x7b, 0x8f, 0x6f, 0xbd,
  0xbd, 0x22, 0x41, 0xbe, 0x9f, 0x43, 0x81, 0xbe, 0x60, 0x0c, 0x06, 0xbe,
  0xb8, 0x60, 0x2b, 0xbe, 0xdb, 0x5f, 0x6c, 0x3e, 0xc9, 0x70, 0xdc, 0x3d,
  0x90, 0xd1, 0x6e, 0xbe, 0xd9, 0x04, 0x0c, 0x3e, 0xdc, 0x3a, 0x88, 0xbe,
  0x11, 0x24, 0x8d, 0xbe, 0x4f, 0x44, 0x36, 0xbe, 0x86, 0xcb, 0x4a, 0x3e,
  0xd8, 0xa2, 0xb6, 0xbd, 0x2b, 0x24, 0x96, 0x3e, 0xc8, 0xec, 0x24, 0xbe,
  0x94, 0x98, 0x02, 0xbe, 0x10, 0x90, 0x52, 0xbe, 0xac, 0x7f, 0xad, 0x3e,
  0x8f, 0xe0, 0xb3, 0xbd, 0x9e, 0xbe, 0x92, 0x3e, 0xac, 0x9b, 0xc6, 0xbe,
  0xe3, 0x29, 0xfc, 0xbd, 0x83, 0x34, 0xe8, 0x3c, 0x5e, 0xb2, 0xf4, 0x3c,
  0x34, 0x56, 0xe1, 0x3d, 0xba, 0xc3, 0x7b, 0x3d, 0x21, 0xf1, 0x6d, 0xbe,
  0x8e, 0xe2, 0x80, 0x3e, 0x7c, 0xed, 0x12, 0xbe, 0x28, 0xa1, 0xb6, 0xbd,
  0xaa, 0xed, 0x66, 0xbe, 0xbe, 0xcf, 0x0e, 0xbe, 0x20, 0x8c, 0xc8, 0xbd,
  0xa5, 0x0c, 0x9e, 0xbd, 0x8d, 0xca, 0x15, 0xbe, 0xd6, 0x31, 0x94, 0x3e,
  0x5c, 0xbf, 0xa9, 0x3c, 0x93, 0x39, 0xb0, 0xbc, 0x97, 0x6b, 0x3b, 0x3e,
  0xe0, 0xee, 0x86, 0xbc, 0x89, 0x64, 0x98, 0xbe, 0x45, 0x6c, 0x6a, 0x3c,
  0xb3, 0xfc, 0xa6, 0xbe, 0x1a, 0xd5, 0x18, 0xbe, 0x3c, 0x89, 0x64, 0x3e,
  0x6e, 0x14, 0x59, 0xbc, 0xa7, 0x7c, 0xa8, 0xbe, 0x01, 0x2d, 0xa1, 0xbd,
  0xa9, 0x4c, 0x73, 0x3e, 0xf6, 0xad, 0x4d, 0xbe, 0xb0, 0x08, 0x5a, 0x3d,
  0xa7, 0xbb, 0xc1, 0xbd, 0x27, 0x75, 0xc4, 0x3b, 0xb0, 0xb5, 0x35, 0xbd,
  0xf9, 0x62, 0x18, 0xbe, 0xae, 0x06, 0x02, 0xbe, 0xa9, 0x0f, 0x5a, 0xbe,
  0x8f, 0x08, 0x38, 0x3e, 0x8f, 0xb8, 0x97, 0xbd, 0xc8, 0x8a, 0x84, 0x3d,
  0xa0, 0x56, 0x78, 0xbe, 0x0b, 0xd1, 0xbc, 0x3e, 0x62, 0x4a, 0x87, 0xbe,
  0x9a, 0x02, 0x98, 0x3e, 0x15, 0x20, 0xf9, 0x3b, 0x07, 0x87, 0xa2, 0xbe,
  0x9f, 0x3e, 0x1f, 0x3e, 0xec, 0x95, 0xf7, 0x3d, 0x16, 0x5f, 0x06, 0xbe,
  0xde, 0x3a, 0x2a, 0x3e, 0x5c, 0x8a, 0x71, 0x3e, 0x80, 0xc1, 0xc1, 0x3d,
  0xf8, 0x06, 0xbc, 0x3d, 0xef, 0xdc, 0xb0, 0x3d, 0x89, 0x6b, 0x55, 0x3d,
  0xd4, 0xc6, 0x89, 0x3e, 0x7b, 0xcb, 0x07, 0x3d, 0x15, 0x46, 0xc0, 0xbe,
  0x56, 0xd6, 0x5e, 0x3e, 0xbe, 0x26, 0x88, 0x3e, 0xaf, 0xfc, 0xeb, 0x3d,
  0x3b, 0xf0, 0x44, 0xbe, 0x35, 0x56, 0xf9, 0x3d, 0x40, 0xf5, 0xfb, 0x3d,
  0x58, 0xa6, 0xb4, 0xbe, 0x19, 0x5f, 0x6c, 0x3e, 0xb2, 0xe8, 0x81, 0x3e,
  0x6f, 0x72, 0x51, 0xbd, 0x31, 0xb9, 0x8a, 0xbe, 0x7f, 0x95, 0x49, 0xbd,
  0x75, 0xb5, 0x5e, 0xbe, 0xd4, 0x17, 0x94, 0x3d, 0x4d, 0x7f, 0x09, 0x3e,
  0x01, 0x71, 0x8e, 0x3e, 0x64, 0x08, 0x4f, 0xbe, 0xe6, 0xf3, 0x01, 0xbd,
  0xb8, 0x70, 0xa3, 0x3e, 0x1b, 0xe6, 0x8c, 0xbd, 0x7b, 0xda, 0x03, 0xbe,
  0x88, 0x77, 0xea, 0x3d, 0x40, 0xc7, 0x16, 0xbc, 0xf6, 0xac, 0x24, 0x3c,
  0xd6, 0x72, 0x8a, 0x3e, 0xc1, 0x90, 0x83, 0x3e, 0x3c, 0xaf, 0xb0, 0xbd,
  0x98, 0x24, 0x67, 0xbe, 0xf9, 0x2b, 0x9f, 0xbe, 0xc7, 0x56, 0x42, 0xbd,
  0x3b, 0xa5, 0x06, 0xbe, 0xd9, 0x85, 0x52, 0x3b, 0xb5, 0x1a, 0x15, 0x3c,
  0xb4, 0xfd, 0x94, 0x3d, 0x00, 0x4f, 0x28, 0x3b, 0x29, 0xaf, 0x60, 0x3e,
  0x7c, 0x61, 0xb2, 0x3d, 0x09, 0xf0, 0x72, 0xbe, 0xcb, 0x49, 0x7a, 0xbe,
  0x5a, 0x77, 0xae, 0x3c, 0x39, 0xe0, 0xab, 0xbd, 0x62, 0x3b, 0x9e, 0xbe,
  0x26, 0x67, 0x5d, 0x3e, 0xb4, 0x4a, 0x76, 0x3e, 0x5e, 0xfb, 0x11, 0xbe,
  0x79, 0xd8, 0xdb, 0x3b, 0x40, 0x07, 0xac, 0x3e, 0x02, 0x33, 0x1e, 0x3e,
  0x4a, 0x12, 0x1e, 0xbe, 0xd0, 0xe2, 0x4e, 0x3d, 0xce, 0xf6, 0x79, 0x3e,
  0x8f, 0x0c, 0xc1, 0xbd, 0x99, 0x9a, 0x2b, 0xbe, 0x76, 0x42, 0xc9, 0xbd,
  0x95, 0xba, 0x2a, 0x3e, 0x18, 0xfb, 0xe4, 0x3d, 0xa7, 0x15, 0xaf, 0xbd,
  0x98, 0x60, 0x23, 0xbe, 0x87, 0x99, 0xac, 0xbe, 0xb3, 0x13, 0x61, 0x3e,
  0x2d, 0x77, 0x1a, 0xbe, 0xd8, 0xa7, 0x99, 0xbe, 0x37, 0x20, 0x9d, 0xbe,
  0xef, 0x3f, 0xbf, 0xbc, 0xc1, 0x99, 0xb0, 0xbe, 0x4b, 0x39, 0x62, 0xbd,
  0xc3, 0xf0, 0x40, 0x3e, 0x10, 0x2c, 0x99, 0x3e, 0x79, 0xaa, 0x9d, 0xbe,
  0x8e, 0x63, 0x02, 0xbc, 0x2f, 0x80, 0x97, 0xbe, 0x27, 0x53, 0x13, 0x3e,
  0x67, 0xa2, 0x25, 0xbc, 0xf6, 0xb5, 0x6b, 0xbe, 0xd8, 0x76, 0xae, 0xbc,
  0x81, 0x5a, 0x5a, 0xbe, 0x29, 0x76, 0x81, 0x3e, 0xea, 0x0c, 0x5c, 0xbd,
  0xf2, 0x76, 0x8c, 0xbc, 0x09, 0x22, 0xb6, 0xbd, 0xe3, 0x91, 0x68, 0x3d,
  0x07, 0x8c, 0x9a, 0x3c, 0xad, 0x53, 0x08, 0xbe, 0x17, 0x7b, 0x52, 0xbe,
  0x64, 0x01, 0x8d, 0x3d, 0xfe, 0xd0, 0xa2, 0xbe, 0xc9, 0x7f, 0xce, 0x3d,
  0x1c, 0xe9, 0x51, 0xbe, 0x34, 0xfa, 0x2f, 0xbd, 0xcb, 0x9d, 0x66, 0xbe,
  0x5c, 0x77, 0x7c, 0x3e, 0x7c, 0x81, 0x1b, 0x3d, 0x84, 0x2e, 0xaf, 0x3e,
  0xf9, 0x2e, 0x1b, 0xbe, 0x64, 0x8c, 0xa2, 0x3e, 0x8e, 0x6e, 0x4e, 0x3e,
  0x49, 0x48, 0xed, 0x3d, 0x1e, 0x16, 0xa8, 0xbe, 0x34, 0x7c, 0xba, 0xbd,
  0x80, 0xd9, 0x40, 0x3e, 0x27, 0x3b, 0xb0, 0x3d, 0x28, 0x9f, 0x37, 0xbc,
  0x60, 0x00, 0x24, 0xbd, 0x37, 0x10, 0xcc, 0x3d, 0x17, 0x44, 0x7f, 0x3d,
  0xad, 0x41, 0x2b, 0x3e, 0xdf, 0x91, 0x57, 0x3e, 0x1f, 0x6a, 0x1a, 0xbc,
  0xad, 0xa7, 0x15, 0xbe, 0xbd, 0x6a, 0xcb, 0xbe, 0x8f, 0x87, 0x80, 0x3d,
  0x25, 0xee, 0x97, 0x3e, 0x6d, 0x55, 0x4a, 0x3e, 0xb4, 0xa8, 0xf4, 0x3d,
  0xaf, 0x02, 0x1d, 0xbe, 0xa6, 0x2c, 0x8a, 0xbe, 0xa5, 0x92, 0x5f, 0x3e,
  0x8f, 0x9f, 0xa6, 0x3e, 0x84, 0x83, 0x03, 0x3e, 0x97, 0xe5, 0xb2, 0xbd,
  0x61, 0x4d, 0x51, 0xbe, 0x4f, 0x59, 0xe9, 0x3d, 0x82, 0x7c, 0xa6, 0xbd,
  0xbe, 0x60, 0xb0, 0x3d, 0x81, 0x89, 0x0e, 0xbe, 0x2e, 0x25, 0x63, 0x3e,
  0x22, 0xe9, 0x15, 0xbe, 0xac, 0x25, 0x03, 0x3e, 0x0d, 0xfb, 0x9e, 0xbd,
  0xb3, 0x53, 0xe4, 0xbd, 0xf0, 0x0b, 0x47, 0xbd, 0x7f, 0x66, 0xff, 0x3d,
  0x34, 0x18, 0x15, 0xbe, 0x60, 0x6c, 0xd9, 0xbd, 0x72, 0xb5, 0x6b, 0xbe,
  0x72, 0x15, 0x41, 0xbe, 0x22, 0x45, 0x49, 0x3d, 0xf8, 0x84, 0x27, 0x3e,
  0xf6, 0xbf, 0xa0, 0xbe, 0xec, 0x70, 0xa1, 0xbd, 0xb9, 0xa7, 0xbb, 0xbd,
  0x08, 0xe7, 0x11, 0xbe, 0xcf, 0xaf, 0x8e, 0xbe, 0x7a, 0x7a, 0x89, 0xbd,
  0xce, 0xbb, 0x93, 0xbe, 0x9b, 0x1e, 0x49, 0xbe, 0x0b, 0xf9, 0xea, 0xbd,
  0xf2, 0x5e, 0x6b, 0x3e, 0x1b, 0x01, 0x51, 0xbe, 0xf8, 0x23, 0x0a, 0x3e,
  0xa4, 0x7b, 0xa8, 0xbe, 0xf0, 0x56, 0x04, 0x3d, 0xe1, 0x43, 0x86, 0x3e,
  0xa0, 0x3d, 0xe2, 0xbc, 0x28, 0x67, 0x48, 0xbe, 0x74, 0x78, 0x4f, 0xbc,
  0x04, 0x6d, 0x9d, 0xbe, 0x1d, 0x55, 0x18, 0xbe, 0xaf, 0x05, 0xb0, 0xbe,
  0x5d, 0x4b, 0x71, 0xbe, 0xe4, 0xaf, 0x70, 0xbd, 0x34, 0x8e, 0x0c, 0x3d,
  0x38, 0x1b, 0x46, 0x3e, 0xf6, 0xb8, 0xbb, 0x3c, 0xd2, 0x7b, 0x99, 0xbd,
  0x98, 0x8a, 0x6e, 0xbe, 0xec, 0x7c, 0xa0, 0x3e, 0xbe, 0x74, 0x75, 0x3e,
  0x2a, 0x0a, 0x95, 0xbe, 0xc1, 0xf1, 0xb2, 0xbe, 0x8a, 0x47, 0x2e, 0xbd,
  0xf6, 0x36, 0x3a, 0x3c, 0xb2, 0x78, 0x90, 0x3e, 0xaf, 0xb5, 0x5a, 0x3d,
  0xd8, 0x99, 0x8c, 0xbe, 0x7b, 0x39, 0xe5, 0x3c, 0xe7, 0xa3, 0xcc, 0x3e,
  0x5b, 0xf1, 0xc7, 0x3e, 0x80, 0x04, 0xa2, 0x3e, 0xc4, 0xde, 0x02, 0x3e,
  0xa7, 0xe5, 0x4f, 0x3e, 0x37, 0x72, 0xd9, 0x3d, 0x02, 0xb3, 0x4e, 0xbd,
  0xcc, 0x39, 0x94, 0xbd, 0x53, 0x06, 0x86, 0x3e, 0xa9, 0x31, 0xed, 0xbc,
  0x66, 0x13, 0x4b, 0x3e, 0x72, 0x64, 0x03, 0xbd, 0x40, 0x21, 0x00, 0x3e,
  0x1f, 0x29, 0xbe, 0x3e, 0x1c, 0xfe, 0x91, 0x3c, 0xd6, 0xbc, 0xb5, 0x3e,
  0xca, 0x18, 0x7f, 0x3e, 0x5f, 0x76, 0x9f, 0xbe, 0x92, 0xe0, 0x0a, 0x3e,
  0x7f, 0xa7, 0x6d, 0xbe, 0x2e, 0x20, 0xc3, 0xbd, 0x2b, 0xd0, 0x43, 0x3e,
  0xc2, 0xf7, 0x8f, 0xbd, 0x47, 0xd7, 0x79, 0x3e, 0xb8, 0x58, 0x19, 0x3d,
  0xf3, 0x2b, 0x8e, 0xbd, 0xd0, 0x32, 0x8e, 0x3c, 0x93, 0xbb, 0x8e, 0xbe,
  0x99, 0xf2, 0x78, 0xbe, 0x7a, 0x2e, 0x99, 0xbe, 0xd8, 0x2d, 0x89, 0xbd,
  0x3d, 0x3d, 0xf1, 0x3d, 0x52, 0x23, 0x01, 0x3e, 0x57, 0x8e, 0x3f, 0xbc,
  0x7e, 0x9f, 0xec, 0xbd, 0xa6, 0xaa, 0x8e, 0xbd, 0xa8, 0xe0, 0x7d, 0xbd,
  0x1a, 0x45, 0x92, 0x3d, 0x76, 0xac, 0xe8, 0xbd, 0x50, 0x97, 0x5b, 0x3e,
  0xbb, 0x12, 0x54, 0x3e, 0xdb, 0x4f, 0x06, 0x3e, 0x03, 0x72, 0xb2, 0xbe,
  0x52, 0xc4, 0x8b, 0x3e, 0x59, 0x76, 0xa3, 0xbe, 0x04, 0x4d, 0xbe, 0xbd,
  0x72, 0x54, 0x9a, 0x3d, 0xa0, 0x29, 0xbb, 0xbd, 0x7e, 0x45, 0x83, 0x3d,
  0x50, 0xfe, 0x64, 0xbe, 0x85, 0x12, 0x81, 0x3d, 0x18, 0x86, 0xc5, 0xbe,
  0x60, 0x85, 0x8b, 0x3e, 0xd7, 0x39, 0xbe, 0x3c, 0xc7, 0x73, 0x95, 0xbe,
  0x26, 0x0e, 0x21, 0xbe, 0x45, 0x2d, 0xb0, 0x3d, 0x5b, 0x69, 0x0d, 0xbe,
  0x49, 0x3a, 0x3d, 0xbe, 0xa6, 0x8b, 0xe4, 0x3d, 0xda, 0xc1, 0x02, 0x3b,
  0xad, 0x0b, 0x5b, 0xbe, 0xd6, 0xae, 0x96, 0x3e, 0x41, 0x35, 0x5b, 0x3d,
  0x8d, 0xf8, 0x59, 0xbe, 0xc5, 0xa0, 0x5b, 0xbb, 0x2e, 0xbd, 0x71, 0xbe,
  0x3c, 0x7b, 0xa5, 0xbe, 0xd5, 0x3a, 0x5a, 0x3e, 0xfb, 0x34, 0x80, 0x3e,
  0xb1, 0x9a, 0x82, 0xbc, 0xbc, 0x7d, 0x19, 0xbe, 0xc7, 0x2b, 0x6b, 0xbe,
  0xc2, 0xb7, 0xba, 0xbd, 0xfc, 0x3a, 0x0c, 0xbc, 0x77, 0xd5, 0x10, 0xbd,
  0x9e, 0x06, 0x51, 0x3e, 0xd6, 0x13, 0x8f, 0xbe, 0x1d, 0x2f, 0xcc, 0x3b,
  0xb4, 0x59, 0x6d, 0x3e, 0x06, 0x03, 0xd4, 0x3c, 0x77, 0x2d, 0x11, 0xbe,
  0xbb, 0x55, 0x3d, 0xbe, 0xd3, 0xbb, 0x37, 0xbd, 0xf3, 0x55, 0x9e, 0x3d,
  0x9b, 0x41, 0x84, 0x3e, 0x98, 0xeb, 0x00, 0xbe, 0x4e, 0x57, 0x85, 0x3e,
  0x00, 0x59, 0xa3, 0x3e, 0xb6, 0xcb, 0x70, 0x3d, 0x76, 0xe4, 0x5c, 0x3d,
  0x17, 0x32, 0x00, 0x3e, 0x25, 0x26, 0x03, 0xbe, 0x78, 0x64, 0xcc, 0xbc,
  0x72, 0x6c, 0x15, 0xbe, 0x8b, 0x04, 0x4c, 0x3d, 0x11, 0xc7, 0x5e, 0x3e,
  0x62, 0x5b, 0xc4, 0x3d, 0xb9, 0xef, 0x37, 0xbd, 0x46, 0x49, 0x2c, 0x3e,
  0xd9, 0x06, 0x59, 0xbe, 0xc6, 0xc1, 0xce, 0xbd, 0x74, 0x07, 0x4e, 0xbe,
  0x9a, 0x21, 0x90, 0x3c, 0x54, 0x4d, 0xab, 0xbc, 0x7d, 0x83, 0x97, 0x3d,
  0xd0, 0xab, 0x75, 0xbe, 0xa2, 0xb1, 0xa2, 0xbd, 0xe1, 0x28, 0xc6, 0xbe,
  0x8b, 0xe0, 0x73, 0x3d, 0x7d, 0xca, 0xd1, 0x3d, 0xdb, 0x07, 0x6b, 0x3e,
  0x1b, 0xbc, 0x96, 0x3e, 0x6a, 0x00, 0x5e, 0xbe, 0x7b, 0x12, 0x94, 0xbe,
  0xa1, 0x2f, 0xac, 0xbe, 0xbf, 0x04, 0xa2, 0xbd, 0xd4, 0x01, 0x5e, 0x3d,
  0x97, 0x20, 0xb2, 0x3e, 0xc7, 0x68, 0x4e, 0x3e, 0xc1, 0xf5, 0x90, 0x3e,
  0x0a, 0x33, 0x9b, 0x3e, 0x32, 0x7d, 0xa9, 0x3e, 0xe9, 0x27, 0x83, 0x3e,
  0xe1, 0x18, 0x75, 0xbe, 0x95, 0xda, 0x97, 0x3e, 0x08, 0xec, 0x49, 0xbe,
  0x9b, 0xcc, 0x8d, 0xbe, 0xfa, 0x98, 0x1a, 0x3e, 0x17, 0x9e, 0x6e, 0x3d,
  0x27, 0xcb, 0x3c, 0xbe, 0xdf, 0x01, 0xb4, 0xbe, 0x59, 0xa1, 0xc7, 0x3d,
  0x81, 0xdb, 0x2f, 0x3d, 0x51, 0x15, 0xb1, 0xbe, 0xd6, 0x94, 0x07, 0xbe,
  0x97, 0x6d, 0x72, 0x3e, 0x23, 0xf3, 0x7c, 0xbd, 0x64, 0x7b, 0x62, 0xbd,
  0x04, 0x0d, 0x9a, 0xbe, 0x84, 0x4c, 0x83, 0x3e, 0x4d, 0xa8, 0x5f, 0xbe,
  0xd3, 0xa2, 0xa7, 0xbd, 0x46, 0xa3, 0x76, 0xbe, 0x14, 0xb5, 0x7d, 0x3e,
  0xab, 0x4f, 0x7e, 0xbe, 0x3c, 0x03, 0x63, 0xbe, 0xc0, 0x5e, 0x12, 0xbd,
  0x54, 0x53, 0xa2, 0xbe, 0x2d, 0x1f, 0x01, 0xbe, 0xab, 0xf1, 0x8e, 0x3e,
  0xa8, 0x3b, 0x06, 0x3d, 0x76, 0x03, 0x2f, 0xbe, 0x90, 0xc5, 0x98, 0x3e,
  0x64, 0x19, 0x9a, 0xbe, 0xea, 0x8d, 0x20, 0x3e, 0x7b, 0x3e, 0xff, 0x3d,
  0x9a, 0xb8, 0x95, 0xbe, 0xce, 0x14, 0xfe, 0x3a, 0x9a, 0x2f, 0x29, 0x3e,
  0x6c, 0xcc, 0x44, 0x3d, 0xfc, 0x0f, 0x6b, 0x3e, 0xa5, 0x89, 0x8c, 0xbe,
  0xd4, 0xc6, 0x13, 0xbe, 0xd7, 0x0b, 0x93, 0x3e, 0x6a, 0xd3, 0x6f, 0xbe,
  0xf0, 0x45, 0xe8, 0x3d, 0x26, 0xff, 0xff, 0xff, 0x10, 0x00, 0x00, 0x00,
  0x04, 0x00, 0x00, 0x00, 0x14, 0x00, 0x00, 0x00, 0x24, 0x00, 0x00, 0x00,
  0x02, 0x00, 0x00, 0x00, 0x10, 0x00, 0x00, 0x00, 0x24, 0x00, 0x00, 0x00,
  0x0c, 0x00, 0x00, 0x00, 0x73, 0x74, 0x64, 0x2e, 0x63, 0x6f, 0x6e, 0x73,
  0x74, 0x61, 0x6e, 0x74, 0x00, 0x00, 0x00, 0x00, 0xac, 0xfe, 0xff, 0xff,
  0x7e, 0xff, 0xff, 0xff, 0x04, 0x00, 0x00, 0x00, 0x40, 0x00, 0x00, 0x00,
  0x09, 0xdf, 0x13, 0xbd, 0xb7, 0x4e, 0xdd, 0xbc, 0x61, 0xae, 0x17, 0xbe,
  0x4b, 0xbd, 0x44, 0x3c, 0x91, 0xe1, 0xb4, 0xbc, 0xf1, 0xc0, 0x7f, 0x3d,
  0x73, 0x9e, 0x8a, 0x3b, 0x7a, 0x6b, 0xca, 0x3c, 0x09, 0x1a, 0xc7, 0xbc,
  0xc0, 0xee, 0x78, 0x3d, 0x8b, 0x0c, 0x22, 0xbd, 0xd8, 0x93, 0x8d, 0x3d,
  0x83, 0x39, 0x83, 0xbd, 0x47, 0xf2, 0x45, 0xbd, 0x2f, 0x5a, 0x4d, 0xbd,
  0x65, 0x2a, 0x77, 0x3c, 0xaa, 0xff, 0xff, 0xff, 0x10, 0x00, 0x00, 0x00,
  0x03, 0x00, 0x00, 0x00, 0x10, 0x00, 0x00, 0x00, 0x20, 0x00, 0x00, 0x00,
  0x01, 0x00, 0x00, 0x00, 0x10, 0x00, 0x00, 0x00, 0x0a, 0x00, 0x00, 0x00,
  0x64, 0x65, 0x6e, 0x73, 0x65, 0x2f, 0x62, 0x69, 0x61, 0x73, 0x00, 0x00,
  0x04, 0x00, 0x06, 0x00, 0x04, 0x00, 0x00, 0x00, 0x00, 0x00, 0x06, 0x00,
  0x08, 0x00, 0x04, 0x00, 0x06, 0x00, 0x00, 0x00, 0x04, 0x00, 0x00, 0x00,
  0x0c, 0x00, 0x00, 0x00, 0x15, 0xbf, 0x5c, 0xbd, 0x9a, 0xef, 0x76, 0x3d,
  0x80, 0x68, 0x4a, 0x3d, 0x00, 0x00, 0x0e, 0x00, 0x14, 0x00, 0x04, 0x00,
  0x00, 0x00, 0x08, 0x00, 0x0c, 0x00, 0x10, 0x00, 0x0e, 0x00, 0x00, 0x00,
  0x10, 0x00, 0x00, 0x00, 0x02, 0x00, 0x00, 0x00, 0x10, 0x00, 0x00, 0x00,
  0x20, 0x00, 0x00, 0x00, 0x01, 0x00, 0x00, 0x00, 0x03, 0x00, 0x00, 0x00,
  0x0c, 0x00, 0x00, 0x00, 0x64, 0x65, 0x6e, 0x73, 0x65, 0x5f, 0x31, 0x2f,
  0x62, 0x69, 0x61, 0x73, 0x00, 0x00, 0x00, 0x00, 0x90, 0xff, 0xff, 0xff,
  0x14, 0x00, 0x18, 0x00, 0x04, 0x00, 0x00, 0x00, 0x08, 0x00, 0x0c, 0x00,
  0x10, 0x00, 0x00, 0x00, 0x00, 0x00, 0x14, 0x00, 0x14, 0x00, 0x00, 0x00,
  0x14, 0x00, 0x00, 0x00, 0x01, 0x00, 0x00, 0x00, 0x18, 0x00, 0x00, 0x00,
  0x44, 0x00, 0x00, 0x00, 0x34, 0x00, 0x00, 0x00, 0x02, 0x00, 0x00, 0x00,
  0x01, 0x00, 0x00, 0x00, 0x24, 0x00, 0x00, 0x00, 0x1d, 0x00, 0x00, 0x00,
  0x73, 0x65, 0x72, 0x76, 0x69, 0x6e, 0x67, 0x5f, 0x64, 0x65, 0x66, 0x61,
  0x75, 0x6c, 0x74, 0x5f, 0x64, 0x65, 0x6e, 0x73, 0x65, 0x5f, 0x69, 0x6e,
  0x70, 0x75, 0x74, 0x3a, 0x30, 0x00, 0x00, 0x00, 0x02, 0x00, 0x00, 0x00,
  0xff, 0xff, 0xff, 0xff, 0x24, 0x00, 0x00, 0x00, 0xfc, 0xff, 0xff, 0xff,
  0x04, 0x00, 0x04, 0x00, 0x04, 0x00, 0x00, 0x00
};
unsigned int models_model_no_quant_tflite_len = 3776;
