unsigned char models_model_no_quant_tflite[] = {
  0x1c, 0x00, 0x00, 0x00, 0x54, 0x46, 0x4c, 0x33, 0x14, 0x00, 0x20, 0x00,
  0x04, 0x00, 0x08, 0x00, 0x0c, 0x00, 0x10, 0x00, 0x14, 0x00, 0x00, 0x00,
  0x18, 0x00, 0x1c, 0x00, 0x14, 0x00, 0x00, 0x00, 0x03, 0x00, 0x00, 0x00,
  0x18, 0x00, 0x00, 0x00, 0x20, 0x00, 0x00, 0x00, 0x34, 0x01, 0x00, 0x00,
  0x20, 0x00, 0x00, 0x00, 0xdc, 0x00, 0x00, 0x00, 0x44, 0x00, 0x00, 0x00,
  0x02, 0x00, 0x00, 0x00, 0x34, 0x03, 0x00, 0x00, 0xe4, 0x01, 0x00, 0x00,
  0x01, 0x00, 0x00, 0x00, 0x38, 0x01, 0x00, 0x00, 0x0a, 0x00, 0x00, 0x00,
  0x1c, 0x0f, 0x00, 0x00, 0x18, 0x0f, 0x00, 0x00, 0x48, 0x0e, 0x00, 0x00,
  0xb8, 0x0d, 0x00, 0x00, 0x70, 0x04, 0x00, 0x00, 0x68, 0x03, 0x00, 0x00,
  0x04, 0x0f, 0x00, 0x00, 0x00, 0x0f, 0x00, 0x00, 0xfc, 0x0e, 0x00, 0x00,
  0xcc, 0x00, 0x00, 0x00, 0x01, 0x00, 0x00, 0x00, 0x10, 0x00, 0x00, 0x00,
  0x0c, 0x00, 0x14, 0x00, 0x10, 0x00, 0x0c, 0x00, 0x08, 0x00, 0x04, 0x00,
  0x0c, 0x00, 0x00, 0x00, 0x10, 0x00, 0x00, 0x00, 0x18, 0x00, 0x00, 0x00,
  0x28, 0x00, 0x00, 0x00, 0x2c, 0x00, 0x00, 0x00, 0x05, 0x00, 0x00, 0x00,
  0x73, 0x65, 0x72, 0x76, 0x65, 0x00, 0x00, 0x00, 0x0f, 0x00, 0x00, 0x00,
  0x73, 0x65, 0x72, 0x76, 0x69, 0x6e, 0x67, 0x5f, 0x64, 0x65, 0x66, 0x61,
  0x75, 0x6c, 0x74, 0x00, 0x01, 0x00, 0x00, 0x00, 0x14, 0x00, 0x00, 0x00,
  0x01, 0x00, 0x00, 0x00, 0x24, 0x00, 0x00, 0x00, 0x08, 0x00, 0x0c, 0x00,
  0x08, 0x00, 0x04, 0x00, 0x08, 0x00, 0x00, 0x00, 0x07, 0x00, 0x00, 0x00,
  0x04, 0x00, 0x00, 0x00, 0x07, 0x00, 0x00, 0x00, 0x64, 0x65, 0x6e, 0x73,
  0x65, 0x5f, 0x33, 0x00, 0x56, 0xf2, 0xff, 0xff, 0x04, 0x00, 0x00, 0x00,
  0x0d, 0x00, 0x00, 0x00, 0x64, 0x65, 0x6e, 0x73, 0x65, 0x5f, 0x32, 0x5f,
  0x69, 0x6e, 0x70, 0x75, 0x74, 0x00, 0x00, 0x00, 0x01, 0x00, 0x00, 0x00,
  0x0c, 0x00, 0x00, 0x00, 0x08, 0x00, 0x0c, 0x00, 0x04, 0x00, 0x08, 0x00,
  0x08, 0x00, 0x00, 0x00, 0x08, 0x00, 0x00, 0x00, 0x09, 0x00, 0x00, 0x00,
  0x13, 0x00, 0x00, 0x00, 0x6d, 0x69, 0x6e, 0x5f, 0x72, 0x75, 0x6e, 0x74,
  0x69, 0x6d, 0x65, 0x5f, 0x76, 0x65, 0x72, 0x73, 0x69, 0x6f, 0x6e, 0x00,
  0xa6, 0xf2, 0xff, 0xff, 0x04, 0x00, 0x00, 0x00, 0x10, 0x00, 0x00, 0x00,
  0x31, 0x2e, 0x35, 0x2e, 0x30, 0x00, 0x00, 0x00, 0x00, 0x00, 0x00, 0x00,
  0x00, 0x00, 0x00, 0x00, 0x0f, 0x00, 0x00, 0x00, 0x4d, 0x4c, 0x49, 0x52,
  0x20, 0x43, 0x6f, 0x6e, 0x76, 0x65, 0x72, 0x74, 0x65, 0x64, 0x2e, 0x00,
  0x00, 0x00, 0x0e, 0x00, 0x18, 0x00, 0x04, 0x00, 0x08, 0x00, 0x0c, 0x00,
  0x10, 0x00, 0x14, 0x00, 0x0e, 0x00, 0x00, 0x00, 0x14, 0x00, 0x00, 0x00,
  0x34, 0x00, 0x00, 0x00, 0x38, 0x00, 0x00, 0x00, 0x3c, 0x00, 0x00, 0x00,
  0x48, 0x00, 0x00, 0x00, 0x08, 0x00, 0x00, 0x00, 0x74, 0x0d, 0x00, 0x00,
  0x28, 0x0d, 0x00, 0x00, 0xbc, 0x0c, 0x00, 0x00, 0x34, 0x0c, 0x00, 0x00,
  0xec, 0x02, 0x00, 0x00, 0xd0, 0x01, 0x00, 0x00, 0x14, 0x01, 0x00, 0x00,
  0x7c, 0x00, 0x00, 0x00, 0x01, 0x00, 0x00, 0x00, 0x00, 0x00, 0x00, 0x00,
  0x01, 0x00, 0x00, 0x00, 0x07, 0x00, 0x00, 0x00, 0x03, 0x00, 0x00, 0x00,
  0x58, 0x01, 0x00, 0x00, 0xc4, 0x00, 0x00, 0x00, 0x1c, 0x00, 0x00, 0x00,
  0x04, 0x00, 0x00, 0x00, 0x6d, 0x61, 0x69, 0x6e, 0x00, 0x00, 0x0e, 0x00,
  0x18, 0x00, 0x08, 0x00, 0x0c, 0x00, 0x10, 0x00, 0x07, 0x00, 0x14, 0x00,
  0x0e, 0x00, 0x00, 0x00, 0x00, 0x00, 0x00, 0x09, 0x01, 0x00, 0x00, 0x00,
  0x1c, 0x00, 0x00, 0x00, 0x10, 0x00, 0x00, 0x00, 0x04, 0x00, 0x00, 0x00,
  0x72, 0xf3, 0xff, 0xff, 0x00, 0x00, 0x80, 0x3f, 0x01, 0x00, 0x00, 0x00,
  0x07, 0x00, 0x00, 0x00, 0x01, 0x00, 0x00, 0x00, 0x06, 0x00, 0x00, 0x00,
  0xc0, 0xfe, 0xff, 0xff, 0x19, 0x00, 0x00, 0x00, 0x00, 0x00, 0x00, 0x19,
  0x01, 0x00, 0x00, 0x00, 0x38, 0xf3, 0xff, 0xff, 0x14, 0x00, 0x00, 0x00,
  0x08, 0x00, 0x00, 0x00, 0x18, 0x00, 0x00, 0x00, 0x40, 0x00, 0x00, 0x00,
  0x30, 0x00, 0x00, 0x00, 0x02, 0x00, 0x00, 0x00, 0x01, 0x00, 0x00, 0x00,
  0x03, 0x00, 0x00, 0x00, 0x19, 0x00, 0x00, 0x00, 0x53, 0x74, 0x61, 0x74,
  0x65, 0x66, 0x75, 0x6c, 0x50, 0x61, 0x72, 0x74, 0x69, 0x74, 0x69, 0x6f,
  0x6e, 0x65, 0x64, 0x43, 0x61, 0x6c, 0x6c, 0x3a, 0x30, 0x00, 0x00, 0x00,
  0x02, 0x00, 0x00, 0x00, 0xff, 0xff, 0xff, 0xff, 0x03, 0x00, 0x00, 0x00,
  0xf4, 0xf3, 0xff, 0xff, 0x00, 0x00, 0x0e, 0x00, 0x14, 0x00, 0x00, 0x00,
  0x08, 0x00, 0x0c, 0x00, 0x07, 0x00, 0x10, 0x00, 0x0e, 0x00, 0x00, 0x00,
  0x00, 0x00, 0x00, 0x08, 0x18, 0x00, 0x00, 0x00, 0x0c, 0x00, 0x00, 0x00,
  0x04, 0x00, 0x00, 0x00, 0x44, 0xf3, 0xff, 0xff, 0x01, 0x00, 0x00, 0x00,
  0x06, 0x00, 0x00, 0x00, 0x03, 0x00, 0x00, 0x00, 0x05, 0x00, 0x00, 0x00,
  0x04, 0x00, 0x00, 0x00, 0x01, 0x00, 0x00, 0x00, 0xcc, 0xf3, 0xff, 0xff,
  0x14, 0x00, 0x00, 0x00, 0x07, 0x00, 0x00, 0x00, 0x18, 0x00, 0x00, 0x00,
  0x3c, 0x00, 0x00, 0x00, 0x2c, 0x00, 0x00, 0x00, 0x02, 0x00, 0x00, 0x00,
  0x01, 0x00, 0x00, 0x00, 0x03, 0x00, 0x00, 0x00, 0x14, 0x00, 0x00, 0x00,
  0x74, 0x66, 0x6c, 0x2e, 0x66, 0x75, 0x6c, 0x6c, 0x79, 0x5f, 0x63, 0x6f,
  0x6e, 0x6e, 0x65, 0x63, 0x74, 0x65, 0x64, 0x31, 0x00, 0x00, 0x00, 0x00,
  0x02, 0x00, 0x00, 0x00, 0xff, 0xff, 0xff, 0xff, 0x03, 0x00, 0x00, 0x00,
  0x84, 0xf4, 0xff, 0xff, 0x00, 0x00, 0x0e, 0x00, 0x16, 0x00, 0x00, 0x00,
  0x08, 0x00, 0x0c, 0x00, 0x07, 0x00, 0x10, 0x00, 0x0e, 0x00, 0x00, 0x00,
  0x00, 0x00, 0x00, 0x08, 0x24, 0x00, 0x00, 0x00, 0x18, 0x00, 0x00, 0x00,
  0x0c, 0x00, 0x00, 0x00, 0x00, 0x00, 0x06, 0x00, 0x08, 0x00, 0x07, 0x00,
  0x06, 0x00, 0x00, 0x00, 0x00, 0x00, 0x00, 0x01, 0x01, 0x00, 0x00, 0x00,
  0x05, 0x00, 0x00, 0x00, 0x03, 0x00, 0x00, 0x00, 0x00, 0x00, 0x00, 0x00,
  0x03, 0x00, 0x00, 0x00, 0x02, 0x00, 0x00, 0x00, 0x0c, 0x00, 0x10, 0x00,
  0x0b, 0x00, 0x00, 0x00, 0x0c, 0x00, 0x04, 0x00, 0x0c, 0x00, 0x00, 0x00,
  0x09, 0x00, 0x00, 0x00, 0x00, 0x00, 0x00, 0x09, 0x01, 0x00, 0x00, 0x00,
  0x84, 0xf4, 0xff, 0xff, 0x14, 0x00, 0x00, 0x00, 0x06, 0x00, 0x00, 0x00,
  0x18, 0x00, 0x00, 0x00, 0x38, 0x00, 0x00, 0x00, 0x28, 0x00, 0x00, 0x00,
  0x02, 0x00, 0x00, 0x00, 0x01, 0x00, 0x00, 0x00, 0x10, 0x00, 0x00, 0x00,
  0x13, 0x00, 0x00, 0x00, 0x74, 0x66, 0x6c, 0x2e, 0x66, 0x75, 0x6c, 0x6c,
  0x79, 0x5f, 0x63, 0x6f, 0x6e, 0x6e, 0x65, 0x63, 0x74, 0x65, 0x64, 0x00,
  0x02, 0x00, 0x00, 0x00, 0xff, 0xff, 0xff, 0xff, 0x10, 0x00, 0x00, 0x00,
  0x60, 0xf4, 0xff, 0xff, 0x32, 0xf5, 0xff, 0xff, 0x04, 0x00, 0x00, 0x00,
  0xc0, 0x00, 0x00, 0x00, 0x99, 0x02, 0x80, 0x3c, 0xf7, 0x6f, 0x0f, 0x3f,
  0x7f, 0xcf, 0x91, 0xbe, 0xf9, 0x0b, 0x8a, 0x3e, 0x44, 0xdd, 0x4f, 0x3d,
  0x42, 0x80, 0xdd, 0xbe, 0x84, 0x6d, 0x5d, 0xbe, 0xcb, 0x4c, 0x10, 0x3f,
  0x21, 0xc8, 0x4d, 0x3e, 0xc1, 0xc2, 0xfc, 0xbe, 0xf7, 0x64, 0xc8, 0x3e,
  0x95, 0x14, 0xc7, 0x3e, 0x00, 0x96, 0xfb, 0x3e, 0x5f, 0x8a, 0x7f, 0x3d,
  0x82, 0xe9, 0x10, 0xbc, 0x21, 0xdd, 0xd8, 0x3d, 0x42, 0x3a, 0x55, 0xbe,
  0x19, 0x7c, 0x60, 0x3e, 0xbc, 0x56, 0xb4, 0x3e, 0x97, 0x29, 0x67, 0xbe,
  0x9c, 0xeb, 0x6f, 0x3d, 0x73, 0x8f, 0x08, 0x3e, 0xd9, 0xff, 0x87, 0x3e,
  0xbd, 0xdb, 0xfb, 0xbe, 0x9f, 0xd6, 0x4e, 0xbe, 0x6b, 0xb6, 0x04, 0x3f,
  0xe1, 0xe2, 0x10, 0x3e, 0x10, 0x4b, 0xf2, 0x3e, 0xd3, 0x05, 0xd6, 0xbe,
  0x7f, 0x62, 0x92, 0xbc, 0x1b, 0xbf, 0x09, 0xbe, 0xff, 0x25, 0xaf, 0xbe,
  0x31, 0xa9, 0xec, 0x3c, 0x56, 0x86, 0x3d, 0xbe, 0x5a, 0x29, 0x30, 0xbe,
  0xbb, 0x0b, 0x8e, 0xbe, 0x58, 0x99, 0x75, 0xbe, 0xbc, 0x7c, 0xe1, 0x3e,
  0xb8, 0x44, 0xaa, 0xbd, 0x02, 0x72, 0x9a, 0x3e, 0x9f, 0xb7, 0x8e, 0x3e,
  0x3e, 0x2c, 0xe2, 0x3e, 0xde, 0x87, 0x9d, 0xbe, 0xfc, 0x1b, 0xcf, 0x3e,
  0x9f, 0x67, 0x07, 0xbe, 0xca, 0x50, 0xef, 0xbe, 0xab, 0x73, 0xa0, 0xbe,
  0x06, 0x82, 0xe6, 0x3e, 0xde, 0xf5, 0xff, 0xff, 0x10, 0x00, 0x00, 0x00,
  0x05, 0x00, 0x00, 0x00, 0x14, 0x00, 0x00, 0x00, 0x24, 0x00, 0x00, 0x00,
  0x02, 0x00, 0x00, 0x00, 0x03, 0x00, 0x00, 0x00, 0x10, 0x00, 0x00, 0x00,
  0x0d, 0x00, 0x00, 0x00, 0x73, 0x74, 0x64, 0x2e, 0x63, 0x6f, 0x6e, 0x73,
  0x74, 0x61, 0x6e, 0x74, 0x31, 0x00, 0x00, 0x00, 0x64, 0xf5, 0xff, 0xff,
  0x36, 0xf6, 0xff, 0xff, 0x04, 0x00, 0x00, 0x00, 0x00, 0x09, 0x00, 0x00,
  0xb7, 0x5c, 0x6d, 0xbf, 0x15, 0xc5, 0x37, 0x3e, 0x3f, 0x65, 0xda, 0xbe,
  0xbe, 0x76, 0x01, 0xbd, 0xcd, 0x7a, 0x6f, 0x3d, 0xbe, 0x87, 0x8e, 0xbe,
  0x7c, 0x7d, 0x21, 0xbf, 0x15, 0x76, 0xb7, 0x3e, 0x5d, 0x5c, 0x69, 0x3e,
  0xc8, 0x92, 0xa6, 0x3e, 0x2b, 0x88, 0xa0, 0x3e, 0xf0, 0x16, 0xa7, 0xbe,
  0x59, 0x34, 0x50, 0xbf, 0x68, 0xf5, 0x5d, 0xbe, 0xcb, 0x0e, 0x2a, 0x3f,
  0x81, 0x70, 0x99, 0xbe, 0xc1, 0x9e, 0x3f, 0xbf, 0xce, 0x05, 0xd9, 0x3c,
  0x00, 0x7e, 0x4d, 0xbf, 0xf0, 0x8e, 0x9e, 0xbe, 0x3b, 0xf8, 0x87, 0x3d,
  0xb7, 0x3a, 0x5b, 0xbe, 0x16, 0x13, 0x9c, 0xbe, 0xe1, 0xac, 0x13, 0xbe,
  0xad, 0x54, 0x26, 0xbf, 0xe4, 0x94, 0x1e, 0xbf, 0x39, 0x50, 0x5f, 0xbe,
  0x02, 0x27, 0xff, 0xbe, 0x03, 0x8f, 0x46, 0xbe, 0x6a, 0x69, 0x30, 0x3d,
  0x74, 0xf5, 0x9e, 0xbd, 0x67, 0xb5, 0xb6, 0x3e, 0x15, 0x88, 0x31, 0xbe,
  0xb3, 0xd2, 0x6d, 0x3e, 0xa9, 0x3e, 0x73, 0x3e, 0xf6, 0x2e, 0x0d, 0x3e,
  0xee, 0xc8, 0x1c, 0x3f, 0xc2, 0x05, 0x18, 0xbf, 0x7f, 0x1a, 0xc2, 0x3d,
  0x73, 0x01, 0xea, 0xbe, 0x94, 0x0b, 0xd5, 0xbe, 0x19, 0x94, 0x56, 0x3e,
  0xe6, 0x97, 0xdd, 0x3e, 0x7c, 0xeb, 0x34, 0x3e, 0x22, 0x6f, 0x9a, 0xbd,
  0x48, 0xa0, 0x0f, 0xbf, 0x55, 0xf5, 0x88, 0xbd, 0x94, 0xb8, 0xed, 0x3c,
  0xa7, 0x8b, 0x02, 0x3f, 0x07, 0x09, 0x3f, 0xbe, 0x48, 0xe3, 0xe0, 0x3b,
  0xe8, 0xd4, 0x81, 0x3d, 0x67, 0x86, 0xd3, 0xbd, 0x79, 0x5e, 0x72, 0xbe,
  0x04, 0x57, 0x8e, 0x3e, 0xd1, 0x2d, 0x9d, 0x3e, 0xe8, 0x16, 0xea, 0xbd,
  0xf1, 0xfe, 0x06, 0xbf, 0xfe, 0xf7, 0xba, 0xbd, 0x1c, 0x5e, 0x23, 0xbe,
  0x34, 0xa3, 0xf8, 0x3e, 0x35, 0xec, 0x47, 0x3f, 0x3e, 0x2d, 0x45, 0xbe,
  0xb4, 0x34, 0x5e, 0xbe, 0x4e, 0x29, 0x6e, 0x3e, 0x27, 0x26, 0xd6, 0xbc,
  0xb7, 0x63, 0x50, 0xbd, 0x8b, 0xcf, 0xcd, 0xb9, 0x0b, 0x83, 0x2b, 0xbe,
  0x07, 0xec, 0xe9, 0xbd, 0x66, 0xa7, 0x27, 0x3c, 0x02, 0xc2, 0xe9, 0xbd,
  0x3b, 0x7a, 0x6f, 0x3e, 0x8b, 0x7d, 0x8b, 0x3f, 0x45, 0xda, 0x84, 0xbe,
  0x8a, 0xf3, 0x81, 0x3f, 0x3c, 0xab, 0xec, 0x3e, 0x6a, 0x44, 0x90, 0xbe,
  0xdf, 0x22, 0xf9, 0xbe, 0xfc, 0xa5, 0x55, 0xbe, 0x77, 0x08, 0xf9, 0xbe,
  0x82, 0x40, 0xe4, 0x3e, 0x9c, 0xb3, 0xe1, 0x3d, 0x28, 0xa1, 0x80, 0xbe,
  0xb4, 0x41, 0x49, 0x3e, 0x19, 0xfd, 0x2f, 0xbf, 0x06, 0x12, 0xff, 0xbe,
  0x73, 0xb5, 0x12, 0x3c, 0xf8, 0x8b, 0xe9, 0x3e, 0x25, 0x68, 0x94, 0x3e,
  0x0a, 0x28, 0x47, 0xbd, 0x63, 0x88, 0xda, 0x3e, 0x46, 0xb4, 0x89, 0x3e,
  0xfc, 0x30, 0x17, 0x3f, 0x25, 0x9a, 0xf2, 0x3d, 0x40, 0xf8, 0x71, 0x3d,
  0xbf, 0x77, 0xf9, 0xbd, 0x97, 0x4e, 0x3b, 0xbf, 0x8f, 0xf8, 0x66, 0xbe,
  0x09, 0x17, 0xc2, 0x3c, 0xcc, 0x6a, 0x34, 0x3e, 0x84, 0x9b, 0xbd, 0x3e,
  0xee, 0x9a, 0x0e, 0xbe, 0x8e, 0x95, 0xd1, 0x3d, 0x83, 0x1c, 0xe2, 0xbe,
  0x24, 0xee, 0xa9, 0xbb, 0x0c, 0x9b, 0xc3, 0xbe, 0x02, 0x68, 0xf9, 0x3d,
  0xfd, 0x8f, 0x30, 0x3c, 0x69, 0x3d, 0x31, 0x3c, 0x34, 0x01, 0x28, 0x3d,
  0x11, 0x3c, 0x14, 0xbf, 0x64, 0x9c, 0xa8, 0xbe, 0xb6, 0x61, 0x28, 0x3e,
  0x11, 0xd9, 0xe0, 0xbd, 0x46, 0x7f, 0xbf, 0x3e, 0x85, 0x39, 0xbb, 0x3e,
  0x13, 0xdf, 0x59, 0x3e, 0xa2, 0x17, 0x90, 0xbd, 0x67, 0xeb, 0x92, 0x3d,
  0x73, 0x6b, 0x5a, 0x3e, 0xff, 0x83, 0x95, 0x3e, 0x7b, 0x9d, 0x93, 0x3e,
  0x24, 0xa6, 0x8d, 0xbd, 0x60, 0x4b, 0x66, 0xbe, 0x2f, 0x72, 0x72, 0xbe,
  0xb8, 0x15, 0xa9, 0x3e, 0xe2, 0x81, 0xa4, 0xbe, 0x1e, 0x62, 0x9a, 0x3e,
  0x79, 0xd7, 0x9d, 0xbe, 0x85, 0x79, 0x2e, 0xbe, 0xaf, 0x27, 0x2d, 0x3e,
  0xa3, 0xf9, 0xe7, 0x3c, 0xbc, 0x3b, 0xb9, 0x3e, 0x90, 0xba, 0x95, 0x3d,
  0xf6, 0x0b, 0xac, 0xbc, 0xa5, 0xb4, 0x8e, 0x3e, 0x5c, 0xc7, 0xb7, 0x3c,
  0xbe, 0xfe, 0x43, 0x3e, 0xdc, 0x3a, 0x17, 0xbe, 0x91, 0x32, 0x0e, 0xbe,
  0x5a, 0x2e, 0x7a, 0x3e, 0xe1, 0xd0, 0x04, 0x3e, 0x32, 0xba, 0x6f, 0x3e,
  0x38, 0x4c, 0xc4, 0xbc, 0x13, 0x9c, 0xb4, 0xbc, 0x0f, 0x70, 0x74, 0xbe,
  0x70, 0xbc, 0x8c, 0xbd, 0x0c, 0xf6, 0xdd, 0xbd, 0xd7, 0x99, 0x4a, 0x3e,
  0x9c, 0xc2, 0xb9, 0x3d, 0x65, 0x46, 0x81, 0xbe, 0xad, 0x4b, 0xec, 0xbd,
  0xb1, 0x59, 0x81, 0x3d, 0x1a, 0x44, 0x12, 0xbe, 0xcb, 0x48, 0x23, 0xbe,
  0x89, 0x7c, 0x05, 0xbe, 0x0e, 0x84, 0x78, 0xbe, 0x9b, 0x9b, 0xc1, 0xbe,
  0x37, 0x9b, 0x88, 0x3e, 0xfb, 0x4d, 0x9e, 0x3d, 0xb8, 0x90, 0x4f, 0xbe,
  0x84, 0x13, 0x84, 0x3e, 0xb4, 0x94, 0x95, 0xbe, 0x28, 0x95, 0xbb, 0xbe,
  0xae, 0x4f, 0x7f, 0xbe, 0x29, 0x1f, 0x8d, 0x3d, 0x71, 0x35, 0x71, 0xbd,
  0x04, 0xd3, 0xd8, 0x3e, 0x89, 0xa5, 0x18, 0xbd, 0xaf, 0x58, 0xa8, 0xbe,
  0x02, 0x3a, 0xa0, 0xbd, 0x5d, 0x22, 0xb9, 0x3e, 0x1d, 0xe8, 0x75, 0xbd,
  0x6c, 0x6c, 0xcb, 0x3e, 0xe2, 0x40, 0x8e, 0xbe, 0xaa, 0xb2, 0x55, 0xbc,
  0x9e, 0xb9, 0x12, 0x3e, 0x54, 0xaf, 0xf7, 0x3d, 0x58, 0xc7, 0x1e, 0x3e,
  0x82, 0xa3, 0xd0, 0xbd, 0xbd, 0xfe, 0x3b, 0x3e, 0x96, 0x98, 0x08, 0x3e,
  0x36, 0xa1, 0xdc, 0x3e, 0x44, 0x94, 0xa2, 0x3e, 0xe1, 0x56, 0x7f, 0xbe,
  0xb1, 0xd0, 0xf0, 0xbe, 0x6c, 0xd1, 0x9a, 0xbe, 0x46, 0xf3, 0x9b, 0xbe,
  0x50, 0xb3, 0x32, 0x3e, 0x00, 0x3f, 0x0f, 0x3f, 0x4d, 0x50, 0x5d, 0x3b,
  0x3d, 0x23, 0xb8, 0xbc, 0xb5, 0x7d, 0x26, 0xbd, 0x1c, 0x56, 0x3f, 0x3e,
  0x41, 0x92, 0x9d, 0xbe, 0xac, 0x2d, 0x82, 0x3e, 0x8b, 0xc5, 0x99, 0xbe,
  0x50, 0x51, 0xeb, 0xbe, 0xea, 0x2f, 0x42, 0xbd, 0x1d, 0xbb, 0xa9, 0x3e,
  0xc3, 0x0f, 0x40, 0xbd, 0xda, 0xdd, 0x1e, 0x3c, 0x26, 0xf1, 0x5f, 0x3e,
  0x8d, 0x4f, 0xa5, 0xbe, 0x64, 0x9e, 0xa6, 0xbe, 0x8b, 0x31, 0x6f, 0xbd,
  0x81, 0x22, 0x78, 0x3e, 0xef, 0x36, 0x07, 0xbe, 0x09, 0x1d, 0xdc, 0xbd,
  0x51, 0xd2, 0x09, 0xbe, 0x6b, 0x87, 0x85, 0xbe, 0x40, 0x4c, 0xf0, 0x3d,
  0x76, 0x9e, 0xa2, 0xbd, 0x40, 0x23, 0x48, 0x3d, 0xb2, 0x08, 0x47, 0xbe,
  0xe1, 0x34, 0x86, 0x3f, 0xc6, 0xd1, 0x5f, 0xbe, 0xd0, 0x3a, 0x1f, 0x3f,
  0xcc, 0x49, 0xb6, 0x3e, 0x4d, 0x37, 0x29, 0x3f, 0x5c, 0x3a, 0xc1, 0x39,
  0x3d, 0x4e, 0xfe, 0x3e, 0x3d, 0x93, 0x14, 0xbf, 0xdb, 0x82, 0xbc, 0x3d,
  0x5f, 0xee, 0x9d, 0x3e, 0x44, 0x47, 0x19, 0x3f, 0x46, 0x6c, 0xf0, 0xbc,
  0x54, 0x0f, 0x75, 0x3f, 0x4c, 0x7c, 0x68, 0x3e, 0x1f, 0x98, 0x07, 0x3f,
  0xe8, 0x1a, 0x2a, 0x3f, 0xb1, 0x21, 0x5a, 0x3f, 0x87, 0x9e, 0xfc, 0x3d,
  0xc7, 0x9f, 0x82, 0x3f, 0xa5, 0x0b, 0xca, 0x3e, 0x57, 0xe2, 0x16, 0x3e,
  0xf0, 0xca, 0x6b, 0x3f, 0xf1, 0x1a, 0x2d, 0x3f, 0x62, 0xe2, 0x0a, 0xbf,
  0xef, 0x40, 0x57, 0x3f, 0x9e, 0xa5, 0x22, 0x3e, 0xf1, 0x9e, 0x5c, 0x3e,
  0x37, 0x52, 0x0b, 0x3f, 0x51, 0x5a, 0x04, 0x3f, 0xe6, 0xae, 0x74, 0xbd,
  0x19, 0x26, 0x2e, 0xbd, 0x55, 0x5a, 0x58, 0xbb, 0x13, 0xfb, 0x08, 0x3e,
  0x34, 0x0f, 0x50, 0xbe, 0xe7, 0x1a, 0x09, 0xbe, 0x04, 0x70, 0x6e, 0x3e,
  0x7b, 0xca, 0xcf, 0x3d, 0xb8, 0x0b, 0x82, 0x3d, 0x4f, 0x16, 0x84, 0x3e,
  0x0c, 0x60, 0xc3, 0x3d, 0x1d, 0x34, 0x58, 0xbe, 0x02, 0x02, 0x17, 0x3e,
  0x25, 0x3a, 0xd3, 0x3e, 0xcd, 0xf3, 0x02, 0xbe, 0x7d, 0x1b, 0x45, 0xbe,
  0x1d, 0x9f, 0xcd, 0xbe, 0xad, 0x83, 0x5f, 0xbe, 0x33, 0xc0, 0x16, 0xbe,
  0x71, 0x4c, 0xe2, 0x3d, 0x58, 0xb6, 0x66, 0x3d, 0xd2, 0xbc, 0xb8, 0x3d,
  0x53, 0xda, 0xc8, 0x3c, 0xf4, 0xa5, 0xcc, 0x3d, 0xe3, 0x21, 0xc5, 0xbb,
  0xaf, 0x59, 0xd3, 0xbd, 0x27, 0xe3, 0x98, 0xbe, 0x6f, 0xcc, 0x97, 0x3d,
  0x05, 0x02, 0x24, 0xbe, 0xe0, 0x1c, 0x34, 0xbe, 0xd6, 0x8a, 0x00, 0x3e,
  0xf0, 0x7a, 0xc3, 0x3e, 0x45, 0x31, 0x56, 0x3d, 0x5d, 0xa6, 0xe2, 0x3d,
  0xe3, 0xbf, 0xea, 0x3e, 0xe7, 0x6e, 0x93, 0x3e, 0x73, 0x99, 0x0c, 0xbe,
  0xca, 0x9a, 0xfe, 0x3d, 0x48, 0x35, 0xa1, 0x3e, 0x44, 0xfd, 0x1a, 0xbc,
  0x52, 0xa9, 0x47, 0xbe, 0x6a, 0xd8, 0x00, 0xbe, 0x12, 0x88, 0x07, 0x3e,
  0x12, 0x17, 0x75, 0x3e, 0xff, 0xd8, 0x32, 0xbf, 0xb2, 0x39, 0x28, 0x3e,
  0x0e, 0x73, 0x4f, 0xbf, 0x44, 0x90, 0xa9, 0xbd, 0xfa, 0x2f, 0x28, 0xbe,
  0x29, 0x4b, 0xae, 0x3d, 0x8d, 0xe7, 0x77, 0xbd, 0x45, 0x5b, 0x23, 0x3f,
  0x26, 0xd2, 0x00, 0xbf, 0xcc, 0x2b, 0x4a, 0xbd, 0x80, 0x17, 0xfc, 0x3d,
  0xae, 0x9e, 0xc2, 0x3e, 0xc1, 0x79, 0x2e, 0x3e, 0x98, 0xe4, 0x9a, 0x3e,
  0x73, 0x3e, 0xd4, 0x3b, 0xfe, 0x78, 0x4a, 0x3e, 0x00, 0x2b, 0x22, 0xbd,
  0x7c, 0x9b, 0x39, 0x3d, 0xdb, 0x39, 0xfd, 0xbd, 0x89, 0x6c, 0xbd, 0xbe,
  0xca, 0xfc, 0x0d, 0x3d, 0x05, 0x63, 0xd7, 0x3d, 0x37, 0x8c, 0x62, 0xbd,
  0xb0, 0x71, 0x52, 0x3d, 0x2c, 0xba, 0xf3, 0x3e, 0xd0, 0x26, 0xbc, 0x3e,
  0xde, 0x02, 0x0b, 0xbd, 0xf6, 0xd7, 0x07, 0x3e, 0xb2, 0xc0, 0x35, 0x3d,
  0x23, 0x5b, 0x94, 0xbe, 0x7c, 0x5a, 0x18, 0x3e, 0x0c, 0xea, 0x1b, 0xbe,
  0xcc, 0xca, 0x70, 0x3a, 0x1b, 0x8a, 0x37, 0xbe, 0x5f, 0x21, 0x85, 0x3e,
  0xfe, 0x7b, 0xb7, 0x3e, 0x30, 0x19, 0x21, 0x3f, 0x0f, 0xd6, 0x49, 0x3e,
  0xe1, 0x82, 0x1d, 0x3f, 0x0b, 0x11, 0x2b, 0x3f, 0x48, 0x18, 0xa5, 0x3d,
  0x97, 0x7d, 0x91, 0xbd, 0xd0, 0x8a, 0x9b, 0xbe, 0x15, 0x9b, 0xc8, 0x3e,
  0x3e, 0x6b, 0x9f, 0x3e, 0xcb, 0x5d, 0xc5, 0x3e, 0x00, 0xe2, 0x90, 0xbd,
  0x96, 0x0f, 0xf8, 0x3e, 0x7b, 0x75, 0xa0, 0x3e, 0x9e, 0x6a, 0x32, 0x3f,
  0xa0, 0x12, 0x14, 0x3f, 0xb5, 0x71, 0x1d, 0x3f, 0xb8, 0x69, 0x10, 0xbe,
  0x59, 0x81, 0x88, 0xbc, 0xb4, 0x7f, 0x3d, 0x3e, 0x87, 0x2c, 0x43, 0x3f,
  0xb3, 0x28, 0x11, 0x3f, 0xd1, 0xd0, 0xf2, 0x3e, 0x11, 0x56, 0x32, 0xbe,
  0x5c, 0xe1, 0xf0, 0xbc, 0xd1, 0x9e, 0x8f, 0x3e, 0x43, 0xaf, 0x34, 0x3f,
  0xa9, 0x61, 0x06, 0x3f, 0x83, 0x1f, 0x49, 0x3e, 0xc4, 0x2a, 0x18, 0xbe,
  0x66, 0xd2, 0xd2, 0x3d, 0x46, 0x04, 0xdc, 0xbd, 0x32, 0x22, 0x53, 0x3d,
  0xc0, 0x5c, 0xea, 0xbd, 0x50, 0xf9, 0x53, 0x3e, 0x9f, 0x08, 0xde, 0xbd,
  0x01, 0x83, 0xd3, 0x3e, 0xaa, 0xf4, 0xc1, 0xbe, 0x96, 0xec, 0x3b, 0xbd,
  0xf6, 0xdc, 0x00, 0xbf, 0xe4, 0x7d, 0x19, 0xbe, 0x77, 0xf7, 0xac, 0xbd,
  0xf4, 0x28, 0x49, 0x3e, 0xe2, 0x15, 0x66, 0xbe, 0x5e, 0x78, 0x23, 0xbe,
  0x77, 0xd9, 0x52, 0xbe, 0xdb, 0x9f, 0x2e, 0xbd, 0x65, 0xf1, 0x7d, 0xbe,
  0xb6, 0x11, 0x1c, 0x3e, 0xb1, 0xc2, 0xc7, 0x3c, 0x6d, 0x99, 0xd4, 0xbe,
  0x10, 0xe2, 0x35, 0xbe, 0x4a, 0xf8, 0x1c, 0xbe, 0xde, 0x8c, 0x87, 0xbe,
  0x47, 0xeb, 0x38, 0x3e, 0x5d, 0xe4, 0x29, 0x3e, 0xa5, 0x9c, 0xab, 0x3b,
  0x09, 0x0e, 0xd6, 0xbe, 0xc3, 0x79, 0xff, 0x3b, 0xe7, 0x5a, 0x88, 0xbe,
  0x23, 0x69, 0xb4, 0x3e, 0x2d, 0xdc, 0x2f, 0x3f, 0xcd, 0x88, 0x2b, 0xbe,
  0x8b, 0xec, 0x88, 0xbe, 0x8d, 0x03, 0xd8, 0x3d, 0x8f, 0xeb, 0x8a, 0xbe,
  0x6c, 0x58, 0xd5, 0xbd, 0x15, 0xc3, 0x96, 0xbe, 0x8c, 0xa8, 0x2c, 0xbe,
  0x46, 0xee, 0x03, 0xbd, 0x7a, 0xc5, 0x8a, 0x3d, 0x5e, 0x7b, 0x3c, 0x3e,
  0xb2, 0x0e, 0xdf, 0x3d, 0x93, 0x19, 0x43, 0xbe, 0x5c, 0xf2, 0x8a, 0xbe,
  0x66, 0x90, 0xa4, 0x3e, 0x84, 0x71, 0x76, 0x3e, 0x9a, 0x8c, 0x81, 0xbe,
  0xed, 0x7c, 0x8c, 0xbe, 0x2d, 0xa9, 0x77, 0xbe, 0x3b, 0x93, 0x92, 0xbc,
  0x8d, 0x08, 0x91, 0x3e, 0xd6, 0x66, 0x7b, 0x3d, 0x14, 0x57, 0x67, 0xbe,
  0x20, 0xb1, 0xca, 0x3d, 0x3f, 0xe8, 0x9d, 0x3e, 0x15, 0xf9, 0xd8, 0x3e,
  0x56, 0x37, 0xb3, 0x3e, 0xc5, 0x39, 0x03, 0x3e, 0x5d, 0x5b, 0x7f, 0x3e,
  0x50, 0x5e, 0x3f, 0x3e, 0x2f, 0x16, 0x80, 0xbe, 0x7d, 0xcd, 0x91, 0x3d,
  0xed, 0xb3, 0x65, 0x3e, 0x32, 0x00, 0xf8, 0xbc, 0x8f, 0xb7, 0x6a, 0x3e,
  0x4b, 0x74, 0xac, 0x3c, 0x0e, 0xe2, 0xf2, 0x3d, 0xbd, 0xa4, 0xbc, 0x3e,
  0xe1, 0x9c, 0xdd, 0x3d, 0xb4, 0x35, 0xa6, 0x3e, 0x3c, 0x36, 0x90, 0x3e,
  0xd8, 0xa5, 0x42, 0xbe, 0x89, 0xf4, 0x62, 0x3e, 0x1a, 0xfc, 0x14, 0xbe,
  0x5d, 0xa3, 0xbf, 0xbb, 0x02, 0xe0, 0x93, 0x3e, 0xf5, 0x93, 0x52, 0x3c,
  0x34, 0x48, 0xaf, 0x3d, 0x2a, 0x13, 0x14, 0xbf, 0x85, 0x8c, 0x48, 0xbb,
  0x84, 0xe3, 0x10, 0xbf, 0x1b, 0xc6, 0x40, 0xbf, 0x8f, 0x4b, 0x78, 0xbe,
  0x1c, 0xa5, 0x5f, 0xbe, 0xd1, 0x12, 0x3b, 0x3e, 0x3f, 0xc1, 0x0e, 0x3f,
  0x6e, 0xa3, 0x1c, 0xbe, 0x23, 0x99, 0x6a, 0xbe, 0x98, 0x53, 0x07, 0xbe,
  0x9a, 0x27, 0x83, 0xbe, 0x1e, 0x82, 0x96, 0x3e, 0x5e, 0x9c, 0x50, 0x3d,
  0xf8, 0x2e, 0xf9, 0xbd, 0x2c, 0x05, 0x1f, 0xbd, 0xc5, 0x15, 0x26, 0x3e,
  0x08, 0x47, 0xb5, 0x3d, 0x5b, 0xf8, 0x72, 0xbe, 0x72, 0x10, 0x8b, 0xbd,
  0x06, 0xbf, 0x1d, 0xbf, 0x74, 0x8b, 0x22, 0xbe, 0xb7, 0x54, 0x73, 0x3d,
  0xa9, 0xbb, 0x20, 0xbe, 0xc8, 0x26, 0xc0, 0x3e, 0xf0, 0x77, 0x10, 0xbe,
  0xfc, 0xa2, 0xf2, 0xbd, 0xcc, 0x75, 0xa7, 0xbe, 0x27, 0xd2, 0x3e, 0x3e,
  0x23, 0x47, 0xf5, 0x3c, 0x36, 0x14, 0x7d, 0xbe, 0x12, 0xa3, 0xda, 0xbd,
  0xb7, 0xd3, 0xbd, 0x3d, 0xc3, 0xd1, 0xdc, 0xbd, 0x49, 0xd3, 0x55, 0xbe,
  0x4f, 0x4d, 0x8a, 0x3e, 0xf8, 0x87, 0xb7, 0xbe, 0x7d, 0x0a, 0xff, 0xbe,
  0x75, 0x92, 0x7b, 0xbd, 0xe0, 0x8e, 0x98, 0xbe, 0x94, 0x88, 0x5e, 0xbe,
  0x1d, 0x95, 0x0b, 0x3e, 0x64, 0x3e, 0x6b, 0xbe, 0xe1, 0xfa, 0xbe, 0xbe,
  0x66, 0x1f, 0x96, 0x3d, 0xc1, 0xbb, 0xa0, 0x3d, 0x2d, 0xb3, 0xa5, 0xbc,
  0x2b, 0x54, 0xbf, 0xbc, 0xad, 0xbb, 0x86, 0xbe, 0xc5, 0x6f, 0x2b, 0xbf,
  0x94, 0x46, 0x74, 0xbd, 0x16, 0x8c, 0x98, 0xbe, 0x43, 0x8a, 0x3a, 0x3e,
  0xe5, 0x2c, 0x66, 0xbd, 0x19, 0xb8, 0xf3, 0x3d, 0x3c, 0x0f, 0x87, 0xbd,
  0xc9, 0x59, 0x88, 0xbd, 0x6a, 0xcc, 0x81, 0xbe, 0x8f, 0xa5, 0x42, 0xbe,
  0x4d, 0x12, 0x53, 0x3e, 0x75, 0xce, 0x0a, 0x3e, 0xac, 0xd9, 0x93, 0xbd,
  0xfb, 0xcb, 0xa6, 0xbe, 0xc1, 0x13, 0xa8, 0x3d, 0x3f, 0x0e, 0x96, 0x3e,
  0xd8, 0x89, 0x0f, 0x3e, 0x49, 0xac, 0x16, 0x3e, 0xf4, 0x14, 0x6a, 0x3e,
  0xef, 0x8a, 0x49, 0xbd, 0x03, 0x66, 0x31, 0x3d, 0x36, 0x1c, 0x3d, 0xbe,
  0x4f, 0x77, 0xc5, 0x3e, 0xf9, 0xc3, 0x74, 0xbe, 0x63, 0x06, 0x34, 0x3e,
  0x84, 0x82, 0x12, 0xbf, 0x9b, 0xfe, 0x40, 0xbe, 0x13, 0xff, 0x39, 0xbe,
  0x58, 0x77, 0x94, 0x3e, 0xb4, 0xff, 0xd9, 0xbd, 0xc2, 0xdf, 0xff, 0x3d,
  0xf0, 0xb7, 0x92, 0xbe, 0xa9, 0x0f, 0x14, 0xbe, 0x1e, 0x30, 0x5a, 0xbe,
  0x9f, 0xcf, 0x29, 0x3e, 0x2f, 0x41, 0x67, 0xbe, 0xc1, 0x85, 0x6f, 0xbe,
  0xe2, 0x44, 0x42, 0x3e, 0xca, 0x38, 0x29, 0x3d, 0xfe, 0xbf, 0x91, 0x3e,
  0x43, 0x4c, 0x8f, 0x3e, 0xe1, 0xe4, 0xd3, 0xbc, 0x56, 0x27, 0x18, 0xbf,
  0x5f, 0x59, 0xb0, 0xbe, 0x67, 0x2d, 0xf3, 0xbc, 0x6c, 0x2a, 0xbd, 0x3e,
  0x5c, 0xa5, 0x16, 0x3f, 0x1f, 0xfb, 0x3b, 0x3f, 0x20, 0x9b, 0x6b, 0x3e,
  0x2d, 0x95, 0x56, 0x3e, 0x39, 0x81, 0xe5, 0x3e, 0x8d, 0x8e, 0x77, 0xbe,
  0x1f, 0x33, 0xa1, 0x3e, 0x1c, 0xdd, 0x2f, 0xbe, 0x45, 0xf0, 0x73, 0xbe,
  0xdc, 0x05, 0x08, 0x3e, 0x8d, 0xd8, 0x65, 0x3d, 0x18, 0xa4, 0x6e, 0xbe,
  0x20, 0x05, 0x3b, 0xbf, 0xc6, 0xe1, 0xa1, 0x3d, 0xa9, 0xaa, 0xa3, 0xbe,
  0x20, 0x83, 0xf5, 0xbe, 0x80, 0x56, 0xc7, 0xbe, 0xa6, 0x43, 0x2d, 0x3e,
  0xb1, 0xbd, 0xde, 0xbe, 0xbd, 0x02, 0x8f, 0xbc, 0x73, 0xd9, 0xac, 0xbe,
  0xa0, 0x00, 0xaa, 0x3e, 0x1f, 0x52, 0x89, 0xbe, 0x38, 0x3b, 0x18, 0xbe,
  0xce, 0x98, 0x19, 0xbf, 0xad, 0xfb, 0x8c, 0x3d, 0xb1, 0x2d, 0x66, 0xbe,
  0x0e, 0x74, 0x16, 0xbf, 0x67, 0x38, 0x12, 0xbf, 0x4e, 0x42, 0xb2, 0xbe,
  0xc1, 0x6a, 0xf7, 0xbe, 0x26, 0xf1, 0x8f, 0xbb, 0x0a, 0x2a, 0x70, 0x3d,
  0xab, 0x5a, 0x48, 0xbe, 0x9b, 0xf1, 0x12, 0x3e, 0x8e, 0x40, 0xb4, 0xbe,
  0x74, 0xa2, 0x16, 0xbe, 0xc2, 0x9c, 0xe7, 0xbd, 0x90, 0x7d, 0xd6, 0xbe,
  0x2f, 0xa4, 0x99, 0xbe, 0x33, 0x44, 0x2b, 0xbe, 0xd3, 0x1d, 0x98, 0xbd,
  0xe3, 0x20, 0x81, 0x3e, 0xb9, 0xa0, 0x79, 0xbe, 0x18, 0x1d, 0x01, 0xbe,
  0x64, 0x31, 0x8e, 0x3e, 0x1b, 0x0d, 0x41, 0xbe, 0x99, 0xb8, 0xc0, 0x3d,
  0x22, 0xff, 0xff, 0xff, 0x10, 0x00, 0x00, 0x00, 0x04, 0x00, 0x00, 0x00,
  0x14, 0x00, 0x00, 0x00, 0x24, 0x00, 0x00, 0x00, 0x02, 0x00, 0x00, 0x00,
  0x10, 0x00, 0x00, 0x00, 0x24, 0x00, 0x00, 0x00, 0x0c, 0x00, 0x00, 0x00,
  0x73, 0x74, 0x64, 0x2e, 0x63, 0x6f, 0x6e, 0x73, 0x74, 0x61, 0x6e, 0x74,
  0x00, 0x00, 0x00, 0x00, 0xa8, 0xfe, 0xff, 0xff, 0x7a, 0xff, 0xff, 0xff,
  0x04, 0x00, 0x00, 0x00, 0x40, 0x00, 0x00, 0x00, 0x43, 0x0b, 0x66, 0x3d,
  0xc4, 0x01, 0xc4, 0xbd, 0xc1, 0x57, 0xff, 0x3e, 0x76, 0xf9, 0x01, 0xbe,
  0x66, 0xfc, 0x0c, 0xbd, 0x66, 0x7e, 0xe5, 0x3d, 0x86, 0x25, 0x5b, 0x3d,
  0x13, 0x77, 0xaa, 0x3b, 0x05, 0xab, 0x5e, 0xbe, 0x57, 0xfa, 0xd8, 0xbb,
  0x3b, 0xac, 0xda, 0xbd, 0xeb, 0x68, 0x93, 0xbd, 0x11, 0x8d, 0x13, 0xbe,
  0x6d, 0xae, 0xcd, 0xbb, 0xa9, 0x6e, 0xd2, 0xbd, 0xce, 0x52, 0x7f, 0x3d,
  0xa6, 0xff, 0xff, 0xff, 0x10, 0x00, 0x00, 0x00, 0x03, 0x00, 0x00, 0x00,
  0x10, 0x00, 0x00, 0x00, 0x24, 0x00, 0x00, 0x00, 0x01, 0x00, 0x00, 0x00,
  0x10, 0x00, 0x00, 0x00, 0x0c, 0x00, 0x00, 0x00, 0x64, 0x65, 0x6e, 0x73,
  0x65, 0x5f, 0x32, 0x2f, 0x62, 0x69, 0x61, 0x73, 0x00, 0x00, 0x00, 0x00,
  0x04, 0x00, 0x06, 0x00, 0x04, 0x00, 0x00, 0x00, 0x00, 0x00, 0x06, 0x00,
  0x08, 0x00, 0x04, 0x00, 0x06, 0x00, 0x00, 0x00, 0x04, 0x00, 0x00, 0x00,
  0x0c, 0x00, 0x00, 0x00, 0x1c, 0x03, 0x06, 0xbe, 0xb2, 0x66, 0xf0, 0x3d,
  0xd9, 0x8e, 0x2d, 0x3d, 0x00, 0x00, 0x0e, 0x00, 0x14, 0x00, 0x04, 0x00,
  0x00, 0x00, 0x08, 0x00, 0x0c, 0x00, 0x10, 0x00, 0x0e, 0x00, 0x00, 0x00,
  0x10, 0x00, 0x00, 0x00, 0x02, 0x00, 0x00, 0x00, 0x10, 0x00, 0x00, 0x00,
  0x20, 0x00, 0x00, 0x00, 0x01, 0x00, 0x00, 0x00, 0x03, 0x00, 0x00, 0x00,
  0x0c, 0x00, 0x00, 0x00, 0x64, 0x65, 0x6e, 0x73, 0x65, 0x5f, 0x33, 0x2f,
  0x62, 0x69, 0x61, 0x73, 0x00, 0x00, 0x00, 0x00, 0x90, 0xff, 0xff, 0xff,
  0x14, 0x00, 0x18, 0x00, 0x04, 0x00, 0x00, 0x00, 0x08, 0x00, 0x0c, 0x00,
  0x10, 0x00, 0x00, 0x00, 0x00, 0x00, 0x14, 0x00, 0x14, 0x00, 0x00, 0x00,
  0x14, 0x00, 0x00, 0x00, 0x01, 0x00, 0x00, 0x00, 0x18, 0x00, 0x00, 0x00,
  0x44, 0x00, 0x00, 0x00, 0x34, 0x00, 0x00, 0x00, 0x02, 0x00, 0x00, 0x00,
  0x01, 0x00, 0x00, 0x00, 0x24, 0x00, 0x00, 0x00, 0x1f, 0x00, 0x00, 0x00,
  0x73, 0x65, 0x72, 0x76, 0x69, 0x6e, 0x67, 0x5f, 0x64, 0x65, 0x66, 0x61,
  0x75, 0x6c, 0x74, 0x5f, 0x64, 0x65, 0x6e, 0x73, 0x65, 0x5f, 0x32, 0x5f,
  0x69, 0x6e, 0x70, 0x75, 0x74, 0x3a, 0x30, 0x00, 0x02, 0x00, 0x00, 0x00,
  0xff, 0xff, 0xff, 0xff, 0x24, 0x00, 0x00, 0x00, 0xfc, 0xff, 0xff, 0xff,
  0x04, 0x00, 0x04, 0x00, 0x04, 0x00, 0x00, 0x00
};
unsigned int models_model_no_quant_tflite_len = 3956;
