unsigned char models_model_no_quant_tflite[] = {
  0x1c, 0x00, 0x00, 0x00, 0x54, 0x46, 0x4c, 0x33, 0x14, 0x00, 0x20, 0x00,
  0x04, 0x00, 0x08, 0x00, 0x0c, 0x00, 0x10, 0x00, 0x14, 0x00, 0x00, 0x00,
  0x18, 0x00, 0x1c, 0x00, 0x14, 0x00, 0x00, 0x00, 0x03, 0x00, 0x00, 0x00,
  0x18, 0x00, 0x00, 0x00, 0x1c, 0x00, 0x00, 0x00, 0x4c, 0x01, 0x00, 0x00,
  0x1c, 0x00, 0x00, 0x00, 0xf4, 0x00, 0x00, 0x00, 0x60, 0x00, 0x00, 0x00,
  0x01, 0x00, 0x00, 0x00, 0x68, 0x04, 0x00, 0x00, 0x01, 0x00, 0x00, 0x00,
  0x54, 0x01, 0x00, 0x00, 0x12, 0x00, 0x00, 0x00, 0x44, 0x16, 0x00, 0x00,
  0x40, 0x16, 0x00, 0x00, 0x70, 0x15, 0x00, 0x00, 0x08, 0x15, 0x00, 0x00,
  0xa4, 0x14, 0x00, 0x00, 0x38, 0x14, 0x00, 0x00, 0xb8, 0x13, 0x00, 0x00,
  0x70, 0x0a, 0x00, 0x00, 0xa8, 0x07, 0x00, 0x00, 0x20, 0x06, 0x00, 0x00,
  0x18, 0x05, 0x00, 0x00, 0x88, 0x04, 0x00, 0x00, 0x14, 0x16, 0x00, 0x00,
  0x10, 0x16, 0x00, 0x00, 0x0c, 0x16, 0x00, 0x00, 0x08, 0x16, 0x00, 0x00,
  0x04, 0x16, 0x00, 0x00, 0xc8, 0x00, 0x00, 0x00, 0x01, 0x00, 0x00, 0x00,
  0x10, 0x00, 0x00, 0x00, 0x0c, 0x00, 0x14, 0x00, 0x10, 0x00, 0x0c, 0x00,
  0x08, 0x00, 0x04, 0x00, 0x0c, 0x00, 0x00, 0x00, 0x10, 0x00, 0x00, 0x00,
  0x18, 0x00, 0x00, 0x00, 0x28, 0x00, 0x00, 0x00, 0x2c, 0x00, 0x00, 0x00,
  0x05, 0x00, 0x00, 0x00, 0x73, 0x65, 0x72, 0x76, 0x65, 0x00, 0x00, 0x00,
  0x0f, 0x00, 0x00, 0x00, 0x73, 0x65, 0x72, 0x76, 0x69, 0x6e, 0x67, 0x5f,
  0x64, 0x65, 0x66, 0x61, 0x75, 0x6c, 0x74, 0x00, 0x01, 0x00, 0x00, 0x00,
  0x14, 0x00, 0x00, 0x00, 0x01, 0x00, 0x00, 0x00, 0x24, 0x00, 0x00, 0x00,
  0x08, 0x00, 0x0c, 0x00, 0x08, 0x00, 0x04, 0x00, 0x08, 0x00, 0x00, 0x00,
  0x0f, 0x00, 0x00, 0x00, 0x04, 0x00, 0x00, 0x00, 0x07, 0x00, 0x00, 0x00,
  0x64, 0x65, 0x6e, 0x73, 0x65, 0x5f, 0x34, 0x00, 0x4e, 0xeb, 0xff, 0xff,
  0x04, 0x00, 0x00, 0x00, 0x0b, 0x00, 0x00, 0x00, 0x64, 0x65, 0x6e, 0x73,
  0x65, 0x5f, 0x69, 0x6e, 0x70, 0x75, 0x74, 0x00, 0x01, 0x00, 0x00, 0x00,
  0x0c, 0x00, 0x00, 0x00, 0x08, 0x00, 0x0c, 0x00, 0x04, 0x00, 0x08, 0x00,
  0x08, 0x00, 0x00, 0x00, 0x08, 0x00, 0x00, 0x00, 0x11, 0x00, 0x00, 0x00,
  0x13, 0x00, 0x00, 0x00, 0x6d, 0x69, 0x6e, 0x5f, 0x72, 0x75, 0x6e, 0x74,
  0x69, 0x6d, 0x65, 0x5f, 0x76, 0x65, 0x72, 0x73, 0x69, 0x6f, 0x6e, 0x00,
  0x9a, 0xeb, 0xff, 0xff, 0x04, 0x00, 0x00, 0x00, 0x10, 0x00, 0x00, 0x00,
  0x31, 0x2e, 0x35, 0x2e, 0x30, 0x00, 0x00, 0x00, 0x00, 0x00, 0x00, 0x00,
  0x00, 0x00, 0x00, 0x00, 0x0f, 0x00, 0x00, 0x00, 0x4d, 0x4c, 0x49, 0x52,
  0x20, 0x43, 0x6f, 0x6e, 0x76, 0x65, 0x72, 0x74, 0x65, 0x64, 0x2e, 0x00,
  0x00, 0x00, 0x0e, 0x00, 0x18, 0x00, 0x04, 0x00, 0x08, 0x00, 0x0c, 0x00,
  0x10, 0x00, 0x14, 0x00, 0x0e, 0x00, 0x00, 0x00, 0x14, 0x00, 0x00, 0x00,
  0x54, 0x00, 0x00, 0x00, 0x58, 0x00, 0x00, 0x00, 0x5c, 0x00, 0x00, 0x00,
  0x70, 0x00, 0x00, 0x00, 0x10, 0x00, 0x00, 0x00, 0x80, 0x14, 0x00, 0x00,
  0x34, 0x14, 0x00, 0x00, 0xc8, 0x13, 0x00, 0x00, 0x6c, 0x13, 0x00, 0x00,
  0x08, 0x13, 0x00, 0x00, 0xa0, 0x12, 0x00, 0x00, 0x18, 0x12, 0x00, 0x00,
  0xd0, 0x08, 0x00, 0x00, 0x08, 0x06, 0x00, 0x00, 0x80, 0x04, 0x00, 0x00,
  0x78, 0x03, 0x00, 0x00, 0xd4, 0x02, 0x00, 0x00, 0x18, 0x02, 0x00, 0x00,
  0x80, 0x01, 0x00, 0x00, 0xf8, 0x00, 0x00, 0x00, 0x6c, 0x00, 0x00, 0x00,
  0x01, 0x00, 0x00, 0x00, 0x00, 0x00, 0x00, 0x00, 0x01, 0x00, 0x00, 0x00,
  0x0f, 0x00, 0x00, 0x00, 0x05, 0x00, 0x00, 0x00, 0x54, 0x02, 0x00, 0x00,
  0xbc, 0x01, 0x00, 0x00, 0x24, 0x01, 0x00, 0x00, 0x9c, 0x00, 0x00, 0x00,
  0x10, 0x00, 0x00, 0x00, 0x04, 0x00, 0x00, 0x00, 0x6d, 0x61, 0x69, 0x6e,
  0x00, 0x00, 0x00, 0x00, 0x6e, 0xfe, 0xff, 0xff, 0x00, 0x00, 0x00, 0x08,
  0x1c, 0x00, 0x00, 0x00, 0x10, 0x00, 0x00, 0x00, 0x04, 0x00, 0x00, 0x00,
  0xca, 0xfd, 0xff, 0xff, 0x00, 0x00, 0x00, 0x01, 0x01, 0x00, 0x00, 0x00,
  0x0f, 0x00, 0x00, 0x00, 0x03, 0x00, 0x00, 0x00, 0x0e, 0x00, 0x00, 0x00,
  0x0a, 0x00, 0x00, 0x00, 0x01, 0x00, 0x00, 0x00, 0x3c, 0xec, 0xff, 0xff,
  0x14, 0x00, 0x00, 0x00, 0x10, 0x00, 0x00, 0x00, 0x18, 0x00, 0x00, 0x00,
  0x40, 0x00, 0x00, 0x00, 0x30, 0x00, 0x00, 0x00, 0x02, 0x00, 0x00, 0x00,
  0x01, 0x00, 0x00, 0x00, 0x03, 0x00, 0x00, 0x00, 0x19, 0x00, 0x00, 0x00,
  0x53, 0x74, 0x61, 0x74, 0x65, 0x66, 0x75, 0x6c, 0x50, 0x61, 0x72, 0x74,
  0x69, 0x74, 0x69, 0x6f, 0x6e, 0x65, 0x64, 0x43, 0x61, 0x6c, 0x6c, 0x3a,
  0x30, 0x00, 0x00, 0x00, 0x02, 0x00, 0x00, 0x00, 0xff, 0xff, 0xff, 0xff,
  0x03, 0x00, 0x00, 0x00, 0x20, 0xec, 0xff, 0xff, 0xf6, 0xfe, 0xff, 0xff,
  0x00, 0x00, 0x00, 0x08, 0x1c, 0x00, 0x00, 0x00, 0x10, 0x00, 0x00, 0x00,
  0x04, 0x00, 0x00, 0x00, 0x52, 0xfe, 0xff, 0xff, 0x00, 0x00, 0x00, 0x01,
  0x01, 0x00, 0x00, 0x00, 0x0e, 0x00, 0x00, 0x00, 0x03, 0x00, 0x00, 0x00,
  0x0d, 0x00, 0x00, 0x00, 0x09, 0x00, 0x00, 0x00, 0x02, 0x00, 0x00, 0x00,
  0xc4, 0xec, 0xff, 0xff, 0x14, 0x00, 0x00, 0x00, 0x0f, 0x00, 0x00, 0x00,
  0x18, 0x00, 0x00, 0x00, 0x3c, 0x00, 0x00, 0x00, 0x2c, 0x00, 0x00, 0x00,
  0x02, 0x00, 0x00, 0x00, 0x01, 0x00, 0x00, 0x00, 0x06, 0x00, 0x00, 0x00,
  0x14, 0x00, 0x00, 0x00, 0x74, 0x66, 0x6c, 0x2e, 0x66, 0x75, 0x6c, 0x6c,
  0x79, 0x5f, 0x63, 0x6f, 0x6e, 0x6e, 0x65, 0x63, 0x74, 0x65, 0x64, 0x33,
  0x00, 0x00, 0x00, 0x00, 0x02, 0x00, 0x00, 0x00, 0xff, 0xff, 0xff, 0xff,
  0x06, 0x00, 0x00, 0x00, 0xa4, 0xec, 0xff, 0xff, 0x7a, 0xff, 0xff, 0xff,
  0x00, 0x00, 0x00, 0x08, 0x1c, 0x00, 0x00, 0x00, 0x10, 0x00, 0x00, 0x00,
  0x04, 0x00, 0x00, 0x00, 0xd6, 0xfe, 0xff, 0xff, 0x00, 0x00, 0x00, 0x01,
  0x01, 0x00, 0x00, 0x00, 0x0d, 0x00, 0x00, 0x00, 0x03, 0x00, 0x00, 0x00,
  0x0c, 0x00, 0x00, 0x00, 0x08, 0x00, 0x00, 0x00, 0x03, 0x00, 0x00, 0x00,
  0x48, 0xed, 0xff, 0xff, 0x14, 0x00, 0x00, 0x00, 0x0e, 0x00, 0x00, 0x00,
  0x18, 0x00, 0x00, 0x00, 0x3c, 0x00, 0x00, 0x00, 0x2c, 0x00, 0x00, 0x00,
  0x02, 0x00, 0x00, 0x00, 0x01, 0x00, 0x00, 0x00, 0x08, 0x00, 0x00, 0x00,
  0x14, 0x00, 0x00, 0x00, 0x74, 0x66, 0x6c, 0x2e, 0x66, 0x75, 0x6c, 0x6c,
  0x79, 0x5f, 0x63, 0x6f, 0x6e, 0x6e, 0x65, 0x63, 0x74, 0x65, 0x64, 0x32,
  0x00, 0x00, 0x00, 0x00, 0x02, 0x00, 0x00, 0x00, 0xff, 0xff, 0xff, 0xff,
  0x08, 0x00, 0x00, 0x00, 0x00, 0xee, 0xff, 0xff, 0x00, 0x00, 0x0e, 0x00,
  0x14, 0x00, 0x00, 0x00, 0x08, 0x00, 0x0c, 0x00, 0x07, 0x00, 0x10, 0x00,
  0x0e, 0x00, 0x00, 0x00, 0x00, 0x00, 0x00, 0x08, 0x1c, 0x00, 0x00, 0x00,
  0x10, 0x00, 0x00, 0x00, 0x04, 0x00, 0x00, 0x00, 0x6a, 0xff, 0xff, 0xff,
  0x00, 0x00, 0x00, 0x01, 0x01, 0x00, 0x00, 0x00, 0x0c, 0x00, 0x00, 0x00,
  0x03, 0x00, 0x00, 0x00, 0x0b, 0x00, 0x00, 0x00, 0x07, 0x00, 0x00, 0x00,
  0x04, 0x00, 0x00, 0x00, 0xdc, 0xed, 0xff, 0xff, 0x14, 0x00, 0x00, 0x00,
  0x0d, 0x00, 0x00, 0x00, 0x18, 0x00, 0x00, 0x00, 0x3c, 0x00, 0x00, 0x00,
  0x2c, 0x00, 0x00, 0x00, 0x02, 0x00, 0x00, 0x00, 0x01, 0x00, 0x00, 0x00,
  0x0a, 0x00, 0x00, 0x00, 0x14, 0x00, 0x00, 0x00, 0x74, 0x66, 0x6c, 0x2e,
  0x66, 0x75, 0x6c, 0x6c, 0x79, 0x5f, 0x63, 0x6f, 0x6e, 0x6e, 0x65, 0x63,
  0x74, 0x65, 0x64, 0x31, 0x00, 0x00, 0x00, 0x00, 0x02, 0x00, 0x00, 0x00,
  0xff, 0xff, 0xff, 0xff, 0x0a, 0x00, 0x00, 0x00, 0x94, 0xee, 0xff, 0xff,
  0x00, 0x00, 0x0e, 0x00, 0x16, 0x00, 0x00, 0x00, 0x08, 0x00, 0x0c, 0x00,
  0x07, 0x00, 0x10, 0x00, 0x0e, 0x00, 0x00, 0x00, 0x00, 0x00, 0x00, 0x08,
  0x24, 0x00, 0x00, 0x00, 0x18, 0x00, 0x00, 0x00, 0x0c, 0x00, 0x00, 0x00,
  0x00, 0x00, 0x06, 0x00, 0x08, 0x00, 0x07, 0x00, 0x06, 0x00, 0x00, 0x00,
  0x00, 0x00, 0x00, 0x01, 0x01, 0x00, 0x00, 0x00, 0x0b, 0x00, 0x00, 0x00,
  0x03, 0x00, 0x00, 0x00, 0x00, 0x00, 0x00, 0x00, 0x06, 0x00, 0x00, 0x00,
  0x05, 0x00, 0x00, 0x00, 0x0c, 0x00, 0x10, 0x00, 0x0b, 0x00, 0x00, 0x00,
  0x0c, 0x00, 0x04, 0x00, 0x0c, 0x00, 0x00, 0x00, 0x09, 0x00, 0x00, 0x00,
  0x00, 0x00, 0x00, 0x09, 0x01, 0x00, 0x00, 0x00, 0x94, 0xee, 0xff, 0xff,
  0x14, 0x00, 0x00, 0x00, 0x0c, 0x00, 0x00, 0x00, 0x18, 0x00, 0x00, 0x00,
  0x38, 0x00, 0x00, 0x00, 0x28, 0x00, 0x00, 0x00, 0x02, 0x00, 0x00, 0x00,
  0x01, 0x00, 0x00, 0x00, 0x10, 0x00, 0x00, 0x00, 0x13, 0x00, 0x00, 0x00,
  0x74, 0x66, 0x6c, 0x2e, 0x66, 0x75, 0x6c, 0x6c, 0x79, 0x5f, 0x63, 0x6f,
  0x6e, 0x6e, 0x65, 0x63, 0x74, 0x65, 0x64, 0x00, 0x02, 0x00, 0x00, 0x00,
  0xff, 0xff, 0xff, 0xff, 0x10, 0x00, 0x00, 0x00, 0x70, 0xee, 0xff, 0xff,
  0x42, 0xef, 0xff, 0xff, 0x04, 0x00, 0x00, 0x00, 0x48, 0x00, 0x00, 0x00,
  0xa8, 0x4c, 0xc4, 0x3e, 0xc6, 0xed, 0x01, 0xbf, 0x2c, 0x47, 0x18, 0xbe,
  0x74, 0x54, 0x81, 0xbe, 0x83, 0x99, 0xc5, 0xbe, 0xf1, 0xe2, 0xfd, 0xbe,
  0x6f, 0x43, 0x35, 0xbf, 0x68, 0x4c, 0xf9, 0x3e, 0xe9, 0x5a, 0xa8, 0xbd,
  0x94, 0x77, 0x86, 0x3e, 0x69, 0x86, 0xc0, 0x3d, 0x0f, 0x90, 0x81, 0x3e,
  0xa1, 0x5e, 0x1c, 0xbf, 0xd0, 0xc4, 0xaa, 0x3e, 0x97, 0xda, 0x32, 0xbf,
  0x90, 0x8f, 0x1c, 0xbf, 0xe5, 0x36, 0x62, 0x3e, 0xa7, 0x3d, 0x2c, 0xbd,
  0x76, 0xef, 0xff, 0xff, 0x10, 0x00, 0x00, 0x00, 0x0b, 0x00, 0x00, 0x00,
  0x14, 0x00, 0x00, 0x00, 0x24, 0x00, 0x00, 0x00, 0x02, 0x00, 0x00, 0x00,
  0x03, 0x00, 0x00, 0x00, 0x06, 0x00, 0x00, 0x00, 0x0d, 0x00, 0x00, 0x00,
  0x73, 0x74, 0x64, 0x2e, 0x63, 0x6f, 0x6e, 0x73, 0x74, 0x61, 0x6e, 0x74,
  0x34, 0x00, 0x00, 0x00, 0xfc, 0xee, 0xff, 0xff, 0xce, 0xef, 0xff, 0xff,
  0x04, 0x00, 0x00, 0x00, 0xc0, 0x00, 0x00, 0x00, 0x35, 0xae, 0xab, 0xbe,
  0x7a, 0x46, 0x98, 0xbe, 0xfc, 0x7e, 0x1d, 0xbf, 0x90, 0x35, 0xbc, 0x3e,
  0x2b, 0x98, 0xa2, 0xbe, 0x40, 0xa3, 0x86, 0xbe, 0x41, 0xe0, 0x2a, 0xbf,
  0x74, 0x85, 0xf6, 0x3e, 0x07, 0x1e, 0xaf, 0xbe, 0x50, 0xa1, 0x1e, 0x3e,
  0x78, 0x0f, 0x79, 0x3e, 0x10, 0x33, 0x0c, 0xbd, 0xc8, 0x3d, 0x97, 0xbd,
  0xe0, 0x9f, 0x10, 0xbf, 0xd1, 0x75, 0x96, 0xbe, 0xd2, 0x67, 0xf3, 0xbe,
  0x81, 0x68, 0xaa, 0x3d, 0xe5, 0x5a, 0xb4, 0xbe, 0x73, 0x4b, 0x80, 0x3e,
  0xfb, 0xad, 0xc1, 0xbe, 0x48, 0xd1, 0x05, 0x3e, 0x93, 0x44, 0xd6, 0xbb,
  0x05, 0x5b, 0x4e, 0xbf, 0x48, 0x3a, 0x1f, 0xbe, 0xbb, 0x90, 0x89, 0x3e,
  0xad, 0x5e, 0xc8, 0x3e, 0xf8, 0xba, 0xf8, 0xbe, 0x6f, 0x10, 0x8a, 0xbe,
  0xba, 0x0c, 0x38, 0xbd, 0x57, 0x00, 0x9a, 0x3e, 0x30, 0xcd, 0xfd, 0xbd,
  0xcb, 0xd6, 0x05, 0x3f, 0xaa, 0x0a, 0x43, 0x3d, 0x7d, 0x7e, 0xde, 0xbd,
  0x6a, 0xb3, 0x7b, 0xbe, 0x51, 0xf3, 0xdf, 0x3e, 0x56, 0xef, 0x35, 0xbe,
  0x21, 0x69, 0x13, 0x3e, 0x1f, 0xe2, 0x1f, 0x3d, 0x3b, 0x9b, 0x3a, 0xbe,
  0x5f, 0x04, 0x9d, 0x3e, 0xe0, 0x4b, 0xbf, 0xbc, 0x4d, 0x36, 0xeb, 0xbe,
  0xd8, 0x9e, 0x8b, 0xbe, 0x85, 0x31, 0xa7, 0xbe, 0xa5, 0xc0, 0xde, 0xbe,
  0xed, 0x3c, 0x20, 0xbf, 0x4d, 0x9c, 0x25, 0xbf, 0x7a, 0xf0, 0xff, 0xff,
  0x10, 0x00, 0x00, 0x00, 0x0a, 0x00, 0x00, 0x00, 0x14, 0x00, 0x00, 0x00,
  0x24, 0x00, 0x00, 0x00, 0x02, 0x00, 0x00, 0x00, 0x06, 0x00, 0x00, 0x00,
  0x08, 0x00, 0x00, 0x00, 0x0d, 0x00, 0x00, 0x00, 0x73, 0x74, 0x64, 0x2e,
  0x63, 0x6f, 0x6e, 0x73, 0x74, 0x61, 0x6e, 0x74, 0x33, 0x00, 0x00, 0x00,
  0x00, 0xf0, 0xff, 0xff, 0xd2, 0xf0, 0xff, 0xff, 0x04, 0x00, 0x00, 0x00,
  0x40, 0x01, 0x00, 0x00, 0xff, 0x14, 0x97, 0x3e, 0x82, 0xe8, 0xac, 0xbd,
  0xad, 0x2e, 0x98, 0xbe, 0xcc, 0x03, 0x70, 0xbe, 0x16, 0x4a, 0xe6, 0x3e,
  0x1c, 0x86, 0xd9, 0x3e, 0xd7, 0xee, 0xe7, 0xbd, 0x20, 0x94, 0xb2, 0x3e,
  0x05, 0xe3, 0x30, 0xbe, 0x46, 0x91, 0x37, 0x3e, 0x0c, 0x06, 0x7a, 0x3d,
  0xff, 0x9f, 0x57, 0xbe, 0xd5, 0x2c, 0x11, 0xbf, 0xba, 0xb7, 0x70, 0xbe,
  0x2b, 0xed, 0x75, 0xbd, 0xe0, 0x69, 0xac, 0xbd, 0x11, 0x01, 0x02, 0xbf,
  0x6d, 0x90, 0xa6, 0x3e, 0x3d, 0xc0, 0x89, 0xbe, 0x3d, 0x8d, 0x86, 0xbe,
  0xf9, 0x3c, 0xce, 0x3d, 0x1c, 0xa7, 0xc8, 0x3d, 0x79, 0xf4, 0x63, 0x3c,
  0xc7, 0xd3, 0x7c, 0xbe, 0x53, 0xef, 0x94, 0xbd, 0x28, 0xe9, 0x15, 0x3d,
  0xc2, 0xd4, 0x0b, 0xbe, 0x37, 0x82, 0x18, 0x3f, 0xe7, 0x0d, 0x30, 0x3d,
  0x85, 0x50, 0xad, 0xbe, 0x6d, 0x05, 0x0e, 0xbe, 0xce, 0x02, 0xc6, 0xbe,
  0x19, 0x1f, 0x04, 0xbf, 0x3d, 0x56, 0xa8, 0x3e, 0x67, 0xbe, 0xae, 0x3e,
  0x14, 0x40, 0x8e, 0x3d, 0x7d, 0x87, 0xae, 0x3e, 0x55, 0xb9, 0x1e, 0xbe,
  0xa4, 0x21, 0xd8, 0x3e, 0x36, 0x04, 0x02, 0x3c, 0x92, 0x32, 0x41, 0x3e,
  0xff, 0xeb, 0xee, 0x3e, 0xd5, 0x3a, 0x18, 0x3f, 0xe3, 0xb1, 0xa3, 0xbe,
  0x29, 0x6e, 0x1c, 0x3e, 0x86, 0xc6, 0x1a, 0x3f, 0x64, 0x9a, 0x7a, 0xbd,
  0x6e, 0x29, 0x6f, 0x3e, 0x80, 0x2b, 0x04, 0xbe, 0xe1, 0xa9, 0x63, 0xbe,
  0xe1, 0x60, 0x17, 0xbf, 0xa6, 0x42, 0xdb, 0x3e, 0x7b, 0xe2, 0x4d, 0x3e,
  0xf9, 0x34, 0x51, 0x3d, 0x06, 0x2f, 0x0c, 0xbe, 0xb1, 0xf2, 0x38, 0x3e,
  0xe4, 0xa9, 0x4e, 0x3c, 0x95, 0x62, 0x39, 0x3e, 0xd2, 0x7d, 0x06, 0xbf,
  0x4c, 0x20, 0xfb, 0xbc, 0x76, 0x0d, 0xae, 0xbe, 0x6e, 0x16, 0x95, 0x3c,
  0x48, 0xc2, 0x2d, 0x3e, 0x9e, 0x77, 0x1e, 0x3e, 0x7c, 0xbc, 0x00, 0xbf,
  0xe2, 0xd6, 0xc9, 0x3e, 0xd7, 0x90, 0xff, 0xbe, 0xc0, 0xeb, 0xc1, 0xbc,
  0xf5, 0xb8, 0xf2, 0x3e, 0x8d, 0x7d, 0x0d, 0x3f, 0x87, 0x2e, 0x35, 0x3e,
  0xcc, 0xe2, 0x46, 0xbe, 0x70, 0x85, 0xd6, 0x3a, 0xe2, 0xc2, 0xf9, 0x3e,
  0x01, 0x22, 0xdc, 0xbc, 0xa1, 0x56, 0x0b, 0xbf, 0x85, 0xf3, 0xe4, 0xbe,
  0xd8, 0xa7, 0x3e, 0xbe, 0x76, 0x8f, 0x0d, 0xbf, 0x14, 0x80, 0xe7, 0xbd,
  0xfe, 0xf1, 0xff, 0xff, 0x10, 0x00, 0x00, 0x00, 0x09, 0x00, 0x00, 0x00,
  0x14, 0x00, 0x00, 0x00, 0x24, 0x00, 0x00, 0x00, 0x02, 0x00, 0x00, 0x00,
  0x08, 0x00, 0x00, 0x00, 0x0a, 0x00, 0x00, 0x00, 0x0d, 0x00, 0x00, 0x00,
  0x73, 0x74, 0x64, 0x2e, 0x63, 0x6f, 0x6e, 0x73, 0x74, 0x61, 0x6e, 0x74,
  0x32, 0x00, 0x00, 0x00, 0x84, 0xf1, 0xff, 0xff, 0x56, 0xf2, 0xff, 0xff,
  0x04, 0x00, 0x00, 0x00, 0x80, 0x02, 0x00, 0x00, 0xb4, 0x0e, 0x1c, 0x3e,
  0x91, 0x28, 0xaa, 0xbe, 0x53, 0x72, 0x84, 0xbe, 0x02, 0xad, 0x8d, 0x3e,
  0x1a, 0x1c, 0xaf, 0xbc, 0xe3, 0xc1, 0xd5, 0x3b, 0x9c, 0x8a, 0xc4, 0x3e,
  0x02, 0xc6, 0xf1, 0xbd, 0x21, 0xa4, 0xc3, 0x3e, 0xf2, 0x00, 0x58, 0xbe,
  0xbf, 0xcf, 0xf5, 0xbe, 0x9f, 0x12, 0x04, 0xbf, 0xfa, 0xbd, 0x0f, 0x3e,
  0x60, 0x50, 0xc2, 0x3d, 0xd8, 0xf3, 0x76, 0x3e, 0x48, 0xd8, 0x52, 0x3d,
  0x03, 0xc4, 0xc2, 0xbd, 0x64, 0xc0, 0x87, 0x3d, 0x75, 0x6c, 0xdf, 0x3e,
  0xa1, 0x6e, 0xd9, 0x3d, 0x72, 0x93, 0xa9, 0xbe, 0xf1, 0x62, 0x94, 0x3e,
  0xed, 0x6c, 0xf3, 0x3d, 0x2d, 0x58, 0x47, 0xbe, 0xcb, 0xbc, 0xe6, 0xbe,
  0x97, 0x10, 0x45, 0x3d, 0xe1, 0x62, 0x6b, 0x3d, 0x45, 0x3a, 0xbd, 0x3e,
  0xe1, 0x47, 0xb6, 0x3e, 0x6f, 0x9a, 0xa5, 0x3d, 0x07, 0x75, 0xc5, 0xbe,
  0x62, 0xcf, 0xd6, 0x3e, 0x45, 0x89, 0x04, 0xbe, 0x39, 0xe5, 0x95, 0x3d,
  0x6a, 0xaa, 0xa3, 0xbe, 0x86, 0x41, 0xa5, 0xbe, 0xf0, 0x22, 0xf1, 0xbc,
  0x95, 0x1e, 0x9d, 0x3d, 0x33, 0x16, 0x82, 0xbe, 0xee, 0x53, 0x9b, 0xbe,
  0x05, 0xa8, 0x67, 0x3e, 0xac, 0x1e, 0x9f, 0x3e, 0x4d, 0x4b, 0xab, 0x3e,
  0x85, 0x47, 0x94, 0x3e, 0x97, 0x70, 0x95, 0xbe, 0xfc, 0x9b, 0x8d, 0x3d,
  0x84, 0x9c, 0xc8, 0xbc, 0xa9, 0x58, 0xb9, 0xbe, 0x95, 0x32, 0xd2, 0x3e,
  0x6a, 0xa5, 0xb3, 0xbc, 0x57, 0x2c, 0xd0, 0x3e, 0xb1, 0x16, 0xf3, 0x3e,
  0x16, 0xf3, 0x3c, 0xbe, 0xbd, 0x03, 0xcd, 0xbc, 0x33, 0x04, 0x60, 0x3d,
  0xaa, 0x23, 0xf4, 0xbe, 0x0a, 0x77, 0x10, 0xbe, 0x7d, 0x35, 0x12, 0x3d,
  0xeb, 0xc2, 0x42, 0xbe, 0xad, 0x0d, 0x2f, 0x3e, 0x18, 0xf2, 0x43, 0xba,
  0xbe, 0xe8, 0x70, 0x3a, 0x9e, 0xc1, 0x4c, 0xbe, 0x17, 0xb3, 0xfd, 0xbe,
  0x4b, 0x7a, 0xb6, 0x3d, 0x66, 0xfe, 0x55, 0xbe, 0xb2, 0x6d, 0x1d, 0x3e,
  0x6b, 0xdd, 0x83, 0x3e, 0xa1, 0x50, 0xbe, 0xbe, 0x73, 0x52, 0xf5, 0xbe,
  0x11, 0xbc, 0x34, 0xbd, 0xbe, 0x3f, 0xb0, 0x3e, 0xc9, 0x9a, 0x7f, 0xbe,
  0x85, 0x7e, 0x0c, 0xbe, 0x7c, 0x06, 0xfd, 0xbe, 0x38, 0x34, 0x34, 0xbd,
  0xcf, 0x31, 0x3a, 0xbe, 0x2e, 0x0f, 0x47, 0xbe, 0x39, 0xa3, 0xbe, 0x3e,
  0xae, 0x24, 0xeb, 0x3d, 0x88, 0xa7, 0x81, 0xbe, 0xc8, 0x0d, 0xc6, 0xbe,
  0x88, 0xf0, 0xa4, 0xbe, 0x9c, 0x45, 0xcb, 0x3e, 0xf1, 0x1a, 0x53, 0x3d,
  0x6b, 0x54, 0x38, 0x3e, 0xbc, 0x9d, 0xbd, 0x3e, 0xcc, 0x7d, 0x92, 0x3e,
  0x4e, 0xfd, 0xdf, 0xbe, 0xbf, 0x94, 0x31, 0x3e, 0xe0, 0x5b, 0x10, 0xbf,
  0xb4, 0xd0, 0x19, 0xbe, 0xd1, 0x72, 0xc9, 0xbe, 0x02, 0xd6, 0x5a, 0x3e,
  0x83, 0x22, 0x5c, 0x3e, 0x37, 0x54, 0x99, 0x3e, 0x38, 0x51, 0xd6, 0xbd,
  0xe0, 0x55, 0x3b, 0x3e, 0xfc, 0xec, 0xbc, 0x3e, 0xa3, 0x1e, 0x05, 0x3f,
  0xaf, 0x0a, 0xa9, 0xbe, 0x64, 0x49, 0xc7, 0xbe, 0x3d, 0x03, 0xde, 0x3e,
  0x97, 0xff, 0xe3, 0x3e, 0x6f, 0xcb, 0x8f, 0xbe, 0x1e, 0xc6, 0x8b, 0xbe,
  0x50, 0x3d, 0x80, 0x3e, 0xee, 0x8c, 0xc5, 0x3c, 0x7b, 0x69, 0xd5, 0x3d,
  0x09, 0x9f, 0x54, 0xbe, 0x5b, 0xf8, 0xb2, 0x3e, 0x00, 0x92, 0xd1, 0xbe,
  0x0a, 0x2d, 0x63, 0x3d, 0xb2, 0xe6, 0xb7, 0x3e, 0x86, 0xbe, 0xc5, 0xbe,
  0xcb, 0xe1, 0xd9, 0xbe, 0x23, 0xec, 0x78, 0x3e, 0x6c, 0xaa, 0xc0, 0xbe,
  0x2f, 0x9d, 0xbd, 0xbd, 0x8c, 0x05, 0xc7, 0xbe, 0xe0, 0x74, 0x95, 0xbd,
  0x24, 0xff, 0x14, 0xbe, 0x07, 0xaf, 0xf0, 0xbe, 0x63, 0xec, 0x79, 0x3e,
  0xf7, 0xfa, 0x15, 0x3e, 0xda, 0x5c, 0xdc, 0x3e, 0x3e, 0xf2, 0xbf, 0xbc,
  0xc7, 0xe0, 0x78, 0xbe, 0xea, 0x2f, 0xad, 0x39, 0xca, 0x28, 0x8c, 0x3d,
  0x00, 0xc6, 0x06, 0x3f, 0xc7, 0x56, 0x35, 0x3d, 0x9c, 0x8f, 0xcc, 0xbe,
  0x6f, 0xfe, 0x38, 0x3e, 0x73, 0x28, 0x50, 0x3c, 0xdb, 0xa1, 0x0f, 0x3f,
  0x1c, 0xb8, 0x61, 0x3d, 0xbb, 0x2f, 0xcf, 0xbe, 0xce, 0x6d, 0xc0, 0x3e,
  0x5d, 0x21, 0x36, 0x3e, 0x2e, 0xb4, 0xd7, 0xbe, 0xe2, 0x05, 0x1e, 0x3e,
  0x7a, 0x5e, 0x8e, 0x3d, 0x22, 0x52, 0x2e, 0x3e, 0x61, 0x92, 0x30, 0x3e,
  0x57, 0x08, 0x2b, 0xbb, 0x6c, 0xdf, 0x4b, 0x3e, 0xf8, 0x03, 0x0b, 0x3c,
  0x81, 0x8a, 0x61, 0xbe, 0xba, 0xe6, 0xa0, 0xbe, 0x8a, 0xe5, 0x92, 0x3e,
  0xfb, 0x65, 0xaa, 0x3e, 0x84, 0xbe, 0xf7, 0xbb, 0x91, 0x2b, 0x26, 0xbd,
  0x80, 0xbf, 0xb7, 0x3d, 0x54, 0x98, 0x21, 0xbe, 0x46, 0xe3, 0x1d, 0xbe,
  0x5a, 0xfe, 0xfb, 0x3d, 0xfa, 0x6a, 0x0d, 0x3e, 0x43, 0x5a, 0x86, 0xbe,
  0xc2, 0xf4, 0xff, 0xff, 0x10, 0x00, 0x00, 0x00, 0x08, 0x00, 0x00, 0x00,
  0x14, 0x00, 0x00, 0x00, 0x24, 0x00, 0x00, 0x00, 0x02, 0x00, 0x00, 0x00,
  0x0a, 0x00, 0x00, 0x00, 0x10, 0x00, 0x00, 0x00, 0x0d, 0x00, 0x00, 0x00,
  0x73, 0x74, 0x64, 0x2e, 0x63, 0x6f, 0x6e, 0x73, 0x74, 0x61, 0x6e, 0x74,
  0x31, 0x00, 0x00, 0x00, 0x48, 0xf4, 0xff, 0xff, 0x1a, 0xf5, 0xff, 0xff,
  0x04, 0x00, 0x00, 0x00, 0x00, 0x09, 0x00, 0x00, 0x56, 0x1f, 0x42, 0xbe,
  0x47, 0x34, 0x65, 0xbd, 0xb5, 0x5e, 0xa3, 0x3c, 0x7f, 0xae, 0xf0, 0x3d,
  0xe2, 0x0e, 0x3b, 0x3e, 0xe8, 0x7d, 0x66, 0xbe, 0x21, 0x5c, 0x8b, 0x3d,
  0xd0, 0x12, 0xc9, 0x3d, 0xf4, 0xda, 0x88, 0x3e, 0x1a, 0x99, 0x7b, 0x3e,
  0x4a, 0x7d, 0xb8, 0x3e, 0xeb, 0x1a, 0x92, 0xbe, 0x69, 0xcd, 0x18, 0xbe,
  0x1b, 0xa4, 0xab, 0x3b, 0x62, 0x13, 0x9c, 0x3e, 0x8f, 0x2d, 0x87, 0x3d,
  0x12, 0xa7, 0x2a, 0xbe, 0xd8, 0x93, 0xac, 0x3d, 0x98, 0x9e, 0xea, 0xbd,
  0x9f, 0x77, 0x72, 0xbe, 0x35, 0xd0, 0x84, 0xbd, 0x97, 0xcb, 0x7d, 0xbe,
  0x73, 0xb0, 0x48, 0xbe, 0xd0, 0x65, 0xb4, 0xbd, 0xaa, 0x8d, 0x75, 0xbd,
  0x20, 0xd3, 0x48, 0xbe, 0xd6, 0x25, 0x09, 0xbe, 0xdd, 0xa5, 0x11, 0xbd,
  0x2a, 0x96, 0x9f, 0x3e, 0xc2, 0x0a, 0x0d, 0x3e, 0xe2, 0xef, 0x1b, 0xbe,
  0xbf, 0x0f, 0x7a, 0x3e, 0xd1, 0x99, 0x8a, 0xbe, 0x39, 0x13, 0x13, 0x3e,
  0xb1, 0x67, 0xcf, 0x3d, 0xf4, 0x6b, 0x03, 0x3e, 0x97, 0xcb, 0x87, 0x3e,
  0xce, 0xc1, 0x4f, 0xbe, 0x15, 0xc4, 0x17, 0x3d, 0x80, 0x38, 0x77, 0x3c,
  0x7d, 0x5c, 0x5c, 0xbc, 0x96, 0xff, 0x41, 0x3e, 0x76, 0x22, 0x8f, 0x3c,
  0x69, 0xa0, 0x8f, 0x3d, 0x32, 0x8e, 0x49, 0xbe, 0x86, 0x0a, 0xae, 0xbe,
  0x1a, 0x4b, 0x33, 0x3e, 0x12, 0x19, 0x15, 0x3c, 0x68, 0xc5, 0x8b, 0x3e,
  0xad, 0x84, 0xb5, 0xbe, 0xac, 0x92, 0x90, 0x3e, 0x76, 0x20, 0xd4, 0xbb,
  0x2f, 0x72, 0x03, 0x3e, 0x31, 0x9b, 0x54, 0xbe, 0x10, 0xb3, 0x8c, 0xbe,
  0xda, 0x8f, 0x05, 0xbd, 0x53, 0xae, 0x67, 0x3e, 0xcf, 0x64, 0xb9, 0xbe,
  0x35, 0x38, 0xc3, 0xbd, 0x78, 0x81, 0x31, 0xbe, 0xaa, 0x70, 0xd2, 0x3d,
  0x66, 0x51, 0x89, 0x3e, 0xf0, 0x6a, 0x11, 0xbe, 0xe4, 0xb0, 0x15, 0xbe,
  0xa1, 0x57, 0x82, 0x3d, 0x82, 0x39, 0xb7, 0xbb, 0x50, 0x09, 0x99, 0xbd,
  0x30, 0x2a, 0x78, 0xbd, 0x60, 0xc6, 0x7a, 0xbe, 0x62, 0xdb, 0x0d, 0xbe,
  0x61, 0x53, 0x69, 0xbc, 0x7a, 0x69, 0xec, 0xbd, 0x27, 0x66, 0x4d, 0x3d,
  0x25, 0x36, 0x6f, 0x3e, 0xce, 0x4d, 0xec, 0xbb, 0xaf, 0x50, 0x97, 0x3c,
  0xca, 0x58, 0x86, 0xbe, 0x91, 0x8b, 0xa8, 0xbd, 0x88, 0xcf, 0x86, 0xbe,
  0x32, 0xd3, 0x8e, 0xbd, 0xd3, 0x4b, 0x11, 0x3e, 0x53, 0xc1, 0x21, 0xbe,
  0x4a, 0x28, 0x9a, 0xbe, 0xdc, 0x8f, 0xee, 0xbd, 0x38, 0x66, 0xa3, 0xbd,
  0x08, 0x91, 0x50, 0xbe, 0x0b, 0xd4, 0xb6, 0xbe, 0x67, 0x53, 0x34, 0x3d,
  0x9a, 0x07, 0x5b, 0x3e, 0x6b, 0xdc, 0x9d, 0x3e, 0x0d, 0xa7, 0xde, 0x3d,
  0x91, 0x4c, 0xb6, 0x3e, 0x01, 0xfa, 0x4b, 0xbe, 0xff, 0xa7, 0x30, 0xbe,
  0xf2, 0x2a, 0x0d, 0x3d, 0x2c, 0x05, 0x5d, 0x3e, 0xe0, 0x6b, 0xa4, 0xbe,
  0x4d, 0xba, 0x92, 0xbe, 0x79, 0x2d, 0x9f, 0xbc, 0x11, 0x91, 0xa3, 0xbe,
  0x89, 0xbc, 0xa8, 0x3e, 0x75, 0x8f, 0x91, 0x3e, 0xcb, 0x18, 0xa7, 0xbd,
  0x1c, 0xa3, 0x50, 0x3e, 0x25, 0x80, 0xa6, 0xbe, 0x0b, 0x60, 0x0e, 0x3d,
  0x95, 0x0c, 0xa0, 0xbe, 0x18, 0xae, 0x6c, 0x3e, 0x57, 0xce, 0x38, 0x3d,
  0x99, 0x54, 0x92, 0x3e, 0x4a, 0xc5, 0x8c, 0x3b, 0x7a, 0x83, 0x8a, 0xbe,
  0x6a, 0x06, 0xbe, 0xbd, 0xbd, 0x42, 0x80, 0x3e, 0xc4, 0x82, 0x00, 0xbe,
  0x00, 0x4d, 0x9b, 0x3e, 0x34, 0xf3, 0x88, 0x3e, 0x49, 0xff, 0x89, 0x3e,
  0xc4, 0xee, 0xd8, 0x3d, 0x32, 0x8b, 0x2e, 0x3e, 0xa5, 0x94, 0x14, 0x3e,
  0x5e, 0xce, 0xe3, 0x3d, 0x12, 0x14, 0x7c, 0x3e, 0x12, 0x1d, 0x1f, 0xbe,
  0x01, 0x87, 0x8e, 0xbe, 0xaa, 0xb2, 0x11, 0xbe, 0xdd, 0x1c, 0xa0, 0x3e,
  0x00, 0xdf, 0x3d, 0xbd, 0x79, 0x23, 0xe7, 0x3e, 0x62, 0xaa, 0x56, 0xbd,
  0x8d, 0x44, 0xb8, 0x3d, 0xda, 0x23, 0x8c, 0x3e, 0xe5, 0xfb, 0x61, 0xbd,
  0x26, 0x04, 0x27, 0x3e, 0x19, 0x67, 0x78, 0xbd, 0x18, 0x74, 0x07, 0xbe,
  0x5d, 0xd1, 0x5a, 0x3e, 0xb8, 0xb5, 0xbf, 0x3d, 0xdb, 0xbd, 0x37, 0x3e,
  0xf0, 0xed, 0x31, 0xbe, 0x90, 0x58, 0x36, 0xbe, 0xa0, 0x23, 0x50, 0x3e,
  0x5a, 0x71, 0x2b, 0x3d, 0x62, 0x94, 0x34, 0x3e, 0xca, 0xcd, 0x5b, 0xbe,
  0x2d, 0x66, 0x62, 0x3e, 0x28, 0x68, 0x08, 0xbe, 0x0f, 0x6f, 0xbb, 0x3d,
  0xe9, 0xcf, 0x04, 0x3e, 0x04, 0x4d, 0xe0, 0x3d, 0x3a, 0x1b, 0xeb, 0xbd,
  0xc4, 0x86, 0xde, 0xbd, 0x3c, 0x20, 0x1d, 0xbd, 0x8d, 0x43, 0x2c, 0x3e,
  0x20, 0x3f, 0x03, 0xbe, 0x87, 0xbc, 0x81, 0xbe, 0xd6, 0xb2, 0xa4, 0xbe,
  0x5a, 0xe0, 0x64, 0xbd, 0x37, 0x31, 0x05, 0xbe, 0x68, 0xf3, 0x77, 0x3e,
  0xe3, 0x83, 0x2d, 0x3e, 0x44, 0x4f, 0x97, 0xbe, 0x9a, 0xa6, 0x9e, 0x3d,
  0x3d, 0x35, 0x72, 0xbe, 0xfd, 0xf4, 0x53, 0xbe, 0x73, 0x43, 0x61, 0xbe,
  0x64, 0xd2, 0x1e, 0x3e, 0x9e, 0x70, 0x0d, 0xbe, 0xb2, 0x49, 0x7c, 0x3e,
  0xc7, 0x9c, 0x31, 0xbe, 0x61, 0x54, 0x31, 0xbe, 0xfc, 0xb7, 0x64, 0xbe,
  0xde, 0x4e, 0x73, 0x3e, 0x37, 0x53, 0x0d, 0xbe, 0x2f, 0xab, 0xba, 0x3e,
  0x97, 0x87, 0x9d, 0xbe, 0x77, 0x93, 0x2e, 0xbd, 0x58, 0x0d, 0xd9, 0x3d,
  0x38, 0x3d, 0xd9, 0x3d, 0x4c, 0x46, 0x3b, 0x3e, 0xdf, 0xad, 0xa4, 0x3d,
  0x32, 0x1f, 0xb0, 0xbe, 0x40, 0xf6, 0x02, 0x3e, 0x09, 0x13, 0x25, 0xbe,
  0x78, 0x51, 0x47, 0xbe, 0x28, 0x8d, 0x36, 0xbe, 0xef, 0x4d, 0xee, 0xbd,
  0x13, 0x2d, 0x71, 0xbe, 0xc0, 0xcb, 0x22, 0xbe, 0x23, 0x7a, 0x0a, 0xbe,
  0x2e, 0x9f, 0x65, 0x3e, 0x1e, 0xdf, 0x91, 0x3d, 0x44, 0x93, 0x0b, 0xbd,
  0xa1, 0x34, 0xab, 0x3d, 0xf2, 0xae, 0xc5, 0xbd, 0xcf, 0x12, 0xc6, 0xbe,
  0xbe, 0x89, 0xca, 0xbd, 0xdf, 0x84, 0x8f, 0xbe, 0xa3, 0x83, 0x33, 0xbc,
  0xc3, 0x67, 0x59, 0x3e, 0x95, 0x50, 0xda, 0xbd, 0x7c, 0x22, 0xad, 0xbe,
  0xfe, 0x70, 0xe3, 0xbc, 0xa5, 0xf7, 0x93, 0x3e, 0x9e, 0x05, 0x36, 0xbe,
  0x3d, 0x8d, 0x26, 0x3d, 0x05, 0x8c, 0x29, 0xbe, 0x94, 0x46, 0x1c, 0x3d,
  0x87, 0x9d, 0x94, 0xbd, 0x7b, 0x61, 0xc4, 0xbd, 0xbf, 0x3f, 0x2c, 0xbe,
  0x33, 0x9b, 0x87, 0xbe, 0xe0, 0xca, 0x01, 0x3e, 0x65, 0x4f, 0xfb, 0xbd,
  0x6a, 0x43, 0x4b, 0x3c, 0x20, 0xb7, 0x83, 0xbe, 0xb8, 0x79, 0xfb, 0x3e,
  0x6f, 0xe2, 0xa5, 0xbe, 0xe8, 0xe6, 0x51, 0x3e, 0xf0, 0xbf, 0xab, 0xbd,
  0xd7, 0x97, 0xc8, 0xbe, 0x3d, 0x08, 0x4e, 0x3e, 0xf7, 0xb8, 0x09, 0x3e,
  0x4f, 0xa1, 0x29, 0xbd, 0xb6, 0x3f, 0x15, 0x3e, 0xc4, 0x56, 0x23, 0x3e,
  0x1d, 0xcc, 0xe3, 0x3d, 0x6a, 0xfd, 0x11, 0x3e, 0x40, 0x30, 0x5e, 0x3e,
  0x3e, 0x56, 0x02, 0xbe, 0x11, 0xce, 0x3e, 0x3e, 0x11, 0x66, 0x1e, 0xbd,
  0x68, 0xbd, 0xdc, 0xbe, 0xe8, 0x53, 0x86, 0x3e, 0x7c, 0x6a, 0xcd, 0x3e,
  0x27, 0x6f, 0x86, 0x3e, 0x29, 0x09, 0x1d, 0xbe, 0x29, 0x16, 0x47, 0x3e,
  0xb7, 0x14, 0x2d, 0x3e, 0xe2, 0x9b, 0x95, 0xbe, 0xaf, 0xb4, 0xc0, 0x3e,
  0x93, 0x4f, 0x93, 0x3e, 0xee, 0x55, 0xd5, 0xbd, 0x75, 0xc6, 0x92, 0xbe,
  0x88, 0x72, 0x8b, 0xbc, 0x32, 0xf3, 0x3e, 0xbe, 0x30, 0x2c, 0xfb, 0x3c,
  0xc7, 0x8c, 0xb6, 0x3d, 0x82, 0x2c, 0x69, 0x3e, 0xed, 0xfb, 0x81, 0xbe,
  0x8c, 0x42, 0xa8, 0xbd, 0xdf, 0xdf, 0x8c, 0x3e, 0x19, 0x00, 0x60, 0xbd,
  0x72, 0x18, 0x0d, 0xbe, 0x73, 0x09, 0xc7, 0x3d, 0xdb, 0x59, 0xd8, 0xbc,
  0xb3, 0xa7, 0x1d, 0xbd, 0x8d, 0x65, 0x9e, 0x3e, 0x0e, 0x98, 0x92, 0x3e,
  0x82, 0x9c, 0xe6, 0xbd, 0xe0, 0xf8, 0x7b, 0xbe, 0x65, 0x8b, 0xaa, 0xbe,
  0x88, 0x7a, 0xbe, 0xbc, 0xf9, 0x95, 0xc2, 0xbd, 0x69, 0x81, 0xa5, 0x3c,
  0x1f, 0xb6, 0x60, 0xbd, 0x8e, 0x7f, 0x5e, 0x3d, 0x2c, 0xab, 0x8d, 0xbc,
  0x18, 0x63, 0x2c, 0x3e, 0x46, 0xc8, 0x06, 0x3e, 0xa9, 0x86, 0x51, 0xbe,
  0x08, 0xeb, 0x84, 0xbe, 0x62, 0xfc, 0x59, 0x3c, 0xf0, 0xd6, 0xc4, 0xbd,
  0x72, 0x76, 0x90, 0xbe, 0xd4, 0xcd, 0x83, 0x3e, 0x4b, 0xa4, 0x74, 0x3e,
  0x7e, 0x69, 0xe5, 0xbd, 0x9f, 0x13, 0x3e, 0xbc, 0x38, 0x8c, 0xa1, 0x3e,
  0xec, 0x97, 0x34, 0x3e, 0x5e, 0x20, 0xf8, 0xbd, 0x66, 0xe4, 0x1e, 0xbc,
  0x27, 0x2a, 0x3c, 0x3e, 0xdb, 0xc9, 0x1f, 0xbe, 0x2c, 0xa2, 0x6a, 0xbe,
  0x9b, 0xe2, 0x23, 0xbe, 0xab, 0xfb, 0xee, 0x3d, 0x09, 0x1e, 0xde, 0x3d,
  0x9b, 0xca, 0x11, 0xbe, 0x47, 0x4f, 0x35, 0xbe, 0x20, 0xa0, 0x8f, 0xbe,
  0x21, 0x69, 0x63, 0x3e, 0x4e, 0x1f, 0x68, 0xbe, 0x1f, 0x89, 0x91, 0xbe,
  0x42, 0x6d, 0x8d, 0xbe, 0x1f, 0x69, 0x42, 0xbc, 0x2d, 0xce, 0x95, 0xbe,
  0x8a, 0xd4, 0x2a, 0xbd, 0x09, 0x37, 0xeb, 0x3d, 0xc0, 0x6a, 0xa3, 0x3e,
  0xd6, 0xaa, 0x8d, 0xbe, 0x38, 0xf6, 0x39, 0x3b, 0xd2, 0xb6, 0x5c, 0xbe,
  0x97, 0xd2, 0xff, 0x3d, 0x9d, 0xf3, 0xba, 0xbd, 0x09, 0x39, 0x42, 0xbe,
  0xd7, 0xd5, 0x1e, 0xbd, 0x9a, 0xe7, 0x77, 0xbe, 0x0a, 0x00, 0x91, 0x3e,
  0xce, 0x74, 0x32, 0xbc, 0xca, 0x18, 0xc2, 0xbd, 0x72, 0x97, 0x3b, 0xbd,
  0x7e, 0x99, 0x22, 0x3e, 0xc1, 0xca, 0xcb, 0x3d, 0x57, 0xec, 0x3d, 0xbd,
  0x26, 0x12, 0x01, 0xbe, 0x1f, 0xae, 0x36, 0xba, 0x0f, 0xfb, 0xa3, 0xbe,
  0xf8, 0x9f, 0xc7, 0x3d, 0xef, 0x39, 0x59, 0xbe, 0xd2, 0xce, 0x3d, 0xbd,
  0x80, 0xb4, 0x6c, 0xbe, 0x22, 0x43, 0x7a, 0x3e, 0x90, 0x1c, 0xc0, 0x3d,
  0x29, 0xad, 0x91, 0x3e, 0x5f, 0xc2, 0x5b, 0xbe, 0x77, 0xa3, 0x8b, 0x3e,
  0x2d, 0x5b, 0x0d, 0x3e, 0x82, 0x4a, 0x1f, 0x3e, 0x3c, 0x47, 0x90, 0xbe,
  0xb7, 0xe7, 0x29, 0xbe, 0x79, 0xcb, 0x06, 0x3e, 0x1f, 0xf2, 0x0c, 0x3e,
  0x41, 0xe5, 0xce, 0xbd, 0xc5, 0x9f, 0xb7, 0x3b, 0xfb, 0x3e, 0xda, 0x3d,
  0x04, 0xe8, 0x11, 0xbd, 0x21, 0x2a, 0x0a, 0x3e, 0xca, 0x9e, 0x10, 0x3e,
  0xdd, 0x62, 0xd1, 0xbd, 0x4d, 0x5a, 0xdb, 0xbd, 0xd7, 0x75, 0x94, 0xbe,
  0x7d, 0xa0, 0xb3, 0xbd, 0xb0, 0xc0, 0x86, 0x3e, 0x88, 0x96, 0x61, 0x3e,
  0x72, 0x2e, 0xcf, 0x3d, 0x35, 0x95, 0xd3, 0xbd, 0xe2, 0x5c, 0x41, 0xbe,
  0x68, 0x33, 0x39, 0x3e, 0xdb, 0x97, 0x84, 0x3e, 0x52, 0x22, 0x41, 0x3e,
  0xca, 0x39, 0x2d, 0xbe, 0x27, 0x29, 0x2b, 0xbe, 0x87, 0xcb, 0x09, 0x3e,
  0x47, 0x16, 0x98, 0xbd, 0xbb, 0xb7, 0xb9, 0x3d, 0x03, 0xce, 0x04, 0xbe,
  0x83, 0x3c, 0x68, 0x3e, 0xbf, 0xf0, 0xf1, 0xbd, 0x80, 0xc7, 0x15, 0x3d,
  0xb1, 0xd0, 0x7a, 0xbd, 0x6e, 0xaf, 0xe1, 0xbd, 0xd6, 0x27, 0x23, 0xbe,
  0xf0, 0xa3, 0xc1, 0x3d, 0x7a, 0xed, 0xef, 0xbd, 0xbb, 0xae, 0x56, 0xbe,
  0xcf, 0xf3, 0x77, 0xbe, 0x1e, 0x6e, 0x66, 0xbe, 0x63, 0x2b, 0x8a, 0xbd,
  0x78, 0x75, 0xea, 0x3d, 0xca, 0x24, 0x92, 0xbe, 0xdf, 0xac, 0x25, 0xbe,
  0xef, 0x06, 0xc0, 0xbd, 0xa0, 0x51, 0x37, 0xbe, 0x8a, 0x34, 0x92, 0xbe,
  0xbd, 0x33, 0x50, 0xbd, 0xc2, 0xfa, 0x83, 0xbe, 0xca, 0x60, 0xa8, 0xbe,
  0x09, 0xc0, 0xc9, 0xbc, 0xc0, 0x0e, 0x48, 0x3e, 0x65, 0x29, 0x76, 0xbe,
  0xb8, 0xce, 0x0d, 0x3d, 0xd4, 0x23, 0x9a, 0xbe, 0x07, 0x01, 0xb2, 0xbd,
  0xd0, 0x2d, 0x2d, 0x3e, 0x2a, 0x13, 0xb2, 0xbd, 0x7d, 0xab, 0xb0, 0xbe,
  0x41, 0xf1, 0xed, 0xbd, 0x59, 0x16, 0x90, 0xbe, 0x51, 0x85, 0x36, 0xbe,
  0xd1, 0x5d, 0xb9, 0xbe, 0x2b, 0x07, 0x7e, 0xbe, 0x3d, 0xf5, 0x9d, 0xbd,
  0x08, 0xc0, 0x9b, 0x3c, 0xc2, 0x29, 0x1f, 0x3e, 0x93, 0x01, 0x96, 0x3d,
  0x88, 0x0e, 0x8a, 0xbe, 0xb7, 0x23, 0xd6, 0xbe, 0x30, 0x04, 0x5b, 0x3e,
  0x13, 0xa2, 0x95, 0x3d, 0x82, 0xf0, 0x3d, 0xbe, 0x98, 0xdf, 0x8f, 0xbe,
  0x3d, 0x45, 0x36, 0xbe, 0x77, 0x08, 0xcf, 0xbd, 0xfd, 0xe6, 0x99, 0x3e,
  0x0e, 0x64, 0xc0, 0xbc, 0x38, 0x45, 0x22, 0xbe, 0xce, 0x75, 0x16, 0x3d,
  0xf5, 0xa2, 0x6e, 0x3e, 0xc0, 0x07, 0x5c, 0x3e, 0x41, 0x8e, 0x8e, 0x3e,
  0xd7, 0xea, 0x43, 0xbd, 0x45, 0x56, 0xa2, 0x3e, 0xdc, 0x75, 0x79, 0x3e,
  0x62, 0x7e, 0x33, 0xbe, 0x60, 0x7f, 0x4b, 0xbe, 0xac, 0x21, 0x60, 0x3e,
  0x24, 0x68, 0x3f, 0xbd, 0x68, 0xd5, 0xa5, 0x3e, 0x7b, 0x13, 0x08, 0x3d,
  0xb1, 0x2e, 0xb3, 0x3d, 0x99, 0xf2, 0x98, 0x3e, 0x86, 0x55, 0xb9, 0x3d,
  0x44, 0xc1, 0x8d, 0x3e, 0xa7, 0x40, 0xbd, 0x3e, 0xfa, 0x4f, 0x9e, 0xbe,
  0xa7, 0x2b, 0xfa, 0x3d, 0xc7, 0x4a, 0x78, 0xbe, 0xfe, 0x8a, 0xd0, 0xbd,
  0x5c, 0x78, 0x37, 0x3e, 0x8e, 0x2b, 0x6e, 0xbd, 0x20, 0x63, 0xa1, 0x3e,
  0xb0, 0x88, 0xf6, 0x3d, 0x7c, 0xb9, 0x9c, 0x3c, 0x84, 0x66, 0x0f, 0x3e,
  0x41, 0x05, 0x2c, 0xbe, 0x54, 0x1b, 0x92, 0xbe, 0xfa, 0xf9, 0x4c, 0xbe,
  0xd9, 0xd4, 0x05, 0x3c, 0x9a, 0x03, 0x44, 0x3e, 0x8c, 0x59, 0x5b, 0x3e,
  0x52, 0x5f, 0xe6, 0x3d, 0xbe, 0x9a, 0x20, 0xbe, 0x90, 0x03, 0x15, 0x3c,
  0x2a, 0xa6, 0x10, 0x3d, 0x54, 0xa0, 0x14, 0x3e, 0xc2, 0x82, 0x70, 0xbd,
  0x58, 0xdd, 0xa8, 0x3e, 0x82, 0x1b, 0x28, 0x3e, 0x83, 0xd2, 0xf3, 0x3d,
  0xa7, 0xe0, 0xb4, 0xbe, 0x26, 0xfc, 0xaa, 0x3e, 0xb9, 0x76, 0x9f, 0xbe,
  0x4c, 0xc7, 0x70, 0xbd, 0xf7, 0x40, 0x06, 0x3d, 0xd7, 0xa7, 0x77, 0x3c,
  0x3d, 0x76, 0xea, 0x3d, 0xf3, 0xa4, 0x1f, 0xbe, 0x41, 0x5c, 0x3c, 0x3e,
  0xcb, 0x5a, 0xa0, 0xbe, 0x11, 0x81, 0x6e, 0x3e, 0x2c, 0x5d, 0x5d, 0x3d,
  0x7b, 0x36, 0x84, 0xbe, 0x3d, 0xaf, 0x08, 0xbe, 0x02, 0x90, 0xec, 0x3d,
  0x93, 0x12, 0xde, 0xbd, 0xd4, 0x8e, 0x26, 0xbe, 0xff, 0x78, 0x04, 0x3e,
  0x4c, 0x29, 0xcd, 0x3c, 0x4e, 0x95, 0x1d, 0xbe, 0xba, 0xdd, 0x8a, 0x3e,
  0x94, 0x87, 0x86, 0x3d, 0x33, 0x59, 0x50, 0xbe, 0x3b, 0x2b, 0x36, 0xbc,
  0x40, 0xb0, 0x1c, 0xbe, 0xb4, 0x0a, 0xa6, 0xbe, 0x55, 0xe0, 0x24, 0x3e,
  0x29, 0x87, 0x9b, 0x3e, 0x58, 0x1c, 0x00, 0xbc, 0xa1, 0x86, 0xc5, 0xbd,
  0x15, 0x87, 0x85, 0xbe, 0x0a, 0x17, 0xb7, 0xbd, 0x22, 0x9c, 0x03, 0xbd,
  0xdc, 0x1f, 0x8a, 0xbc, 0x24, 0x7c, 0x5a, 0x3e, 0xa4, 0xc0, 0x4b, 0xbe,
  0x38, 0xdb, 0x0f, 0x3e, 0x08, 0x6d, 0xa9, 0x3e, 0x0d, 0x5c, 0x63, 0x3d,
  0xb8, 0xb0, 0x92, 0xbd, 0x3f, 0x4f, 0x2f, 0xbe, 0x66, 0x3c, 0x86, 0xbd,
  0xfa, 0x0c, 0x29, 0x3e, 0x1d, 0x02, 0x87, 0x3e, 0x74, 0x33, 0x3e, 0xbe,
  0xec, 0xae, 0x98, 0x3e, 0xb3, 0x58, 0xa4, 0x3e, 0x7b, 0x43, 0x50, 0x3d,
  0x32, 0xd6, 0x25, 0x3d, 0xa5, 0xcf, 0xd8, 0x3d, 0x4e, 0xf4, 0x18, 0xbe,
  0xf2, 0x13, 0x3e, 0xbd, 0x78, 0xe6, 0x3a, 0xbe, 0xd6, 0xdd, 0xfd, 0x3c,
  0x49, 0x13, 0xa8, 0x3e, 0x13, 0xd5, 0x4f, 0x3e, 0x02, 0xc4, 0xa6, 0xbc,
  0xef, 0xf6, 0x84, 0x3e, 0x9c, 0x21, 0x87, 0xbe, 0xe6, 0x6b, 0xef, 0xbd,
  0x99, 0xfd, 0x94, 0xbd, 0xe2, 0x25, 0xb1, 0x3d, 0x8e, 0x5c, 0x1f, 0xbd,
  0xec, 0xe4, 0x25, 0x3e, 0x51, 0x94, 0x97, 0xbe, 0xaf, 0x11, 0x5d, 0xbd,
  0x13, 0xd9, 0x9a, 0xbe, 0x08, 0x3a, 0x03, 0x3e, 0xc2, 0xad, 0x41, 0x3e,
  0x48, 0xe2, 0xaa, 0x3e, 0x03, 0xbe, 0x78, 0x3e, 0x79, 0xfa, 0xa1, 0xbe,
  0x43, 0x18, 0x29, 0xbe, 0x6a, 0x14, 0x6c, 0xbe, 0x2c, 0xc7, 0x2d, 0xbd,
  0x52, 0x95, 0x3c, 0x3d, 0x15, 0x8c, 0x94, 0x3e, 0xf2, 0xa7, 0x35, 0x3e,
  0x71, 0x5a, 0x9d, 0x3e, 0xd7, 0x5f, 0xc4, 0x3e, 0xdd, 0x26, 0x9a, 0x3e,
  0xfe, 0x12, 0x97, 0x3e, 0x31, 0x24, 0x99, 0xbe, 0x4b, 0xf2, 0xa2, 0x3e,
  0x49, 0xbb, 0x29, 0xbe, 0x5e, 0x0b, 0x79, 0xbe, 0x99, 0x5f, 0x37, 0x3e,
  0x87, 0xa5, 0xba, 0x3d, 0xb0, 0x69, 0x3c, 0xbe, 0xe4, 0x6a, 0x35, 0xbe,
  0x22, 0xbe, 0xf8, 0x3d, 0x7c, 0xba, 0x32, 0x3d, 0xa0, 0x16, 0x8e, 0xbe,
  0x67, 0x93, 0x12, 0xbe, 0xea, 0xbc, 0x5e, 0x3e, 0x75, 0x7f, 0xd0, 0x3d,
  0xb5, 0xa1, 0x23, 0xba, 0xe2, 0x6b, 0x5f, 0xbe, 0x91, 0xbf, 0xaa, 0x3e,
  0x6c, 0xcf, 0x08, 0xbe, 0x95, 0x1e, 0xbc, 0xbd, 0x7c, 0x68, 0x68, 0xbd,
  0x6a, 0xb4, 0x96, 0x3e, 0xb2, 0x7d, 0x35, 0xbe, 0x14, 0xc9, 0x37, 0xbe,
  0x08, 0x1c, 0x14, 0xbd, 0xf8, 0xe5, 0xa2, 0xbe, 0x62, 0x25, 0x89, 0xba,
  0x28, 0x05, 0xb4, 0x3e, 0x34, 0x78, 0xe0, 0x3d, 0x3a, 0xab, 0xa2, 0xbd,
  0x13, 0x93, 0xc0, 0x3e, 0xc5, 0xbf, 0x9b, 0xbe, 0xbb, 0x55, 0xbc, 0x3e,
  0x4e, 0x58, 0x81, 0x3e, 0x38, 0x25, 0x3a, 0xbe, 0xdb, 0x5e, 0x04, 0x3e,
  0xfb, 0xab, 0x89, 0x3e, 0x20, 0x90, 0xe6, 0x3c, 0xdc, 0xb5, 0x89, 0x3e,
  0x83, 0xb5, 0x72, 0xbe, 0xf5, 0x08, 0xee, 0xbd, 0x9e, 0x9e, 0xa3, 0x3e,
  0xae, 0xb8, 0x4e, 0xbe, 0xf0, 0xcd, 0xdc, 0x3d, 0x06, 0xfe, 0xff, 0xff,
  0x10, 0x00, 0x00, 0x00, 0x07, 0x00, 0x00, 0x00, 0x14, 0x00, 0x00, 0x00,
  0x24, 0x00, 0x00, 0x00, 0x02, 0x00, 0x00, 0x00, 0x10, 0x00, 0x00, 0x00,
  0x24, 0x00, 0x00, 0x00, 0x0c, 0x00, 0x00, 0x00, 0x73, 0x74, 0x64, 0x2e,
  0x63, 0x6f, 0x6e, 0x73, 0x74, 0x61, 0x6e, 0x74, 0x00, 0x00, 0x00, 0x00,
  0x8c, 0xfd, 0xff, 0xff, 0x5e, 0xfe, 0xff, 0xff, 0x04, 0x00, 0x00, 0x00,
  0x40, 0x00, 0x00, 0x00, 0x16, 0xae, 0x1e, 0xbd, 0xaa, 0x17, 0x84, 0x3c,
  0xdf, 0xc6, 0xa8, 0x3d, 0x13, 0x39, 0x5a, 0xbe, 0xec, 0x71, 0x67, 0x3d,
  0x58, 0x67, 0xd9, 0x3c, 0x53, 0xb0, 0x39, 0xbd, 0x92, 0xdb, 0x55, 0xbb,
  0x89, 0xde, 0x9c, 0xba, 0x11, 0x06, 0xfb, 0xbc, 0x89, 0x4f, 0x22, 0x3d,
  0x0e, 0x4a, 0xbc, 0x3a, 0x45, 0xbb, 0x44, 0xbd, 0x11, 0xc6, 0xa9, 0xbc,
  0x24, 0xb4, 0xb6, 0xbc, 0x81, 0x86, 0x8f, 0xbb, 0x8a, 0xfe, 0xff, 0xff,
  0x10, 0x00, 0x00, 0x00, 0x06, 0x00, 0x00, 0x00, 0x10, 0x00, 0x00, 0x00,
  0x1c, 0x00, 0x00, 0x00, 0x01, 0x00, 0x00, 0x00, 0x10, 0x00, 0x00, 0x00,
  0x0a, 0x00, 0x00, 0x00, 0x64, 0x65, 0x6e, 0x73, 0x65, 0x2f, 0x62, 0x69,
  0x61, 0x73, 0x00, 0x00, 0x08, 0xfe, 0xff, 0xff, 0xda, 0xfe, 0xff, 0xff,
  0x04, 0x00, 0x00, 0x00, 0x28, 0x00, 0x00, 0x00, 0x5c, 0xec, 0x91, 0x3c,
  0x52, 0xe7, 0x3f, 0xbb, 0x8f, 0x33, 0x0b, 0xbd, 0xe3, 0x8b, 0xad, 0xbd,
  0x98, 0x54, 0xc8, 0xbd, 0xca, 0xab, 0xde, 0xbd, 0xda, 0x80, 0x6a, 0xbd,
  0x45, 0xdf, 0x61, 0xbd, 0x6b, 0x60, 0x7b, 0x3d, 0x03, 0x8e, 0xb2, 0xbd,
  0xee, 0xfe, 0xff, 0xff, 0x10, 0x00, 0x00, 0x00, 0x05, 0x00, 0x00, 0x00,
  0x10, 0x00, 0x00, 0x00, 0x20, 0x00, 0x00, 0x00, 0x01, 0x00, 0x00, 0x00,
  0x0a, 0x00, 0x00, 0x00, 0x0c, 0x00, 0x00, 0x00, 0x64, 0x65, 0x6e, 0x73,
  0x65, 0x5f, 0x31, 0x2f, 0x62, 0x69, 0x61, 0x73, 0x00, 0x00, 0x00, 0x00,
  0x70, 0xfe, 0xff, 0xff, 0x42, 0xff, 0xff, 0xff, 0x04, 0x00, 0x00, 0x00,
  0x20, 0x00, 0x00, 0x00, 0xfd, 0xeb, 0xa9, 0xbd, 0xa3, 0x96, 0xd0, 0xbd,
  0x21, 0xd2, 0xb8, 0x3d, 0xc6, 0x6e, 0x55, 0xbc, 0xa5, 0xb1, 0x9f, 0x3d,
  0x90, 0x70, 0x07, 0xbe, 0x83, 0xc7, 0x2e, 0x3d, 0xba, 0xaa, 0xeb, 0xbc,
  0x4e, 0xff, 0xff, 0xff, 0x10, 0x00, 0x00, 0x00, 0x04, 0x00, 0x00, 0x00,
  0x10, 0x00, 0x00, 0x00, 0x20, 0x00, 0x00, 0x00, 0x01, 0x00, 0x00, 0x00,
  0x08, 0x00, 0x00, 0x00, 0x0c, 0x00, 0x00, 0x00, 0x64, 0x65, 0x6e, 0x73,
  0x65, 0x5f, 0x32, 0x2f, 0x62, 0x69, 0x61, 0x73, 0x00, 0x00, 0x00, 0x00,
  0xd0, 0xfe, 0xff, 0xff, 0xa2, 0xff, 0xff, 0xff, 0x04, 0x00, 0x00, 0x00,
  0x18, 0x00, 0x00, 0x00, 0x9f, 0xf6, 0x68, 0x3c, 0x00, 0x00, 0x00, 0x00,
  0x56, 0xa9, 0xa2, 0x3d, 0x5c, 0x13, 0xd4, 0xbd, 0x60, 0x7b, 0x9f, 0xbd,
  0x6a, 0x07, 0x32, 0xbe, 0xa6, 0xff, 0xff, 0xff, 0x10, 0x00, 0x00, 0x00,
  0x03, 0x00, 0x00, 0x00, 0x10, 0x00, 0x00, 0x00, 0x24, 0x00, 0x00, 0x00,
  0x01, 0x00, 0x00, 0x00, 0x06, 0x00, 0x00, 0x00, 0x0c, 0x00, 0x00, 0x00,
  0x64, 0x65, 0x6e, 0x73, 0x65, 0x5f, 0x33, 0x2f, 0x62, 0x69, 0x61, 0x73,
  0x00, 0x00, 0x00, 0x00, 0x04, 0x00, 0x06, 0x00, 0x04, 0x00, 0x00, 0x00,
  0x00, 0x00, 0x06, 0x00, 0x08, 0x00, 0x04, 0x00, 0x06, 0x00, 0x00, 0x00,
  0x04, 0x00, 0x00, 0x00, 0x0c, 0x00, 0x00, 0x00, 0x00, 0x00, 0x00, 0x00,
  0xab, 0x2f, 0xb9, 0xbd, 0x84, 0x6e, 0x30, 0xbd, 0x00, 0x00, 0x0e, 0x00,
  0x14, 0x00, 0x04, 0x00, 0x00, 0x00, 0x08, 0x00, 0x0c, 0x00, 0x10, 0x00,
  0x0e, 0x00, 0x00, 0x00, 0x10, 0x00, 0x00, 0x00, 0x02, 0x00, 0x00, 0x00,
  0x10, 0x00, 0x00, 0x00, 0x20, 0x00, 0x00, 0x00, 0x01, 0x00, 0x00, 0x00,
  0x03, 0x00, 0x00, 0x00, 0x0c, 0x00, 0x00, 0x00, 0x64, 0x65, 0x6e, 0x73,
  0x65, 0x5f, 0x34, 0x2f, 0x62, 0x69, 0x61, 0x73, 0x00, 0x00, 0x00, 0x00,
  0x90, 0xff, 0xff, 0xff, 0x14, 0x00, 0x18, 0x00, 0x04, 0x00, 0x00, 0x00,
  0x08, 0x00, 0x0c, 0x00, 0x10, 0x00, 0x00, 0x00, 0x00, 0x00, 0x14, 0x00,
  0x14, 0x00, 0x00, 0x00, 0x14, 0x00, 0x00, 0x00, 0x01, 0x00, 0x00, 0x00,
  0x18, 0x00, 0x00, 0x00, 0x44, 0x00, 0x00, 0x00, 0x34, 0x00, 0x00, 0x00,
  0x02, 0x00, 0x00, 0x00, 0x01, 0x00, 0x00, 0x00, 0x24, 0x00, 0x00, 0x00,
  0x1d, 0x00, 0x00, 0x00, 0x73, 0x65, 0x72, 0x76, 0x69, 0x6e, 0x67, 0x5f,
  0x64, 0x65, 0x66, 0x61, 0x75, 0x6c, 0x74, 0x5f, 0x64, 0x65, 0x6e, 0x73,
  0x65, 0x5f, 0x69, 0x6e, 0x70, 0x75, 0x74, 0x3a, 0x30, 0x00, 0x00, 0x00,
  0x02, 0x00, 0x00, 0x00, 0xff, 0xff, 0xff, 0xff, 0x24, 0x00, 0x00, 0x00,
  0xfc, 0xff, 0xff, 0xff, 0x04, 0x00, 0x04, 0x00, 0x04, 0x00, 0x00, 0x00
};
unsigned int models_model_no_quant_tflite_len = 5784;
