/* Copyright 2020 The TensorFlow Authors. All Rights Reserved.

Licensed under the Apache License, Version 2.0 (the "License");
you may not use this file except in compliance with the License.
You may obtain a copy of the License at

    http://www.apache.org/licenses/LICENSE-2.0

Unless required by applicable law or agreed to in writing, software
distributed under the License is distributed on an "AS IS" BASIS,
WITHOUT WARRANTIES OR CONDITIONS OF ANY KIND, either express or implied.
See the License for the specific language governing permissions and
limitations under the License.
==============================================================================*/

// Automatically created from a TensorFlow Lite flatbuffer using the command:
// xxd -i model.tflite > model.cc

// This is a standard TensorFlow Lite model file that has been converted into a
// C data array, so it can be easily compiled into a binary for devices that
// don't have a file system.

// See train/README.md for a full description of the creation process.

#include "model.h"

// Keep model aligned to 8 bytes to guarantee aligned 64-bit accesses.
alignas(8) const unsigned char g_model[] = {
    0x1c, 0x00, 0x00, 0x00, 0x54, 0x46, 0x4c, 0x33, 0x14, 0x00, 0x20, 0x00,
  0x04, 0x00, 0x08, 0x00, 0x0c, 0x00, 0x10, 0x00, 0x14, 0x00, 0x00, 0x00,
  0x18, 0x00, 0x1c, 0x00, 0x14, 0x00, 0x00, 0x00, 0x03, 0x00, 0x00, 0x00,
  0x18, 0x00, 0x00, 0x00, 0x20, 0x00, 0x00, 0x00, 0x50, 0x01, 0x00, 0x00,
  0x20, 0x00, 0x00, 0x00, 0xf8, 0x00, 0x00, 0x00, 0x5c, 0x00, 0x00, 0x00,
  0x02, 0x00, 0x00, 0x00, 0x78, 0x04, 0x00, 0x00, 0x20, 0x02, 0x00, 0x00,
  0x01, 0x00, 0x00, 0x00, 0x54, 0x01, 0x00, 0x00, 0x10, 0x00, 0x00, 0x00,
  0x14, 0x15, 0x00, 0x00, 0x10, 0x15, 0x00, 0x00, 0x3c, 0x14, 0x00, 0x00,
  0xcc, 0x13, 0x00, 0x00, 0x60, 0x13, 0x00, 0x00, 0xdc, 0x12, 0x00, 0x00,
  0x94, 0x09, 0x00, 0x00, 0xcc, 0x06, 0x00, 0x00, 0x44, 0x05, 0x00, 0x00,
  0x9c, 0x04, 0x00, 0x00, 0xec, 0x14, 0x00, 0x00, 0xe8, 0x14, 0x00, 0x00,
  0xe4, 0x14, 0x00, 0x00, 0xe0, 0x14, 0x00, 0x00, 0xdc, 0x14, 0x00, 0x00,
  0xd0, 0x00, 0x00, 0x00, 0x01, 0x00, 0x00, 0x00, 0x10, 0x00, 0x00, 0x00,
  0x0c, 0x00, 0x14, 0x00, 0x10, 0x00, 0x0c, 0x00, 0x08, 0x00, 0x04, 0x00,
  0x0c, 0x00, 0x00, 0x00, 0x10, 0x00, 0x00, 0x00, 0x18, 0x00, 0x00, 0x00,
  0x28, 0x00, 0x00, 0x00, 0x2c, 0x00, 0x00, 0x00, 0x05, 0x00, 0x00, 0x00,
  0x73, 0x65, 0x72, 0x76, 0x65, 0x00, 0x00, 0x00, 0x0f, 0x00, 0x00, 0x00,
  0x73, 0x65, 0x72, 0x76, 0x69, 0x6e, 0x67, 0x5f, 0x64, 0x65, 0x66, 0x61,
  0x75, 0x6c, 0x74, 0x00, 0x01, 0x00, 0x00, 0x00, 0x14, 0x00, 0x00, 0x00,
  0x01, 0x00, 0x00, 0x00, 0x28, 0x00, 0x00, 0x00, 0x08, 0x00, 0x0c, 0x00,
  0x08, 0x00, 0x04, 0x00, 0x08, 0x00, 0x00, 0x00, 0x0d, 0x00, 0x00, 0x00,
  0x04, 0x00, 0x00, 0x00, 0x08, 0x00, 0x00, 0x00, 0x64, 0x65, 0x6e, 0x73,
  0x65, 0x5f, 0x32, 0x30, 0x00, 0x00, 0x00, 0x00, 0x7e, 0xec, 0xff, 0xff,
  0x04, 0x00, 0x00, 0x00, 0x0e, 0x00, 0x00, 0x00, 0x64, 0x65, 0x6e, 0x73,
  0x65, 0x5f, 0x31, 0x37, 0x5f, 0x69, 0x6e, 0x70, 0x75, 0x74, 0x00, 0x00,
  0x01, 0x00, 0x00, 0x00, 0x0c, 0x00, 0x00, 0x00, 0x08, 0x00, 0x0c, 0x00,
  0x04, 0x00, 0x08, 0x00, 0x08, 0x00, 0x00, 0x00, 0x08, 0x00, 0x00, 0x00,
  0x0f, 0x00, 0x00, 0x00, 0x13, 0x00, 0x00, 0x00, 0x6d, 0x69, 0x6e, 0x5f,
  0x72, 0x75, 0x6e, 0x74, 0x69, 0x6d, 0x65, 0x5f, 0x76, 0x65, 0x72, 0x73,
  0x69, 0x6f, 0x6e, 0x00, 0xce, 0xec, 0xff, 0xff, 0x04, 0x00, 0x00, 0x00,
  0x10, 0x00, 0x00, 0x00, 0x31, 0x2e, 0x35, 0x2e, 0x30, 0x00, 0x00, 0x00,
  0x00, 0x00, 0x00, 0x00, 0x00, 0x00, 0x00, 0x00, 0x0f, 0x00, 0x00, 0x00,
  0x4d, 0x4c, 0x49, 0x52, 0x20, 0x43, 0x6f, 0x6e, 0x76, 0x65, 0x72, 0x74,
  0x65, 0x64, 0x2e, 0x00, 0x00, 0x00, 0x0e, 0x00, 0x18, 0x00, 0x04, 0x00,
  0x08, 0x00, 0x0c, 0x00, 0x10, 0x00, 0x14, 0x00, 0x0e, 0x00, 0x00, 0x00,
  0x14, 0x00, 0x00, 0x00, 0x4c, 0x00, 0x00, 0x00, 0x50, 0x00, 0x00, 0x00,
  0x54, 0x00, 0x00, 0x00, 0x68, 0x00, 0x00, 0x00, 0x0e, 0x00, 0x00, 0x00,
  0x4c, 0x13, 0x00, 0x00, 0x00, 0x13, 0x00, 0x00, 0x94, 0x12, 0x00, 0x00,
  0x30, 0x12, 0x00, 0x00, 0xc4, 0x11, 0x00, 0x00, 0x3c, 0x11, 0x00, 0x00,
  0xf4, 0x07, 0x00, 0x00, 0x2c, 0x05, 0x00, 0x00, 0xa4, 0x03, 0x00, 0x00,
  0xe8, 0x02, 0x00, 0x00, 0x2c, 0x02, 0x00, 0x00, 0x94, 0x01, 0x00, 0x00,
  0x0c, 0x01, 0x00, 0x00, 0x84, 0x00, 0x00, 0x00, 0x01, 0x00, 0x00, 0x00,
  0x00, 0x00, 0x00, 0x00, 0x01, 0x00, 0x00, 0x00, 0x0d, 0x00, 0x00, 0x00,
  0x05, 0x00, 0x00, 0x00, 0x68, 0x02, 0x00, 0x00, 0xd0, 0x01, 0x00, 0x00,
  0x38, 0x01, 0x00, 0x00, 0xb4, 0x00, 0x00, 0x00, 0x1c, 0x00, 0x00, 0x00,
  0x04, 0x00, 0x00, 0x00, 0x6d, 0x61, 0x69, 0x6e, 0x00, 0x00, 0x0e, 0x00,
  0x18, 0x00, 0x08, 0x00, 0x0c, 0x00, 0x10, 0x00, 0x07, 0x00, 0x14, 0x00,
  0x0e, 0x00, 0x00, 0x00, 0x00, 0x00, 0x00, 0x09, 0x01, 0x00, 0x00, 0x00,
  0x1c, 0x00, 0x00, 0x00, 0x10, 0x00, 0x00, 0x00, 0x04, 0x00, 0x00, 0x00,
  0xba, 0xed, 0xff, 0xff, 0x00, 0x00, 0x80, 0x3f, 0x01, 0x00, 0x00, 0x00,
  0x0d, 0x00, 0x00, 0x00, 0x01, 0x00, 0x00, 0x00, 0x0c, 0x00, 0x00, 0x00,
  0xb8, 0xfd, 0xff, 0xff, 0x19, 0x00, 0x00, 0x00, 0x00, 0x00, 0x00, 0x19,
  0x01, 0x00, 0x00, 0x00, 0x80, 0xed, 0xff, 0xff, 0x14, 0x00, 0x00, 0x00,
  0x0e, 0x00, 0x00, 0x00, 0x18, 0x00, 0x00, 0x00, 0x40, 0x00, 0x00, 0x00,
  0x30, 0x00, 0x00, 0x00, 0x02, 0x00, 0x00, 0x00, 0x01, 0x00, 0x00, 0x00,
  0x03, 0x00, 0x00, 0x00, 0x19, 0x00, 0x00, 0x00, 0x53, 0x74, 0x61, 0x74,
  0x65, 0x66, 0x75, 0x6c, 0x50, 0x61, 0x72, 0x74, 0x69, 0x74, 0x69, 0x6f,
  0x6e, 0x65, 0x64, 0x43, 0x61, 0x6c, 0x6c, 0x3a, 0x30, 0x00, 0x00, 0x00,
  0x02, 0x00, 0x00, 0x00, 0xff, 0xff, 0xff, 0xff, 0x03, 0x00, 0x00, 0x00,
  0x60, 0xed, 0xff, 0xff, 0xfa, 0xfe, 0xff, 0xff, 0x00, 0x00, 0x00, 0x08,
  0x18, 0x00, 0x00, 0x00, 0x0c, 0x00, 0x00, 0x00, 0x04, 0x00, 0x00, 0x00,
  0x78, 0xed, 0xff, 0xff, 0x01, 0x00, 0x00, 0x00, 0x0c, 0x00, 0x00, 0x00,
  0x03, 0x00, 0x00, 0x00, 0x0b, 0x00, 0x00, 0x00, 0x08, 0x00, 0x00, 0x00,
  0x01, 0x00, 0x00, 0x00, 0x04, 0xee, 0xff, 0xff, 0x14, 0x00, 0x00, 0x00,
  0x0d, 0x00, 0x00, 0x00, 0x18, 0x00, 0x00, 0x00, 0x3c, 0x00, 0x00, 0x00,
  0x2c, 0x00, 0x00, 0x00, 0x02, 0x00, 0x00, 0x00, 0x01, 0x00, 0x00, 0x00,
  0x03, 0x00, 0x00, 0x00, 0x14, 0x00, 0x00, 0x00, 0x74, 0x66, 0x6c, 0x2e,
  0x66, 0x75, 0x6c, 0x6c, 0x79, 0x5f, 0x63, 0x6f, 0x6e, 0x6e, 0x65, 0x63,
  0x74, 0x65, 0x64, 0x33, 0x00, 0x00, 0x00, 0x00, 0x02, 0x00, 0x00, 0x00,
  0xff, 0xff, 0xff, 0xff, 0x03, 0x00, 0x00, 0x00, 0xe0, 0xed, 0xff, 0xff,
  0x7a, 0xff, 0xff, 0xff, 0x00, 0x00, 0x00, 0x08, 0x1c, 0x00, 0x00, 0x00,
  0x10, 0x00, 0x00, 0x00, 0x04, 0x00, 0x00, 0x00, 0xd6, 0xfe, 0xff, 0xff,
  0x00, 0x00, 0x00, 0x01, 0x01, 0x00, 0x00, 0x00, 0x0b, 0x00, 0x00, 0x00,
  0x03, 0x00, 0x00, 0x00, 0x0a, 0x00, 0x00, 0x00, 0x07, 0x00, 0x00, 0x00,
  0x02, 0x00, 0x00, 0x00, 0x88, 0xee, 0xff, 0xff, 0x14, 0x00, 0x00, 0x00,
  0x0c, 0x00, 0x00, 0x00, 0x18, 0x00, 0x00, 0x00, 0x3c, 0x00, 0x00, 0x00,
  0x2c, 0x00, 0x00, 0x00, 0x02, 0x00, 0x00, 0x00, 0x01, 0x00, 0x00, 0x00,
  0x08, 0x00, 0x00, 0x00, 0x14, 0x00, 0x00, 0x00, 0x74, 0x66, 0x6c, 0x2e,
  0x66, 0x75, 0x6c, 0x6c, 0x79, 0x5f, 0x63, 0x6f, 0x6e, 0x6e, 0x65, 0x63,
  0x74, 0x65, 0x64, 0x32, 0x00, 0x00, 0x00, 0x00, 0x02, 0x00, 0x00, 0x00,
  0xff, 0xff, 0xff, 0xff, 0x08, 0x00, 0x00, 0x00, 0x40, 0xef, 0xff, 0xff,
  0x00, 0x00, 0x0e, 0x00, 0x14, 0x00, 0x00, 0x00, 0x08, 0x00, 0x0c, 0x00,
  0x07, 0x00, 0x10, 0x00, 0x0e, 0x00, 0x00, 0x00, 0x00, 0x00, 0x00, 0x08,
  0x1c, 0x00, 0x00, 0x00, 0x10, 0x00, 0x00, 0x00, 0x04, 0x00, 0x00, 0x00,
  0x6a, 0xff, 0xff, 0xff, 0x00, 0x00, 0x00, 0x01, 0x01, 0x00, 0x00, 0x00,
  0x0a, 0x00, 0x00, 0x00, 0x03, 0x00, 0x00, 0x00, 0x09, 0x00, 0x00, 0x00,
  0x06, 0x00, 0x00, 0x00, 0x03, 0x00, 0x00, 0x00, 0x1c, 0xef, 0xff, 0xff,
  0x14, 0x00, 0x00, 0x00, 0x0b, 0x00, 0x00, 0x00, 0x18, 0x00, 0x00, 0x00,
  0x3c, 0x00, 0x00, 0x00, 0x2c, 0x00, 0x00, 0x00, 0x02, 0x00, 0x00, 0x00,
  0x01, 0x00, 0x00, 0x00, 0x0a, 0x00, 0x00, 0x00, 0x14, 0x00, 0x00, 0x00,
  0x74, 0x66, 0x6c, 0x2e, 0x66, 0x75, 0x6c, 0x6c, 0x79, 0x5f, 0x63, 0x6f,
  0x6e, 0x6e, 0x65, 0x63, 0x74, 0x65, 0x64, 0x31, 0x00, 0x00, 0x00, 0x00,
  0x02, 0x00, 0x00, 0x00, 0xff, 0xff, 0xff, 0xff, 0x0a, 0x00, 0x00, 0x00,
  0xd4, 0xef, 0xff, 0xff, 0x00, 0x00, 0x0e, 0x00, 0x16, 0x00, 0x00, 0x00,
  0x08, 0x00, 0x0c, 0x00, 0x07, 0x00, 0x10, 0x00, 0x0e, 0x00, 0x00, 0x00,
  0x00, 0x00, 0x00, 0x08, 0x24, 0x00, 0x00, 0x00, 0x18, 0x00, 0x00, 0x00,
  0x0c, 0x00, 0x00, 0x00, 0x00, 0x00, 0x06, 0x00, 0x08, 0x00, 0x07, 0x00,
  0x06, 0x00, 0x00, 0x00, 0x00, 0x00, 0x00, 0x01, 0x01, 0x00, 0x00, 0x00,
  0x09, 0x00, 0x00, 0x00, 0x03, 0x00, 0x00, 0x00, 0x00, 0x00, 0x00, 0x00,
  0x05, 0x00, 0x00, 0x00, 0x04, 0x00, 0x00, 0x00, 0x0c, 0x00, 0x10, 0x00,
  0x0b, 0x00, 0x00, 0x00, 0x0c, 0x00, 0x04, 0x00, 0x0c, 0x00, 0x00, 0x00,
  0x09, 0x00, 0x00, 0x00, 0x00, 0x00, 0x00, 0x09, 0x01, 0x00, 0x00, 0x00,
  0xd4, 0xef, 0xff, 0xff, 0x14, 0x00, 0x00, 0x00, 0x0a, 0x00, 0x00, 0x00,
  0x18, 0x00, 0x00, 0x00, 0x38, 0x00, 0x00, 0x00, 0x28, 0x00, 0x00, 0x00,
  0x02, 0x00, 0x00, 0x00, 0x01, 0x00, 0x00, 0x00, 0x10, 0x00, 0x00, 0x00,
  0x13, 0x00, 0x00, 0x00, 0x74, 0x66, 0x6c, 0x2e, 0x66, 0x75, 0x6c, 0x6c,
  0x79, 0x5f, 0x63, 0x6f, 0x6e, 0x6e, 0x65, 0x63, 0x74, 0x65, 0x64, 0x00,
  0x02, 0x00, 0x00, 0x00, 0xff, 0xff, 0xff, 0xff, 0x10, 0x00, 0x00, 0x00,
  0xac, 0xef, 0xff, 0xff, 0x82, 0xf0, 0xff, 0xff, 0x04, 0x00, 0x00, 0x00,
  0x60, 0x00, 0x00, 0x00, 0x42, 0xef, 0xd2, 0x3d, 0xf9, 0x2c, 0x2a, 0x3f,
  0x85, 0x77, 0xf0, 0xbc, 0x30, 0x93, 0x0f, 0xbf, 0x38, 0x1f, 0xeb, 0x3e,
  0x14, 0x1c, 0x31, 0xbf, 0x60, 0x75, 0xe4, 0xbe, 0xeb, 0x63, 0x9a, 0x3a,
  0xdd, 0x44, 0xc6, 0x3e, 0x25, 0x97, 0x1d, 0xbe, 0x8c, 0x4c, 0xe9, 0x3e,
  0x26, 0x34, 0xa3, 0x3e, 0x9b, 0x9e, 0x09, 0x3f, 0x69, 0x69, 0x95, 0x3e,
  0xea, 0x82, 0x84, 0xbf, 0x3f, 0x15, 0x15, 0xbf, 0x4e, 0xa4, 0xfe, 0x3e,
  0xc3, 0x6d, 0x28, 0xbf, 0x54, 0xd3, 0x12, 0x3d, 0x13, 0x3a, 0xd3, 0xbe,
  0xd0, 0x01, 0x22, 0xbf, 0xb5, 0x34, 0x7a, 0xbf, 0xc0, 0xb4, 0x12, 0x3f,
  0xb4, 0xe6, 0x24, 0x3f, 0xce, 0xf0, 0xff, 0xff, 0x10, 0x00, 0x00, 0x00,
  0x09, 0x00, 0x00, 0x00, 0x14, 0x00, 0x00, 0x00, 0x24, 0x00, 0x00, 0x00,
  0x02, 0x00, 0x00, 0x00, 0x03, 0x00, 0x00, 0x00, 0x08, 0x00, 0x00, 0x00,
  0x0d, 0x00, 0x00, 0x00, 0x73, 0x74, 0x64, 0x2e, 0x63, 0x6f, 0x6e, 0x73,
  0x74, 0x61, 0x6e, 0x74, 0x33, 0x00, 0x00, 0x00, 0x50, 0xf0, 0xff, 0xff,
  0x26, 0xf1, 0xff, 0xff, 0x04, 0x00, 0x00, 0x00, 0x40, 0x01, 0x00, 0x00,
  0x3a, 0x22, 0xba, 0x3e, 0x01, 0xa2, 0x4a, 0x3e, 0x8b, 0x6c, 0x33, 0x3e,
  0x41, 0x9c, 0xfb, 0x3e, 0x4d, 0x12, 0x1b, 0x3e, 0xd6, 0x5e, 0xc1, 0xbd,
  0xd1, 0x45, 0x6b, 0x3e, 0x2a, 0x07, 0x05, 0x3f, 0x41, 0x1e, 0xc9, 0xbe,
  0x10, 0x54, 0x1d, 0x3f, 0x84, 0xe1, 0xc3, 0xbe, 0xd7, 0x80, 0xf7, 0xbe,
  0x0a, 0x00, 0xbe, 0xbe, 0x91, 0x90, 0xef, 0x3e, 0x94, 0x7a, 0xba, 0xbe,
  0x41, 0x6a, 0x12, 0xbe, 0x9f, 0x2f, 0xcf, 0x3e, 0x92, 0xb0, 0xd9, 0xbd,
  0x70, 0xa6, 0x45, 0xbe, 0x02, 0xec, 0x77, 0xbe, 0x9b, 0x24, 0xd1, 0x3e,
  0xa8, 0x40, 0xb4, 0xbe, 0x36, 0xdc, 0x05, 0xbe, 0x90, 0x8e, 0xe9, 0xbd,
  0xee, 0x2e, 0xb4, 0x3e, 0x26, 0xb3, 0x5d, 0xbe, 0x86, 0x8d, 0x8e, 0x3d,
  0xb0, 0x94, 0x3f, 0xbe, 0x50, 0x17, 0x44, 0xbf, 0x1c, 0x97, 0xec, 0xbe,
  0x94, 0xbb, 0x2f, 0xbd, 0xdb, 0xa2, 0x49, 0x3f, 0x95, 0xf9, 0x9d, 0x3d,
  0x24, 0xe7, 0x91, 0x3e, 0x55, 0x72, 0xb9, 0x3c, 0xdb, 0xb2, 0x1a, 0x3f,
  0x0f, 0xc5, 0x9d, 0xbe, 0xfa, 0x10, 0x0f, 0xbf, 0x49, 0xa0, 0x52, 0xbe,
  0x0c, 0xe2, 0xd6, 0xbc, 0x26, 0x84, 0xec, 0xbe, 0x98, 0x38, 0xd8, 0xbd,
  0x5f, 0xb4, 0x7a, 0x3e, 0xd9, 0xb2, 0xdd, 0xbe, 0xab, 0xdd, 0x06, 0xbf,
  0x28, 0xe8, 0xab, 0xbd, 0xb0, 0xb4, 0xbb, 0x3e, 0xb0, 0x37, 0x09, 0xbf,
  0xe4, 0x48, 0x14, 0xbe, 0xe0, 0xaa, 0xa7, 0x3d, 0x2b, 0x10, 0x23, 0xbe,
  0x9f, 0x4d, 0x43, 0x3f, 0x95, 0x35, 0xf7, 0xbe, 0x2b, 0xa3, 0x0f, 0x3e,
  0x30, 0xa1, 0x14, 0xbd, 0x4b, 0x62, 0x80, 0xbe, 0x3a, 0x10, 0xc4, 0xbe,
  0x34, 0xd8, 0xe5, 0xbe, 0x0b, 0xe1, 0xb7, 0x3e, 0xc7, 0x57, 0x18, 0x3e,
  0xaa, 0xad, 0xfd, 0x3e, 0x9b, 0xe2, 0x36, 0xbf, 0x74, 0xa3, 0xbd, 0xbd,
  0x35, 0xd5, 0x74, 0xbe, 0x48, 0x1d, 0x02, 0x3f, 0x36, 0x71, 0x0a, 0x3e,
  0x59, 0x83, 0xad, 0xbe, 0x69, 0xfe, 0x39, 0x3d, 0x7d, 0x69, 0x94, 0xbe,
  0xc3, 0xdf, 0xd4, 0x3e, 0xe8, 0x12, 0x4f, 0xbe, 0xc9, 0x83, 0x0a, 0xbf,
  0x84, 0x74, 0x63, 0xbe, 0xf6, 0xc2, 0xf2, 0xbd, 0x46, 0xf6, 0x99, 0x3e,
  0xb7, 0x0c, 0xe7, 0x3e, 0x8f, 0xf2, 0x96, 0x3e, 0x4e, 0x3d, 0x56, 0x3f,
  0x1e, 0xc4, 0xcb, 0x3e, 0x75, 0xd4, 0xa5, 0x3e, 0x52, 0xf2, 0xff, 0xff,
  0x10, 0x00, 0x00, 0x00, 0x08, 0x00, 0x00, 0x00, 0x14, 0x00, 0x00, 0x00,
  0x24, 0x00, 0x00, 0x00, 0x02, 0x00, 0x00, 0x00, 0x08, 0x00, 0x00, 0x00,
  0x0a, 0x00, 0x00, 0x00, 0x0d, 0x00, 0x00, 0x00, 0x73, 0x74, 0x64, 0x2e,
  0x63, 0x6f, 0x6e, 0x73, 0x74, 0x61, 0x6e, 0x74, 0x32, 0x00, 0x00, 0x00,
  0xd4, 0xf1, 0xff, 0xff, 0xaa, 0xf2, 0xff, 0xff, 0x04, 0x00, 0x00, 0x00,
  0x80, 0x02, 0x00, 0x00, 0xe6, 0xac, 0xa7, 0x3e, 0xc3, 0x9b, 0x6c, 0xbe,
  0x7a, 0xcb, 0x43, 0x3e, 0x8d, 0x3c, 0x24, 0xbc, 0x3e, 0xbe, 0xb8, 0xbe,
  0x64, 0x32, 0x9b, 0x3e, 0x04, 0xa2, 0x93, 0x3e, 0x1d, 0x34, 0xbc, 0x3e,
  0xda, 0x45, 0x6e, 0xbe, 0xea, 0x33, 0xff, 0x3d, 0x0a, 0x32, 0xba, 0x3e,
  0xab, 0xd9, 0x92, 0xbe, 0x4d, 0x12, 0xda, 0xbb, 0x0b, 0x50, 0x86, 0xbe,
  0x0a, 0x28, 0x88, 0x3e, 0xc7, 0xe6, 0x2c, 0xbe, 0xad, 0x1f, 0xe8, 0x3e,
  0xc1, 0x66, 0x85, 0xbe, 0xf6, 0x43, 0xef, 0x3e, 0x67, 0xb0, 0x8f, 0xbd,
  0xab, 0x77, 0xfb, 0xbd, 0xc5, 0x5e, 0xb9, 0xbd, 0x9d, 0x15, 0xa4, 0xbe,
  0xe4, 0xcf, 0x4e, 0x3e, 0x82, 0x86, 0x21, 0xbe, 0x1e, 0xe0, 0x8b, 0xbc,
  0xb7, 0xd0, 0xc9, 0x3e, 0xae, 0x16, 0x89, 0x3e, 0xf0, 0x68, 0x54, 0x3d,
  0x2a, 0xc8, 0x09, 0x3f, 0x4c, 0xd7, 0xd0, 0x3d, 0x66, 0x49, 0xa4, 0xbe,
  0x46, 0x10, 0xb7, 0x3d, 0xad, 0xdd, 0x88, 0xbe, 0xf9, 0x73, 0x5c, 0x3d,
  0x3b, 0x35, 0xab, 0x3e, 0xc4, 0xf0, 0xe1, 0xbe, 0x58, 0x8e, 0xf4, 0xbd,
  0x59, 0x06, 0xaa, 0xbe, 0xf1, 0x26, 0x01, 0x3d, 0x5d, 0x8e, 0xa5, 0xbe,
  0x6c, 0x28, 0xa1, 0xbe, 0x91, 0xd9, 0xd6, 0x3d, 0xab, 0xf8, 0xc7, 0xbd,
  0xa7, 0xef, 0x86, 0xbe, 0xdc, 0x8a, 0xba, 0xbe, 0x9e, 0x03, 0xf3, 0xbe,
  0xe9, 0xb8, 0xa2, 0x3e, 0x3e, 0xf1, 0xbe, 0x3c, 0xc6, 0xd9, 0x7e, 0x3e,
  0x55, 0xc2, 0x0c, 0x3e, 0x30, 0x66, 0x8f, 0x3e, 0xf2, 0x2a, 0x06, 0x3f,
  0x75, 0x12, 0xa2, 0xbe, 0x23, 0x2e, 0xbe, 0xbe, 0x0d, 0x1b, 0x9e, 0x3e,
  0xe4, 0xd9, 0x28, 0x3e, 0x51, 0x9e, 0xe9, 0x3e, 0xf5, 0x97, 0xe5, 0x3d,
  0x02, 0xc4, 0xc0, 0xbd, 0x13, 0x6f, 0x92, 0xbd, 0x23, 0xf6, 0x88, 0xbd,
  0x65, 0x0c, 0xda, 0x3e, 0x4b, 0xe0, 0x5f, 0xbc, 0xe1, 0x79, 0xbc, 0x3e,
  0x9f, 0xfc, 0xa6, 0xbd, 0x37, 0x66, 0xee, 0xbd, 0xb6, 0x8a, 0xd2, 0x3e,
  0x15, 0x81, 0x9f, 0x3e, 0xbf, 0x4e, 0xbb, 0x3e, 0x3c, 0xd5, 0xd6, 0x3e,
  0xc4, 0x2a, 0xce, 0xbe, 0x62, 0xf2, 0x1b, 0x3f, 0x8f, 0x4f, 0xaf, 0x3e,
  0xf5, 0xce, 0x6c, 0x3e, 0x12, 0xce, 0x2d, 0x3f, 0xba, 0x5c, 0x80, 0xbe,
  0x86, 0xac, 0xdd, 0xbe, 0xa1, 0xaf, 0xb5, 0x3e, 0xb7, 0xe7, 0x1c, 0xbd,
  0xb7, 0x4d, 0x96, 0x3d, 0xbc, 0x70, 0xcf, 0xbe, 0x00, 0x59, 0xfc, 0x3e,
  0x8b, 0x2a, 0xcb, 0xbe, 0xde, 0xa2, 0x8d, 0x3e, 0x6d, 0xe0, 0xd8, 0x3e,
  0xf7, 0x0b, 0x4a, 0xbd, 0xe9, 0xe2, 0x2c, 0x3f, 0x65, 0x71, 0x2f, 0xbe,
  0x29, 0x72, 0xe6, 0x3e, 0x4d, 0xfa, 0x8d, 0xbd, 0x65, 0x59, 0x84, 0x3d,
  0xee, 0x9b, 0xc3, 0xbe, 0xec, 0x12, 0x83, 0x3e, 0x28, 0x15, 0x98, 0xbe,
  0x67, 0x5c, 0x8e, 0x3d, 0x98, 0x2c, 0xfe, 0xbe, 0x97, 0xb9, 0x3d, 0x3e,
  0x4f, 0xbc, 0x08, 0xbd, 0x64, 0xc2, 0xe0, 0x3e, 0xfc, 0x05, 0xdb, 0x3c,
  0x6b, 0x95, 0x89, 0xbe, 0xe5, 0x38, 0xd3, 0x3e, 0x7a, 0x88, 0x94, 0xbe,
  0xd4, 0x71, 0x9b, 0x3e, 0x2e, 0x1e, 0xa6, 0xbe, 0xc8, 0xfe, 0xb4, 0x3e,
  0xb4, 0x38, 0x09, 0xbf, 0x6b, 0x8c, 0xad, 0x3d, 0xd4, 0xdd, 0x38, 0xbe,
  0x16, 0x68, 0x74, 0x3e, 0xd5, 0x05, 0xc8, 0x3d, 0xa8, 0xbe, 0xe3, 0xbe,
  0x1c, 0x9a, 0x5f, 0xbe, 0x18, 0x98, 0x59, 0x3e, 0xcf, 0x0b, 0x7b, 0xbd,
  0x7e, 0x17, 0x22, 0x3e, 0x36, 0xda, 0xee, 0xbe, 0x12, 0x75, 0x16, 0x3f,
  0x55, 0x6e, 0xcd, 0xbd, 0x4d, 0xa9, 0x41, 0x3f, 0x23, 0x64, 0x78, 0xbe,
  0x1c, 0x9f, 0x92, 0x3e, 0xfb, 0xe4, 0x08, 0x3f, 0xb5, 0xcd, 0x8f, 0xbe,
  0xa2, 0x91, 0x82, 0xbe, 0x4c, 0x2c, 0xc9, 0xbd, 0x1a, 0x30, 0x1a, 0xbf,
  0x6e, 0x1d, 0xb7, 0x3d, 0x93, 0x04, 0xc4, 0xbe, 0xec, 0xde, 0xce, 0x3d,
  0x03, 0x74, 0xa8, 0x3c, 0x5e, 0x1f, 0xb2, 0xbe, 0xab, 0x43, 0x6b, 0x3d,
  0x4c, 0xa2, 0xc3, 0xbe, 0x5d, 0x0a, 0x98, 0xbe, 0xd3, 0xa0, 0x71, 0xbe,
  0xac, 0xd6, 0xdc, 0x3e, 0x14, 0x16, 0x16, 0x3e, 0x4f, 0xa3, 0x2f, 0xbe,
  0xa2, 0xc7, 0xdd, 0xbd, 0xca, 0xe7, 0xa4, 0x3e, 0x54, 0x98, 0x85, 0xbe,
  0x23, 0xe7, 0x55, 0x3e, 0xac, 0x88, 0x98, 0x3e, 0x6f, 0x01, 0xaf, 0x3d,
  0x07, 0xd3, 0x44, 0xbe, 0x5d, 0x2c, 0x0c, 0xbf, 0xa9, 0x00, 0x1c, 0x3e,
  0x6b, 0xd1, 0xc2, 0x3a, 0x33, 0x71, 0xbd, 0x3d, 0x80, 0xf9, 0x12, 0x3f,
  0x8a, 0xb1, 0x7a, 0xbd, 0x52, 0xbe, 0x0e, 0xbe, 0x5a, 0x94, 0x28, 0x3e,
  0x6c, 0xb1, 0x36, 0x3e, 0xe8, 0x57, 0xb9, 0xbe, 0x7e, 0x1e, 0xd7, 0xbd,
  0xd0, 0xdd, 0x2e, 0xbe, 0x32, 0xff, 0xdb, 0xbe, 0x16, 0xf5, 0xff, 0xff,
  0x10, 0x00, 0x00, 0x00, 0x07, 0x00, 0x00, 0x00, 0x14, 0x00, 0x00, 0x00,
  0x24, 0x00, 0x00, 0x00, 0x02, 0x00, 0x00, 0x00, 0x0a, 0x00, 0x00, 0x00,
  0x10, 0x00, 0x00, 0x00, 0x0d, 0x00, 0x00, 0x00, 0x73, 0x74, 0x64, 0x2e,
  0x63, 0x6f, 0x6e, 0x73, 0x74, 0x61, 0x6e, 0x74, 0x31, 0x00, 0x00, 0x00,
  0x98, 0xf4, 0xff, 0xff, 0x6e, 0xf5, 0xff, 0xff, 0x04, 0x00, 0x00, 0x00,
  0x00, 0x09, 0x00, 0x00, 0x17, 0x24, 0x01, 0xbe, 0x54, 0x98, 0xfb, 0x3d,
  0x78, 0x3d, 0x54, 0x3d, 0x22, 0x89, 0xb0, 0x3e, 0x35, 0xac, 0x0d, 0x3f,
  0x30, 0xf2, 0x97, 0x3e, 0x24, 0x84, 0xe4, 0xbe, 0xca, 0x89, 0x10, 0x3f,
  0x86, 0x36, 0xf2, 0x3d, 0x38, 0xe8, 0xaf, 0x3e, 0xfb, 0xff, 0x4e, 0x3f,
  0xab, 0x0f, 0xab, 0x3d, 0x83, 0xd9, 0x1e, 0x3d, 0x4e, 0x54, 0x46, 0x3e,
  0x2e, 0x71, 0x14, 0x3f, 0xbb, 0xeb, 0xff, 0x3e, 0x84, 0x9f, 0xd7, 0x3e,
  0xc3, 0xd4, 0x33, 0x3e, 0x48, 0xf1, 0x4a, 0xbf, 0x22, 0xc8, 0x35, 0x3e,
  0x64, 0x9d, 0xe9, 0x3e, 0x33, 0xda, 0x1f, 0x3f, 0xef, 0x21, 0x34, 0x3f,
  0x3a, 0x11, 0xad, 0x3e, 0x55, 0x0a, 0x7b, 0xbb, 0xf3, 0x9b, 0xe2, 0x3e,
  0xf8, 0xec, 0xc0, 0x3e, 0x42, 0x84, 0x11, 0x3f, 0xc3, 0x7e, 0x51, 0x3e,
  0x8a, 0xaa, 0x97, 0xbe, 0xf5, 0x7a, 0x6b, 0x3e, 0x82, 0x2e, 0x36, 0x3e,
  0x3f, 0x41, 0x30, 0x3c, 0xa3, 0x4d, 0x78, 0xbd, 0x95, 0xd5, 0x9f, 0xbe,
  0xcb, 0x36, 0x9a, 0xbe, 0x7c, 0xbf, 0xa3, 0xbe, 0xe0, 0xd1, 0x22, 0xbe,
  0xcd, 0x65, 0xd6, 0x3d, 0xaa, 0x13, 0x0b, 0xbe, 0x2e, 0x51, 0xc2, 0xbe,
  0x90, 0x41, 0xa2, 0xbe, 0xc0, 0xca, 0xb3, 0x3e, 0xbf, 0x81, 0x00, 0xbe,
  0x5b, 0x47, 0xcd, 0xbe, 0xc9, 0x60, 0x84, 0xbe, 0x87, 0xe3, 0x67, 0xbe,
  0xa6, 0x24, 0xc0, 0x3d, 0xea, 0xe6, 0xa9, 0x3d, 0x38, 0x41, 0xfc, 0x3d,
  0x91, 0x43, 0x70, 0x3e, 0x1f, 0x79, 0x8c, 0xbd, 0x74, 0x6a, 0xea, 0xbe,
  0x76, 0xdd, 0x60, 0x3e, 0x0c, 0xde, 0x49, 0xbe, 0x92, 0xbe, 0x5c, 0xbe,
  0x3b, 0xd1, 0xdf, 0xbd, 0x0e, 0x8e, 0x82, 0xbd, 0xf0, 0x5b, 0x4f, 0x3c,
  0x0c, 0x14, 0x87, 0x3e, 0x3b, 0x8f, 0x6d, 0xbe, 0x7a, 0x24, 0x57, 0xbe,
  0xad, 0x11, 0xea, 0xbd, 0xc8, 0xa6, 0x1b, 0xbe, 0x8e, 0xa7, 0x69, 0x3e,
  0x2a, 0xac, 0x55, 0xbe, 0x0e, 0x91, 0x55, 0xbb, 0x9f, 0x81, 0x85, 0x3e,
  0xcf, 0x24, 0x94, 0xbd, 0x18, 0x28, 0x93, 0xbe, 0x9e, 0x3b, 0x9e, 0xbd,
  0xf0, 0x23, 0x2a, 0xbe, 0x7a, 0xcc, 0xa2, 0x3e, 0xbc, 0x4f, 0x0e, 0xbf,
  0x97, 0x90, 0x00, 0xbf, 0x43, 0xad, 0xd4, 0x3e, 0x5a, 0xf5, 0x93, 0x3a,
  0x0b, 0x24, 0xbe, 0xbd, 0x79, 0xd8, 0xe5, 0x3e, 0x17, 0xf8, 0x7e, 0x3e,
  0x72, 0xe9, 0x08, 0xbf, 0x57, 0x1b, 0xdb, 0xbd, 0xfa, 0x9e, 0x74, 0x3d,
  0x9d, 0x2b, 0x92, 0xbe, 0x91, 0x33, 0x32, 0xbd, 0x07, 0xd2, 0x4e, 0xbe,
  0x76, 0x96, 0x80, 0xbe, 0x07, 0x9c, 0xa3, 0xbd, 0xa8, 0x84, 0xd4, 0xbd,
  0x3d, 0x6a, 0x99, 0x3d, 0x45, 0xc4, 0xcd, 0xbc, 0x17, 0x59, 0xbb, 0xbd,
  0x2e, 0x2e, 0x19, 0x3e, 0xd2, 0xe1, 0x74, 0xbe, 0xd6, 0xc1, 0x09, 0x3e,
  0xf2, 0x6b, 0xad, 0xbe, 0xe8, 0xcf, 0xac, 0x3e, 0x74, 0x1d, 0x2c, 0x3e,
  0x1d, 0xda, 0x28, 0x3e, 0x22, 0xbc, 0xc6, 0x3e, 0x2a, 0xfe, 0x32, 0x3f,
  0x64, 0x4b, 0x13, 0xbe, 0xe7, 0x15, 0xfc, 0x3d, 0xa9, 0x46, 0x94, 0x3e,
  0x29, 0xd9, 0x2a, 0xba, 0xc9, 0xac, 0x9b, 0xbd, 0xac, 0x2e, 0x9b, 0xbe,
  0x2d, 0x0e, 0x62, 0x3d, 0x12, 0xd9, 0x82, 0x3e, 0xa3, 0xa5, 0x70, 0x3e,
  0x75, 0xbb, 0xfb, 0x3c, 0x7e, 0x4c, 0xc1, 0x3d, 0x62, 0x2e, 0xc1, 0x3d,
  0x30, 0xfe, 0x0b, 0xbe, 0x14, 0x5a, 0x89, 0x3b, 0x95, 0x79, 0xe0, 0xbd,
  0x75, 0xd2, 0x07, 0xbe, 0x31, 0x7b, 0x9f, 0xbd, 0x66, 0xda, 0x8d, 0x3e,
  0x74, 0xf6, 0x40, 0x3e, 0xf5, 0x8f, 0xb1, 0xbc, 0x11, 0xf1, 0xa7, 0x3e,
  0x4c, 0x30, 0xc7, 0xbd, 0xf9, 0x7f, 0xbf, 0xbd, 0xa3, 0xa0, 0xe1, 0xbd,
  0xf1, 0x69, 0x2c, 0x3e, 0xcd, 0x3f, 0x94, 0x3e, 0x8a, 0x13, 0x2d, 0x3e,
  0x66, 0xf5, 0x55, 0xbe, 0xa0, 0xcc, 0x32, 0x3e, 0xac, 0x6f, 0x12, 0xbe,
  0x87, 0x43, 0x84, 0xbe, 0xb2, 0x4a, 0x86, 0xbe, 0x24, 0x02, 0x8c, 0xbe,
  0xdb, 0x8c, 0x31, 0xbd, 0xbf, 0x0b, 0x50, 0xbe, 0x69, 0x77, 0x8a, 0x3e,
  0xb5, 0xe4, 0xb3, 0xbd, 0xc1, 0xb6, 0x66, 0xbe, 0x17, 0xc0, 0x42, 0x3e,
  0x53, 0xb9, 0x0e, 0xbe, 0x24, 0x72, 0x47, 0x3d, 0x14, 0x0e, 0x9d, 0x3e,
  0x7d, 0xa5, 0x97, 0xbd, 0xca, 0x30, 0x58, 0x3e, 0x30, 0x02, 0xd1, 0x3d,
  0xc9, 0x2f, 0x4d, 0x3e, 0xee, 0x84, 0x08, 0x3d, 0x85, 0xb7, 0x1f, 0x3e,
  0x20, 0x4f, 0x8f, 0xbe, 0xe7, 0x2b, 0x74, 0x3e, 0xb4, 0x8d, 0x92, 0xbe,
  0x93, 0x83, 0xd7, 0x3e, 0x82, 0xb9, 0xb9, 0xbd, 0xb6, 0x6a, 0x6d, 0x3e,
  0x8d, 0x71, 0x0d, 0xbe, 0xf6, 0xc6, 0x33, 0x3d, 0x67, 0x12, 0x6a, 0x3e,
  0x1c, 0x60, 0x68, 0x3d, 0x2b, 0x2f, 0xc4, 0xbd, 0x33, 0x5e, 0x83, 0x3d,
  0xe4, 0x32, 0x91, 0xbe, 0x70, 0xa8, 0xbb, 0x3e, 0x77, 0x16, 0x35, 0xbe,
  0xa3, 0xbe, 0x64, 0xbe, 0x51, 0xe0, 0xa8, 0x3e, 0x83, 0x1b, 0x01, 0xbe,
  0x73, 0x6d, 0xec, 0xbd, 0x5e, 0x78, 0x6c, 0xbd, 0x7e, 0xb7, 0x39, 0x3e,
  0x5a, 0x55, 0xb3, 0x3d, 0xe2, 0xa2, 0x2c, 0xbe, 0x0f, 0x74, 0x66, 0xbe,
  0xaa, 0x69, 0x24, 0xbe, 0xbc, 0x0e, 0x4b, 0xbd, 0x39, 0x2f, 0x61, 0xbe,
  0x6d, 0xc9, 0x06, 0x3e, 0x76, 0x3f, 0x99, 0xbd, 0xae, 0xa1, 0xe4, 0x3c,
  0xed, 0x85, 0x9e, 0x3d, 0xe5, 0xe0, 0x36, 0x3e, 0xdc, 0x40, 0x96, 0xbe,
  0x66, 0xae, 0xe4, 0x3d, 0x2b, 0x9c, 0xff, 0x3d, 0xdd, 0xe0, 0x59, 0x3e,
  0x7d, 0x5e, 0x91, 0x3e, 0x22, 0xdb, 0x3f, 0xbe, 0x70, 0xf5, 0x9b, 0xbe,
  0xc9, 0x16, 0x11, 0x3e, 0x64, 0xee, 0x47, 0x3e, 0x95, 0x50, 0xf1, 0x3d,
  0x72, 0xd1, 0xde, 0x3d, 0xfe, 0xed, 0x9f, 0x3e, 0x5f, 0x3e, 0x2b, 0xbe,
  0xd1, 0x40, 0x84, 0xbe, 0x73, 0x53, 0x81, 0x3e, 0x37, 0x66, 0x8b, 0xbe,
  0x2e, 0xe3, 0x02, 0x3e, 0xfa, 0x73, 0xe2, 0x3d, 0xd3, 0xf3, 0xc5, 0xbd,
  0x2d, 0x2b, 0x55, 0xbe, 0x20, 0xfa, 0x35, 0xbd, 0xa3, 0x10, 0x91, 0x3e,
  0xd2, 0x70, 0x7e, 0xbe, 0x8a, 0xc4, 0x8f, 0xbc, 0xf6, 0x0d, 0xd9, 0x3d,
  0x2a, 0xe3, 0xfe, 0xbc, 0x41, 0xc6, 0x9e, 0xbe, 0x34, 0xcd, 0xad, 0x3e,
  0x24, 0x6a, 0x22, 0x3e, 0xb7, 0xea, 0x35, 0x3d, 0x60, 0x84, 0xc6, 0x3c,
  0x60, 0x26, 0x1b, 0xbc, 0x3e, 0x9a, 0x12, 0x3e, 0x90, 0xd0, 0x7d, 0x3e,
  0x8a, 0x6f, 0xb8, 0x3e, 0xa7, 0x08, 0xb4, 0xbe, 0x1d, 0xba, 0x1c, 0xbd,
  0x23, 0xa6, 0xe1, 0xbd, 0x4d, 0xe5, 0xaa, 0x3e, 0x29, 0x09, 0x2c, 0xbd,
  0x79, 0x51, 0x41, 0xbe, 0x4d, 0x2c, 0xd0, 0xbc, 0x83, 0xd1, 0x69, 0x3e,
  0x38, 0x82, 0x02, 0xbe, 0x06, 0x3f, 0x8f, 0xbe, 0xb5, 0x84, 0x9f, 0x3d,
  0x9d, 0x7f, 0x30, 0x3e, 0xf7, 0x3b, 0x87, 0xbe, 0xd8, 0x20, 0x81, 0xbe,
  0x35, 0x57, 0xc5, 0xbc, 0x54, 0x55, 0x77, 0x3c, 0xc4, 0x6a, 0xcf, 0x3e,
  0x81, 0xce, 0x3f, 0xbb, 0x25, 0x38, 0x81, 0xbe, 0x12, 0x6b, 0x91, 0x3e,
  0x14, 0x54, 0x9d, 0xbe, 0x36, 0xef, 0x82, 0xbe, 0x51, 0x36, 0x11, 0xbe,
  0xdc, 0xf7, 0x0c, 0xbe, 0xaf, 0xa2, 0x21, 0xbe, 0xff, 0xf3, 0x0b, 0xbd,
  0xbb, 0xfa, 0x23, 0x3e, 0x32, 0xe9, 0x99, 0xbe, 0x7b, 0x55, 0x35, 0x3d,
  0x27, 0xc2, 0xaa, 0x3e, 0x0b, 0x31, 0x57, 0x3e, 0x5e, 0xea, 0x45, 0x3e,
  0x45, 0xe4, 0x15, 0xbe, 0x3d, 0x71, 0x67, 0x3c, 0x72, 0x4d, 0x52, 0xbe,
  0x48, 0xc2, 0x62, 0xbd, 0x42, 0x6d, 0xa9, 0x3e, 0x8e, 0xa7, 0x46, 0x3e,
  0x7d, 0xb5, 0xaa, 0xbe, 0xf9, 0xe0, 0x1b, 0xbf, 0xae, 0x35, 0xba, 0xbe,
  0x04, 0x4e, 0x40, 0x3e, 0x66, 0x5f, 0x4d, 0x3e, 0xcd, 0x2b, 0x1c, 0x3e,
  0x68, 0xbc, 0xb1, 0xbe, 0x06, 0x0d, 0xd2, 0xbe, 0x1b, 0xa7, 0x9d, 0xbc,
  0x67, 0xba, 0xab, 0xbe, 0x58, 0xe6, 0x0a, 0xbd, 0x6b, 0xb7, 0x62, 0xbd,
  0x5b, 0xd3, 0x31, 0xbe, 0x7e, 0x19, 0xd8, 0xbe, 0xce, 0x99, 0xfa, 0x3d,
  0x56, 0x1d, 0x73, 0x3e, 0x1d, 0xca, 0x6b, 0xbe, 0x46, 0x47, 0x46, 0xbe,
  0xcf, 0x06, 0xac, 0xbd, 0xd5, 0xeb, 0xe7, 0xbd, 0xe5, 0xca, 0xf9, 0x3d,
  0x3f, 0x3a, 0x3a, 0xbe, 0x2a, 0x61, 0x12, 0x3e, 0xbb, 0xfe, 0x6b, 0x3e,
  0x1f, 0x75, 0x8d, 0xbe, 0xfd, 0xbe, 0x35, 0x3e, 0x08, 0x22, 0x42, 0x3e,
  0x00, 0x1f, 0xc6, 0xbd, 0x55, 0x3c, 0x3b, 0xbe, 0xe0, 0x18, 0x87, 0x3e,
  0x2b, 0xdf, 0xfa, 0xbd, 0xeb, 0x69, 0xb4, 0xbd, 0xa4, 0xb9, 0xb9, 0x3c,
  0x97, 0x59, 0x3d, 0x3e, 0xa2, 0xbb, 0x2e, 0xbe, 0x80, 0x78, 0xeb, 0x3e,
  0x68, 0x9f, 0xee, 0x3e, 0x3f, 0x2a, 0x41, 0xbd, 0x91, 0xd6, 0xfe, 0x3e,
  0x71, 0x1b, 0x8e, 0x3d, 0x68, 0x88, 0xa3, 0xbe, 0x3c, 0x1d, 0xcc, 0x3d,
  0xd2, 0x3a, 0x95, 0x3e, 0xb6, 0x82, 0x87, 0xbe, 0x9e, 0xd0, 0x11, 0x3e,
  0xef, 0x7c, 0x58, 0x3e, 0x33, 0x44, 0xf7, 0x3c, 0xb9, 0x79, 0x4b, 0x3e,
  0x13, 0x68, 0xab, 0x3e, 0x15, 0x04, 0xbb, 0x3c, 0xfa, 0x99, 0x0d, 0x3f,
  0xeb, 0xc5, 0x0f, 0xbe, 0xc8, 0x12, 0x12, 0xbf, 0x67, 0x92, 0x2f, 0x3f,
  0x6b, 0x21, 0x5f, 0x3e, 0x2c, 0x3b, 0xc0, 0x3d, 0x77, 0x30, 0xc5, 0x3e,
  0x0a, 0x9e, 0x3c, 0x3e, 0xf7, 0x70, 0xf5, 0xbe, 0x80, 0x61, 0xe9, 0xbe,
  0x38, 0x0d, 0x23, 0xbd, 0x1e, 0x07, 0x5a, 0xbe, 0x91, 0x53, 0x83, 0xbd,
  0x59, 0x9c, 0xdf, 0xbd, 0x4a, 0x8a, 0x96, 0xbe, 0x31, 0xfd, 0x80, 0xbd,
  0x83, 0x47, 0x80, 0x3e, 0x33, 0x1c, 0x2d, 0x3e, 0x21, 0x1b, 0x8f, 0x3e,
  0x77, 0xe4, 0xa6, 0xbe, 0x09, 0xc8, 0xae, 0xbc, 0x63, 0x53, 0x73, 0x3e,
  0x6e, 0x88, 0x8f, 0xbd, 0x50, 0x4e, 0xc8, 0x3e, 0xe4, 0x31, 0x46, 0xbe,
  0x7e, 0x23, 0x58, 0xbe, 0xa4, 0x36, 0xd9, 0x3d, 0x88, 0x4a, 0x47, 0xbe,
  0x28, 0xed, 0x81, 0x3c, 0x21, 0x94, 0x61, 0x3e, 0x37, 0x89, 0xe1, 0x3a,
  0x92, 0x43, 0x43, 0xbe, 0x89, 0x37, 0x66, 0xbe, 0xb9, 0x86, 0x54, 0xbc,
  0xc2, 0xc5, 0xde, 0x3c, 0x6c, 0x7e, 0x76, 0x3e, 0x8e, 0xa1, 0x83, 0x3d,
  0xba, 0x86, 0x69, 0x3e, 0x3a, 0xfb, 0xa6, 0x3e, 0x3d, 0xd5, 0x44, 0x3e,
  0x09, 0xe6, 0x28, 0xbd, 0x09, 0xc9, 0x1b, 0x3e, 0xab, 0xae, 0xf8, 0x3c,
  0xc1, 0xe2, 0x11, 0x3e, 0x62, 0x5c, 0x55, 0x3e, 0x7f, 0x81, 0x34, 0x3e,
  0xe4, 0xb6, 0x8a, 0xbe, 0x7f, 0xd9, 0x6a, 0xbe, 0x39, 0x9e, 0x8d, 0x3d,
  0xb0, 0xcb, 0x42, 0x3e, 0xe7, 0xa7, 0x51, 0xbe, 0xfd, 0x8d, 0x8a, 0xbe,
  0x9d, 0x20, 0x1d, 0x3c, 0x38, 0xda, 0xff, 0x3d, 0x83, 0xa0, 0x90, 0x3e,
  0x38, 0x6e, 0xa1, 0x3e, 0x62, 0xb7, 0xba, 0x3d, 0xc7, 0xc1, 0x93, 0x3b,
  0xad, 0x3f, 0x17, 0xbe, 0xf4, 0x94, 0x43, 0x3e, 0x8f, 0x5d, 0xa4, 0x3e,
  0x72, 0x86, 0x61, 0xbe, 0x49, 0x09, 0xa2, 0xbe, 0xe4, 0x98, 0x62, 0x3e,
  0x70, 0x51, 0x87, 0x3e, 0xdb, 0xc9, 0x13, 0xbd, 0x9a, 0x85, 0xb3, 0x3b,
  0x85, 0x17, 0x2f, 0x3d, 0xd2, 0x11, 0x9f, 0x3d, 0x8c, 0x51, 0xec, 0x3e,
  0xe0, 0xcd, 0xbf, 0x3e, 0xa8, 0xf8, 0x02, 0x3f, 0xb6, 0xf4, 0x81, 0x3d,
  0x80, 0xc4, 0xa8, 0xbe, 0x95, 0x88, 0x1c, 0xbe, 0x55, 0xd7, 0xa2, 0x3e,
  0xa3, 0x84, 0xe2, 0x3e, 0xe4, 0xe3, 0x00, 0xbc, 0x10, 0xea, 0x8a, 0x3e,
  0xd4, 0x19, 0x46, 0x3e, 0x87, 0xa8, 0x99, 0xbd, 0xc7, 0x8d, 0x9e, 0xbe,
  0x0f, 0xa2, 0xd1, 0xbd, 0xfe, 0xd6, 0x71, 0x3e, 0xb3, 0xe8, 0xcb, 0xbd,
  0x60, 0x99, 0x3d, 0x3e, 0xb1, 0xd2, 0x8c, 0xbd, 0xce, 0xa4, 0xf7, 0xbd,
  0x3b, 0xd6, 0xbe, 0x3e, 0x2d, 0xb9, 0xa2, 0x3e, 0xe8, 0x4b, 0x26, 0x3e,
  0x4c, 0x06, 0x69, 0x3e, 0xc7, 0x2c, 0x81, 0xbe, 0xb3, 0xb1, 0xfd, 0x3e,
  0xe0, 0xf5, 0xb8, 0x3e, 0x06, 0x7d, 0xa8, 0x3e, 0xc0, 0xb8, 0xd6, 0x3e,
  0x3a, 0x56, 0x86, 0x3e, 0x87, 0x39, 0xe8, 0xbe, 0x62, 0x6f, 0xfc, 0x3e,
  0x57, 0x0c, 0x48, 0x3e, 0x58, 0x73, 0x29, 0x3e, 0xb0, 0x00, 0x22, 0x3f,
  0x8f, 0x48, 0x0a, 0x3e, 0x2e, 0x29, 0x9a, 0xbe, 0xc1, 0x6a, 0x0b, 0x3f,
  0xf7, 0x9e, 0x5f, 0x3f, 0x25, 0xc8, 0xab, 0x3e, 0xf4, 0x31, 0x99, 0x3f,
  0x1a, 0x49, 0x5d, 0xbc, 0xd8, 0xfc, 0x8b, 0xbf, 0xfb, 0x32, 0x2e, 0x3f,
  0x92, 0x24, 0x8c, 0x3f, 0xed, 0xb1, 0x4a, 0x3f, 0x49, 0x9f, 0x2d, 0x3f,
  0xb9, 0x26, 0x7a, 0xbe, 0xf1, 0x6d, 0xc7, 0x3d, 0xf8, 0xfa, 0xa5, 0x3e,
  0x3a, 0x29, 0x1d, 0x3f, 0xfa, 0xae, 0x05, 0x3f, 0xe9, 0x49, 0xa4, 0x3e,
  0xfa, 0x9c, 0x6a, 0xbe, 0xdb, 0xd4, 0x4d, 0x3d, 0xcd, 0x74, 0xd9, 0x3d,
  0x46, 0xfe, 0x84, 0xbe, 0x33, 0x53, 0xf5, 0xbc, 0x75, 0x21, 0xe0, 0xbd,
  0x9e, 0xa1, 0xbc, 0x3d, 0x66, 0x85, 0x8d, 0x3e, 0x81, 0xbb, 0x44, 0x3e,
  0x80, 0xe7, 0xad, 0xbe, 0xcd, 0x68, 0xa6, 0xbe, 0x42, 0xa9, 0x90, 0xbe,
  0xe9, 0xe8, 0x28, 0x3e, 0x68, 0x63, 0xd8, 0x3d, 0x44, 0x60, 0x76, 0xbe,
  0x35, 0x26, 0xaf, 0x3c, 0x55, 0xcb, 0x17, 0xbe, 0x2e, 0x89, 0x3a, 0xbe,
  0x63, 0xbc, 0xe0, 0x3c, 0x13, 0x6e, 0x2c, 0x3e, 0x5c, 0x60, 0x55, 0xbe,
  0xe1, 0xee, 0x67, 0xbe, 0x10, 0x56, 0xba, 0xbe, 0x89, 0x83, 0x94, 0x3d,
  0x9b, 0x00, 0x47, 0xbe, 0x30, 0xf2, 0x2c, 0xbe, 0x1f, 0x7a, 0x29, 0xbe,
  0x10, 0x7b, 0x82, 0xbe, 0x94, 0x46, 0x3b, 0xbe, 0xa3, 0xbb, 0x1f, 0xbe,
  0x33, 0xf8, 0xf6, 0xbd, 0x07, 0x1a, 0x20, 0xbe, 0x65, 0x35, 0x92, 0x3e,
  0x57, 0x55, 0xb3, 0xbe, 0x73, 0x01, 0x10, 0xbe, 0xd4, 0x7b, 0x4d, 0xbe,
  0x44, 0x66, 0xd0, 0x3d, 0x1f, 0x69, 0x10, 0x3e, 0xa4, 0x8c, 0x36, 0xbe,
  0xfe, 0x04, 0x2b, 0xbe, 0xd3, 0xe7, 0x6e, 0xbe, 0xc4, 0x1b, 0x2a, 0x3e,
  0xe0, 0x7f, 0x74, 0xbe, 0xd9, 0x53, 0x43, 0xbd, 0x51, 0xa5, 0x5f, 0x3d,
  0xe1, 0x7f, 0xbf, 0xbe, 0x85, 0xfc, 0x84, 0xbc, 0xa8, 0xe1, 0x2e, 0xbf,
  0xeb, 0xa9, 0x5e, 0x3e, 0x61, 0x25, 0xe5, 0xbd, 0x23, 0xd9, 0x17, 0x3f,
  0xee, 0x01, 0xa8, 0xbe, 0x48, 0xda, 0xe9, 0xbe, 0xcb, 0xa2, 0x80, 0xbe,
  0xa5, 0xf7, 0x14, 0x3e, 0x35, 0x21, 0x0e, 0x3e, 0xd2, 0x9e, 0x4d, 0x3d,
  0xb1, 0xce, 0x56, 0xbe, 0x3f, 0x14, 0x96, 0xbe, 0xce, 0x1a, 0x85, 0xbe,
  0xb7, 0xd8, 0x33, 0xbe, 0xa1, 0xe0, 0x85, 0x3e, 0xd4, 0x97, 0x45, 0x3e,
  0x7c, 0x4c, 0x75, 0xbe, 0xac, 0xf2, 0xa5, 0xbe, 0x59, 0x59, 0x61, 0x3e,
  0xf3, 0x86, 0x65, 0xbe, 0x43, 0x04, 0xc3, 0x3d, 0x02, 0x86, 0xc8, 0x3e,
  0x96, 0xf7, 0xc7, 0xbe, 0x2d, 0x8d, 0xe0, 0x3b, 0x77, 0xe5, 0x5e, 0xbe,
  0x77, 0xe2, 0x9f, 0x3d, 0x05, 0x77, 0x0c, 0x3e, 0x22, 0x62, 0x5a, 0x3e,
  0x48, 0xa6, 0x21, 0x3a, 0xc4, 0xd3, 0x5b, 0x3e, 0xa6, 0x28, 0xc2, 0xbe,
  0x78, 0x05, 0xe1, 0xbd, 0x54, 0xd6, 0x2e, 0xbe, 0xc2, 0x87, 0x23, 0x3e,
  0xff, 0x5b, 0x81, 0x3e, 0x5d, 0x27, 0xa6, 0x3e, 0x7e, 0x4c, 0x8f, 0x3e,
  0x4f, 0xb9, 0x65, 0xbe, 0xc3, 0x0d, 0x66, 0x3d, 0xcd, 0x7d, 0x4c, 0x3d,
  0x29, 0xc8, 0x55, 0x3e, 0x90, 0x8e, 0x94, 0x3e, 0xaa, 0x70, 0x92, 0x3d,
  0xe8, 0xbb, 0xbe, 0x3e, 0xd7, 0xb3, 0xb8, 0x3d, 0x1f, 0xa3, 0x70, 0xbe,
  0x8f, 0x67, 0xf1, 0xbd, 0xb0, 0x88, 0x84, 0x3e, 0xb5, 0x5d, 0x0b, 0xbd,
  0xf9, 0x32, 0x8e, 0xbe, 0x0c, 0x20, 0x8b, 0xbe, 0x8b, 0x63, 0x66, 0x3c,
  0x1e, 0xfc, 0x80, 0xbe, 0x3e, 0x4e, 0xe7, 0xbd, 0xda, 0xb8, 0xcd, 0xbd,
  0x1d, 0xb8, 0xab, 0x3e, 0x8e, 0x96, 0x26, 0xbe, 0x1c, 0x5d, 0xa2, 0x3e,
  0x50, 0xf0, 0xed, 0xbd, 0x51, 0x03, 0x92, 0xbe, 0x1a, 0xdd, 0x45, 0xbe,
  0x71, 0xd7, 0x25, 0xbe, 0xc0, 0x6f, 0x7e, 0xbe, 0x3b, 0x1f, 0xc8, 0x3b,
  0xc4, 0xad, 0x01, 0x3a, 0x41, 0x3d, 0x6e, 0xbc, 0x19, 0x82, 0x5c, 0x3e,
  0xc1, 0x31, 0x98, 0xbe, 0x21, 0xda, 0xfd, 0x3d, 0x3e, 0xeb, 0x3a, 0x3d,
  0x4f, 0xbc, 0x89, 0xbe, 0x12, 0x24, 0x7b, 0xbe, 0xc6, 0xa0, 0xf8, 0xbe,
  0x16, 0xbb, 0x3f, 0x3e, 0x4b, 0xa5, 0xa2, 0xbe, 0xf1, 0x2e, 0x74, 0x3e,
  0x5a, 0xf9, 0xc4, 0xbe, 0x4a, 0x58, 0xbe, 0xbe, 0x14, 0x4c, 0x60, 0xbe,
  0x3d, 0x82, 0xd7, 0x3d, 0xa4, 0x50, 0x67, 0xbd, 0xbe, 0xad, 0x4a, 0x3e,
  0xfd, 0x30, 0x1c, 0x3e, 0xfe, 0x6c, 0xf7, 0xbe, 0x0c, 0xff, 0xcb, 0x3d,
  0xc8, 0x6d, 0x10, 0xbe, 0x59, 0x0c, 0x9e, 0xbd, 0x6a, 0x2c, 0xac, 0x3e,
  0x78, 0xe0, 0xaf, 0x3d, 0x30, 0x86, 0xad, 0x3e, 0x9f, 0x9a, 0x00, 0xbf,
  0x44, 0xde, 0x81, 0x3e, 0x3e, 0xa1, 0xc1, 0xbe, 0x84, 0xd8, 0xb9, 0x3c,
  0xd8, 0xce, 0x06, 0xbf, 0xaf, 0xb3, 0x04, 0xbf, 0xd0, 0xa1, 0x2e, 0xbf,
  0x54, 0x18, 0x2f, 0xbe, 0x7e, 0xa4, 0xeb, 0xbd, 0xd8, 0x15, 0xa4, 0xbd,
  0x12, 0xf0, 0x6e, 0xbe, 0xfd, 0xeb, 0x93, 0xbe, 0x50, 0x2d, 0xbf, 0x3d,
  0xd9, 0xa0, 0x47, 0xbe, 0x5a, 0xfe, 0xff, 0xff, 0x10, 0x00, 0x00, 0x00,
  0x06, 0x00, 0x00, 0x00, 0x14, 0x00, 0x00, 0x00, 0x24, 0x00, 0x00, 0x00,
  0x02, 0x00, 0x00, 0x00, 0x10, 0x00, 0x00, 0x00, 0x24, 0x00, 0x00, 0x00,
  0x0c, 0x00, 0x00, 0x00, 0x73, 0x74, 0x64, 0x2e, 0x63, 0x6f, 0x6e, 0x73,
  0x74, 0x61, 0x6e, 0x74, 0x00, 0x00, 0x00, 0x00, 0xdc, 0xfd, 0xff, 0xff,
  0xb2, 0xfe, 0xff, 0xff, 0x04, 0x00, 0x00, 0x00, 0x40, 0x00, 0x00, 0x00,
  0x65, 0x3c, 0x13, 0x3f, 0x17, 0xd9, 0x0f, 0xbf, 0x22, 0xde, 0x25, 0x3f,
  0x68, 0xf2, 0xaf, 0xbd, 0x3a, 0x7a, 0xc0, 0x3c, 0x11, 0xcc, 0x7b, 0x3c,
  0xc6, 0xc1, 0x7f, 0x3e, 0x0a, 0x8e, 0xd3, 0x3d, 0x40, 0xd7, 0xdf, 0x3e,
  0x6e, 0x07, 0x9c, 0xbc, 0xfe, 0x58, 0x30, 0x3e, 0x20, 0x30, 0x41, 0x3f,
  0x71, 0x1a, 0x19, 0xbe, 0xf1, 0xfd, 0x11, 0x3e, 0x2b, 0x45, 0x81, 0x3e,
  0x3a, 0x97, 0x10, 0xbf, 0xde, 0xfe, 0xff, 0xff, 0x10, 0x00, 0x00, 0x00,
  0x05, 0x00, 0x00, 0x00, 0x10, 0x00, 0x00, 0x00, 0x20, 0x00, 0x00, 0x00,
  0x01, 0x00, 0x00, 0x00, 0x10, 0x00, 0x00, 0x00, 0x0d, 0x00, 0x00, 0x00,
  0x64, 0x65, 0x6e, 0x73, 0x65, 0x5f, 0x31, 0x37, 0x2f, 0x62, 0x69, 0x61,
  0x73, 0x00, 0x00, 0x00, 0x5c, 0xfe, 0xff, 0xff, 0x32, 0xff, 0xff, 0xff,
  0x04, 0x00, 0x00, 0x00, 0x28, 0x00, 0x00, 0x00, 0xee, 0xa0, 0x6f, 0x3d,
  0xd2, 0x1f, 0xfe, 0x3e, 0x76, 0x9e, 0x37, 0xbd, 0xee, 0xdb, 0x55, 0xbe,
  0xb5, 0xdc, 0x94, 0x3e, 0x52, 0xb9, 0x16, 0x3e, 0x68, 0xf1, 0x82, 0xbe,
  0x4b, 0xc8, 0x0a, 0x3e, 0x41, 0x69, 0x0a, 0xbd, 0x3b, 0x02, 0x13, 0x3e,
  0x46, 0xff, 0xff, 0xff, 0x10, 0x00, 0x00, 0x00, 0x04, 0x00, 0x00, 0x00,
  0x10, 0x00, 0x00, 0x00, 0x20, 0x00, 0x00, 0x00, 0x01, 0x00, 0x00, 0x00,
  0x0a, 0x00, 0x00, 0x00, 0x0d, 0x00, 0x00, 0x00, 0x64, 0x65, 0x6e, 0x73,
  0x65, 0x5f, 0x31, 0x38, 0x2f, 0x62, 0x69, 0x61, 0x73, 0x00, 0x00, 0x00,
  0xc4, 0xfe, 0xff, 0xff, 0x9a, 0xff, 0xff, 0xff, 0x04, 0x00, 0x00, 0x00,
  0x20, 0x00, 0x00, 0x00, 0x4e, 0xf5, 0x48, 0x3e, 0xda, 0x22, 0x32, 0xbe,
  0xa3, 0x83, 0xb4, 0x3b, 0xbd, 0x1a, 0x78, 0x3e, 0xed, 0xa7, 0xcd, 0xbb,
  0x16, 0x9f, 0xeb, 0x3a, 0x00, 0x4f, 0xf0, 0x3e, 0xa3, 0x8d, 0x07, 0x3e,
  0xa6, 0xff, 0xff, 0xff, 0x10, 0x00, 0x00, 0x00, 0x03, 0x00, 0x00, 0x00,
  0x10, 0x00, 0x00, 0x00, 0x24, 0x00, 0x00, 0x00, 0x01, 0x00, 0x00, 0x00,
  0x08, 0x00, 0x00, 0x00, 0x0d, 0x00, 0x00, 0x00, 0x64, 0x65, 0x6e, 0x73,
  0x65, 0x5f, 0x31, 0x39, 0x2f, 0x62, 0x69, 0x61, 0x73, 0x00, 0x00, 0x00,
  0x04, 0x00, 0x06, 0x00, 0x04, 0x00, 0x00, 0x00, 0x00, 0x00, 0x06, 0x00,
  0x08, 0x00, 0x04, 0x00, 0x06, 0x00, 0x00, 0x00, 0x04, 0x00, 0x00, 0x00,
  0x0c, 0x00, 0x00, 0x00, 0xce, 0x1e, 0x7a, 0xbe, 0x78, 0x7d, 0x31, 0x3e,
  0xa9, 0xee, 0xc0, 0x3d, 0x00, 0x00, 0x0e, 0x00, 0x14, 0x00, 0x04, 0x00,
  0x00, 0x00, 0x08, 0x00, 0x0c, 0x00, 0x10, 0x00, 0x0e, 0x00, 0x00, 0x00,
  0x10, 0x00, 0x00, 0x00, 0x02, 0x00, 0x00, 0x00, 0x10, 0x00, 0x00, 0x00,
  0x20, 0x00, 0x00, 0x00, 0x01, 0x00, 0x00, 0x00, 0x03, 0x00, 0x00, 0x00,
  0x0d, 0x00, 0x00, 0x00, 0x64, 0x65, 0x6e, 0x73, 0x65, 0x5f, 0x32, 0x30,
  0x2f, 0x62, 0x69, 0x61, 0x73, 0x00, 0x00, 0x00, 0x8c, 0xff, 0xff, 0xff,
  0x14, 0x00, 0x18, 0x00, 0x04, 0x00, 0x00, 0x00, 0x08, 0x00, 0x0c, 0x00,
  0x10, 0x00, 0x00, 0x00, 0x00, 0x00, 0x14, 0x00, 0x14, 0x00, 0x00, 0x00,
  0x14, 0x00, 0x00, 0x00, 0x01, 0x00, 0x00, 0x00, 0x18, 0x00, 0x00, 0x00,
  0x48, 0x00, 0x00, 0x00, 0x38, 0x00, 0x00, 0x00, 0x02, 0x00, 0x00, 0x00,
  0x01, 0x00, 0x00, 0x00, 0x24, 0x00, 0x00, 0x00, 0x20, 0x00, 0x00, 0x00,
  0x73, 0x65, 0x72, 0x76, 0x69, 0x6e, 0x67, 0x5f, 0x64, 0x65, 0x66, 0x61,
  0x75, 0x6c, 0x74, 0x5f, 0x64, 0x65, 0x6e, 0x73, 0x65, 0x5f, 0x31, 0x37,
  0x5f, 0x69, 0x6e, 0x70, 0x75, 0x74, 0x3a, 0x30, 0x00, 0x00, 0x00, 0x00,
  0x02, 0x00, 0x00, 0x00, 0xff, 0xff, 0xff, 0xff, 0x24, 0x00, 0x00, 0x00,
  0xfc, 0xff, 0xff, 0xff, 0x04, 0x00, 0x04, 0x00, 0x04, 0x00, 0x00, 0x00
};
const int g_model_len = 5484;
